{"version":"1.0","truncation":null,"padding":null,"added_tokens":[{"id":0,"special":true,"content":"<s>","single_word":false,"lstrip":false,"rstrip":false,"normalized":false},{"id":1,"special":true,"content":"<pad>","single_word":false,"lstrip":false,"rstrip":false,"normalized":false},{"id":2,"special":true,"content":"</s>","single_word":false,"lstrip":false,"rstrip":false,"normalized":false},{"id":3,"special":true,"content":"<unk>","single_word":false,"lstrip":false,"rstrip":false,"normalized":false},{"id":4,"special":true,"content":"<mask>","single_word":false,"lstrip":false,"rstrip":false,"normalized":false}],"normalizer":null,"pre_tokenizer":{"type":"ByteLevel","add_prefix_space":false,"trim_offsets":true},"post_processor":{"type":"ByteLevel","add_prefix_space":true,"trim_offsets":false},"decoder":{"type":"ByteLevel","add_prefix_space":true,"trim_offsets":true},"model":{"type":"BPE","dropout":null,"unk_token":null,"continuing_subword_prefix":null,"end_of_word_suffix":null,"fuse_unk":false,"vocab":{"<s>":0,"<pad>":1,"</s>":2,"<unk>":3,"<mask>":4,"!":5,"\"":6,"#":7,"$":8,"%":9,"&":10,"'":11,"(":12,")":13,"*":14,"+":15,",":16,"-":17,".":18,"/":19,"0":20,"1":21,"2":22,"3":23,"4":24,"5":25,"6":26,"7":27,"8":28,"9":29,":":30,";":31,"<":32,"=":33,">":34,"?":35,"@":36,"A":37,"B":38,"C":39,"D":40,"E":41,"F":42,"G":43,"H":44,"I":45,"J":46,"K":47,"L":48,"M":49,"N":50,"O":51,"P":52,"Q":53,"R":54,"S":55,"T":56,"U":57,"V":58,"W":59,"X":60,"Y":61,"Z":62,"[":63,"\\":64,"]":65,"^":66,"_":67,"`":68,"a":69,"b":70,"c":71,"d":72,"e":73,"f":74,"g":75,"h":76,"i":77,"j":78,"k":79,"l":80,"m":81,"n":82,"o":83,"p":84,"q":85,"r":86,"s":87,"t":88,"u":89,"v":90,"w":91,"x":92,"y":93,"z":94,"{":95,"|":96,"}":97,"~":98,"¡":99,"¢":100,"£":101,"¤":102,"¥":103,"¦":104,"§":105,"¨":106,"©":107,"ª":108,"«":109,"¬":110,"®":111,"¯":112,"°":113,"±":114,"²":115,"³":116,"´":117,"µ":118,"¶":119,"·":120,"¸":121,"¹":122,"º":123,"»":124,"¼":125,"½":126,"¾":127,"¿":128,"À":129,"Á":130,"Â":131,"Ã":132,"Ä":133,"Å":134,"Æ":135,"Ç":136,"È":137,"É":138,"Ê":139,"Ë":140,"Ì":141,"Í":142,"Î":143,"Ï":144,"Ð":145,"Ñ":146,"Ò":147,"Ó":148,"Ô":149,"Õ":150,"Ö":151,"×":152,"Ø":153,"Ù":154,"Ú":155,"Û":156,"Ü":157,"Ý":158,"Þ":159,"ß":160,"à":161,"á":162,"â":163,"ã":164,"ä":165,"å":166,"æ":167,"ç":168,"è":169,"é":170,"ê":171,"ë":172,"ì":173,"í":174,"î":175,"ï":176,"ð":177,"ñ":178,"ò":179,"ó":180,"ô":181,"õ":182,"ö":183,"÷":184,"ø":185,"ù":186,"ú":187,"û":188,"ü":189,"ý":190,"þ":191,"ÿ":192,"Ā":193,"ā":194,"Ă":195,"ă":196,"Ą":197,"ą":198,"Ć":199,"ć":200,"Ĉ":201,"ĉ":202,"Ċ":203,"ċ":204,"Č":205,"č":206,"Ď":207,"ď":208,"Đ":209,"đ":210,"Ē":211,"ē":212,"Ĕ":213,"ĕ":214,"Ė":215,"ė":216,"Ę":217,"ę":218,"Ě":219,"ě":220,"Ĝ":221,"ĝ":222,"Ğ":223,"ğ":224,"Ġ":225,"ġ":226,"Ģ":227,"ģ":228,"Ĥ":229,"ĥ":230,"Ħ":231,"ħ":232,"Ĩ":233,"ĩ":234,"Ī":235,"ī":236,"Ĭ":237,"ĭ":238,"Į":239,"į":240,"İ":241,"ı":242,"Ĳ":243,"ĳ":244,"Ĵ":245,"ĵ":246,"Ķ":247,"ķ":248,"ĸ":249,"Ĺ":250,"ĺ":251,"Ļ":252,"ļ":253,"Ľ":254,"ľ":255,"Ŀ":256,"ŀ":257,"Ł":258,"ł":259,"Ń":260,"à¯":261,"à¯į":262,"Ġà":263,"Ġà®":264,"à¯ģ":265,"®¿":266,"à®¿":267,"®ķ":268,"à®ķ":269,"®¤":270,"à®¤":271,"®°":272,"à®°":273,"®¾":274,"à®¾":275,"®Ł":276,"à®Ł":277,"®©":278,"à®©":279,"®®":280,"à®®":281,"®²":282,"à®²":283,"®ª":284,"à®ª":285,"à¯Ī":286,"®¯":287,"à®¯":288,"®³":289,"à®³":290,"®±":291,"à®±":292,"®µ":293,"à®µ":294,"Ġà®ª":295,"Ġà®ķ":296,"Ġà®µ":297,"®ļ":298,"à®ļ":299,"®¨":300,"à®¨":301,"à¯ĩ":302,"à®ķà®³":303,"Ġà®®":304,"®£":305,"à®£":306,"Ġà®¤":307,"Ġà®ħ":308,"Ġà®ļ":309,"à¯Ĩ":310,"Ġà®ĩ":311,"Ġà®¨":312,"à¯ĭ":313,"Ġà®İ":314,"à¯į.":315,"®Ļ":316,"à®Ļ":317,"à¯Ĭ":318,"®´":319,"à®´":320,"à®ªà®Ł":321,"à¯Ģ":322,"à¯Ĥ":323,"à®µà®°":324,"Ġà®İà®©":325,"Ġà®ī":326,"à¯į,":327,"à¯ģ.":328,"Ġà®Ĩ":329,"Ġà®ĩà®°":330,"Ġà®Ĵ":331,"®¸":332,"à®¸":333,"à®ªà®¤":334,"Ġà®ħà®¤":335,"à®Łà®¤":336,"âĢ":337,"à®µà®¤":338,"®ĩ":339,"à®ĩ":340,"Ġà®µà®°":341,"à®©à®°":342,"à®Łà®®":343,"à®±à®¤":344,"Ġà®°":345,"à®ķà®ª":346,"à®¤à®²":347,"à®ķà®®":348,"Ġà®Ĵà®°":349,"à®¤à®¤":350,"Ġà®ķà®Ł":351,"®ħ":352,"à®ħ":353,"®ľ":354,"à®ľ":355,"à®°à®®":356,"à®ķà®µ":357,"à®ķà®¤":358,"Ġà®ĩà®¨":359,"Ġà®ħà®µà®°":360,"à®³à®¤":361,"Ġà®¨à®Ł":362,"à®¤à®©":363,"à®ķà®°":364,"Ġà®ı":365,"à®Łà®©":366,"à¯ģ,":367,"à®¤à®®":368,"Ġà®ħà®°":369,"à®¯à®¤":370,"à®¯à®²":371,"Ġà®ħà®®":372,"Ġà®īà®³":373,"à®¯à®®":374,"®·":375,"à®·":376,"à®Łà®°":377,"à®µà®©":378,"Ġà®®à®±":379,"Ġà®ªà®Ł":380,"ÂŃ":381,"à®¯à®°":382,"à®©à®¤":383,"Ġà®Ł":384,"Ġà®ĩà®¤":385,"Ġà®ħà®©":386,"Ġà®ĩà®²":387,"Ġ1":388,"Ġà®ľ":389,"Ġà®ħà®Ł":390,"Ġà®¤à®®":391,"®ŀ":392,"à®ŀ":393,"à®°à®¤":394,"à®³à®°":395,"Ġà®µà®´":396,"..":397,"ĠâĢ":398,"à®²à®®":399,"à®¤à®°":400,"Ġà®µà®¨":401,"Ġà®ħà®±":402,"Ġà®ªà®²":403,"à®°à®£":404,"Ġ2":405,"Ġà®ħà®°à®ļ":406,"Ġà®®à®ķ":407,"à¯Ī.":408,"à®ķà®²":409,"Ġà®ĩà®©":410,"Ġà®ķà®£":411,"à®ªà®°":412,"à®®à®²":413,"Ġà®ıà®±":414,"Ġà®İà®¤":415,"Ġà®ķà®²":416,"®İ":417,"à®İ":418,"Ġà®ļà®®":419,"à®¿,":420,"Ġà®ªà®¤":421,"Ġà®¤à®²":422,"à®¤à®ª":423,"à®²à®¤":424,"ĠĠ":425,"à®¿.":426,"®Ĩ":427,"à®Ĩ":428,"Ġà®¯":429,"Ġ.":430,"Ġà®ħà®¨":431,"Ġà®ħà®µ":432,"Ġà®®à®©":433,"à®Łà®Ļ":434,"à®¯à®©":435,"à®ļà®®":436,"Ġà®¤à®©":437,"Ġà®ªà®£":438,"Ġ(":439,"à®Łà®²":440,"Ġà®īà®£":441,"Ġà®Ĩà®£":442,"Ġà®ķà®°":443,"à®®à®©":444,"à®ĩà®¨":445,"Ġà®ħà®²":446,"à®¯à®ķ":447,"à®ļà®°":448,"à®¤à®µ":449,"Ġà®ħà®ª":450,"Ġà®İà®Ł":451,"Ġà®ªà®ķ":452,"à®µà®Ł":453,"Ġà®²":454,"à®©à®®":455,"à®³à®µ":456,"Ġà®Ĩà®ķ":457,"à®¯à®ª":458,"Ġà®īà®°":459,"à®®à®¤":460,"à®ķà®Ł":461,"à®±à®ª":462,"Ġà®ĵ":463,"à¯Ī,":464,"Ġà®İà®´":465,"00":466,"à®ĩà®¤":467,"à®´à®ķ":468,"à¯įÂŃ":469,"Ġà®ªà®°":470,"Ġà®ħà®£":471,"Ġà®®à®¤":472,"Ġà®īà®±":473,"à®µà®²":474,"Ġà®Ĭ":475,"Ġà®¸":476,"à®µà®®":477,"à®°à®ļ":478,"Ġà®¨à®®":479,"à®¤à®ķ":480,"à®Łà®ª":481,"âĢĻ":482,"Ġà®ļà®°":483,"Ġà®®à®Ł":484,"Ġà®Ĵà®©":485,"Ġà®ļà®¨":486,"à®²à®ķ":487,"à®³à®®":488,"Ġ-":489,"Ġà®Ĩà®©":490,"à®Łà®ķ":491,"®¹":492,"à®¹":493,"à®ļà®©":494,"Âł":495,"Ġà®®à®£":496,"à®±à®©":497,"à®ķà®´":498,"à®±à®®":499,"Ġà®¤à®°":500,"Ġà®¹":501,"Ġà®®à®°":502,"Ġà®ªà®±":503,"à®¾à¯į":504,"Ġà®İà®²":505,"âĢĿ":506,"à®£à®®":507,"Ġà®ĩà®ª":508,"à®¯à®±":509,"à®ħà®¤":510,"à®¯à®µ":511,"à®¯à®Ļ":512,"à®ķà®©":513,"à®ļà®¤":514,"Ġà®ħà®´":515,"à®´à®¨":516,"Ġà®µà®´à®Ļ":517,"Ġ3":518,"à®±à®ķ":519,"Ġà®Ĩà®Ł":520,"Ġà®Ĳ":521,"à®ķà®ķ":522,"Ġà®µà®ķ":523,"ĠâĢĺ":524,"01":525,"à®¤à®µà®°":526,"ĠĠĠĠ":527,"Ġà®ħà®¤à®©":528,"à®±à®¨":529,"Ġà®Ī":530,"Ġà®¤à®Ł":531,"Ġà®¤à®Ļ":532,"®ī":533,"à®ī":534,"à®°à®£à®®":535,"Ġà®¨à®Łà®¤":536,"Ġà®īà®Ļ":537,"à®³à®©à®°":538,"à®¾,":539,"à®µà®¤à®±":540,"Ġà®Ĩà®°":541,"Ġà®ĩà®£":542,"Ġà®Ĩà®¯":543,"Ġà®¨à®²":544,"à®µà®±":545,"Ġà®ķà®¤":546,"Ġà®ªà®¯":547,"à®±à®©à®°":548,"in":549,"à®İà®©":550,"à®ªà®®":551,"Ġà®ªà®Łà®¤":552,"à®¤à®©à®°":553,"à®²à®µ":554,"an":555,"à®°à®ª":556,"Ġà®ĩà®°à®£":557,"Ġà®ļà®Ł":558,"à®®à®°":559,"Ġà®µà®²":560,"Ġà®ĩà®µà®°":561,"Ġà®İà®£":562,"Ġà®ªà®¯à®©":563,"Ġà®ĩà®¯à®ķ":564,"à®¾?":565,"Ġà®µà®´à®ķ":566,"à®ªà®©":567,"Ġà®ħà®Ļ":568,"Ġà®īà®¤":569,"à®ļà®²":570,"Ġà®İà®ª":571,"ĠâĢľ":572,"Ġ5":573,"à¯ĩà®¾":574,"Ġà®ħà®³":575,"Ġà®ĩà®Ł":576,"Ġà®ħà®µà®©":577,"Ġà®Ĩà®ļ":578,"Ġ'":579,"à®²à®Ļ":580,"Ġà®ħà®³à®µ":581,"à®ªà®ķ":582,"à®³à®©":583,"Ġà®¤à®±":584,"à¯Ĩà®¾":585,"Ġà®īà®Ł":586,"à®ªà®µà®°":587,"à®²à®°":588,"à®±à®µ":589,"Ġà®İà®¨":590,"Ġà®¨à®Łà®¨":591,"Ġà®İà®©à®ķ":592,"Ġà®ĩà®±":593,"à®°à®°":594,"à®Ĩà®©":595,"er":596,"Ġà®ķà®Łà®¨":597,"Ġ,":598,"Ġ4":599,"à®ķà®£":600,"à¯į!":601,"à®µà®ķ":602,"ĠâĢĵ":603,"Ġà®ĩà®Łà®®":604,"Ġà®İà®Ļ":605,"à®¤à®°à®µ":606,"Ġà®¤à®©à®¤":607,"à®ķà®ļ":608,"à®°à®Ł":609,"à®°à®µ":610,"Ġà®īà®¯à®°":611,"à®´à®®":612,"Ġà®ĩà®µ":613,"à®ķà®µà®²":614,"à¯ĩ.":615,"à®¾.":616,"...":617,"ar":618,"à®°à®Ļ":619,"®Ĵ":620,"à®Ĵ":621,"Ġà®ĩà®¤à®©":622,"Ġà®¤à®¯":623,"Ġà®ħà®ķ":624,"Ġà®µà®Ł":625,"Ġà®īà®¯":626,"Ġ\"":627,"à®°à®ķ":628,"à®°à®©":629,"à®®à®ķ":630,"Ġà®¨à®©":631,"Ġà®īà®¤à®µ":632,"Ġà®īà®Łà®²":633,"ĥà®ª":634,"on":635,"am":636,"th":637,"Ġà®¤à®ķà®µà®²":638,"à®Łà®µ":639,"à®ĩà®¤à®©":640,"âĢ¦":641,"à®¤à®Ļ":642,"à®¯à®Ł":643,"à¯ĩ,":644,"Ġà®ĵà®Ł":645,"Ġà®ªà®Łà®®":646,"à®°à®²":647,"Ġà®ļà®ķ":648,"Ġà®ķà®²à®¨":649,"Ġà®İà®®":650,"à®ªà®¤à®±":651,"Ġà®µà®³à®°":652,"Ġà®ĩà®Ļ":653,"à¯įâĢĻ":654,"Ġà®ªà®Ļ":655,"à®£à®¤":656,"or":657,"à¯į:":658,"à®©à®µ":659,"à®³à®ķ":660,"à®ªà®²":661,"Ġà®¨à®ķà®°":662,"Ġ6":663,"al":664,"Ġà®ħà®µà®³":665,"Ġà®¤à®£":666,"Ġà®ľà®©":667,"à®ªà®µ":668,"Ġ|":669,"Ġà®¨à®Łà®µà®Ł":670,"à®ħà®µà®°":671,"à®ķà®Ļ":672,"Ġ201":673,"à¯į)":674,"Ġà®ªà®³":675,"il":676,"à®ªà®¨":677,"Ġà®ĩà®²à®Ļ":678,"Ġà®Ĩà®°à®®":679,"à®ŀà®°":680,"âĢĮ":681,"Ġà®Īà®Ł":682,"à®²à®ª":683,"Ġà®ħà®¤à®±":684,"Ġà®¤à®µ":685,"à®£à®ª":686,"Ġà®ĩà®Łà®¤":687,"à®µà®ļ":688,"Ġà®µà®¯à®¤":689,"ĠT":690,"at":691,"Ġà®ħà®ļ":692,"à®ªà®±":693,"à¯į?":694,"en":695,"Ġà®īà®£à®°":696,"à®£à®µà®°":697,"®ı":698,"à®ı":699,"Ġà®ķà®µ":700,"es":701,"Ġà®®à®²":702,"Ġà®ĩà®³":703,"à®´à®²":704,"Ġà®·":705,"Ġà®ķà®´":706,"Ġà®īà®²à®ķ":707,"Ġà®īà®Łà®©":708,"Ġà®ļà®Ļ":709,"Ġà®ªà®´":710,"Ġà®ķà®±":711,"à®ħà®ª":712,"Ġ7":713,"à®´à®°":714,"à®µà®©à®®":715,"à®¤à®¨":716,"à®Łà®©à®°":717,"à¯į'":718,"Ġà®Ĵà®ª":719,"Ġà®ķà®®":720,"ĠĠĠĠĠĠĠĠ":721,"à®°à®¤à®®":722,"Ġà®ħà®µà®°à®¤":723,"Ġà®µà®ļ":724,"Ġ19":725,"à®Ĩà®®":726,"à®¯à®µà®°":727,"Ġà®ıà®©":728,"à®®à®£":729,"Ġ10":730,"Ġà®ļà®¤":731,"Ġà®¤à®¨":732,"Ġà®Ĩà®®":733,"à®°à®¸":734,"à¯į-":735,"à®¿ÂŃ":736,"à¯įâĢĿ":737,"à®Ĵà®°":738,"à®µà®¨":739,"ĠS":740,"Ġà®īà®£à®µ":741,"Ġà®Ĭà®°":742,"Ġà®Ĩà®±":743,"Ġà®Ĩà®¤":744,"Ġà®ĩà®ļ":745,"Ġà®Ĩà®²":746,"à®³à®Ļ":747,"Ġà®µà®£":748,"Ġà®İà®©à®µ":749,"à®£à®©":750,"à®ĩà®©":751,"Ġà®°à®ļ":752,"Ġ8":753,"Ġà®ļà®ª":754,"à®³à®ª":755,"à®ļà®ª":756,"Ġà®²à®Ł":757,"à®·à®©":758,"om":759,"âĢľ":760,"®Ĳ":761,"à®Ĳ":762,"à®ħà®¨":763,"201":764,"Ġà®īà®²":765,"à¯į;":766,"Ġà®Ĵà®µ":767,"Ġà®Ĵà®¤":768,"Ġà®µà®°à®µ":769,"à®¤à®±":770,"Ġà®ıà®¤":771,"à¯ĭ,":772,"Ġà®Ĩà®³":773,"Ġà®¤à®µà®±":774,"à®ķà®³à®¤":775,"à®Łà®µà®°":776,"à®µà®©à®¤":777,"Ġà®ªà®Łà®Ļ":778,"à®İà®¸":779,"Ġà®ķà®©":780,"ĠM":781,"à®ªà®Łà®¤":782,"Ġà®¨à®£":783,"à®±à®µà®°":784,"ed":785,"Ġ:":786,"Ġà®ªà®¤à®µ":787,"à¯į...":788,"à®°à®¤à®®à®°":789,"st":790,"à®µà®³à®µ":791,"Ġà®İà®¸":792,"à®£à®µ":793,"Ġà®ĩà®²à®ķ":794,"Ġ9":795,"Ġà®¨à®Łà®ķ":796,"Ġà®īà®©":797,"ĠA":798,"Ġà®ªà®²à®°":799,"à®²à®©":800,"Ġà®µà®Ļ":801,"à¯Ĥ.":802,"®ĥà®ª":803,"à®ĥà®ª":804,"à®ľà®¯":805,"ĠC":806,"Ġà®ħà®´à®ķ":807,"à®©à®µà®°":808,"Ġà®ĩà®Łà®Ļ":809,"à®ķà®±":810,"Ġà®Ĩà®¤à®°à®µ":811,"à®´à®ķà®¤":812,"à®£à®°":813,"Ġà®µà®°à®²":814,"à®ħà®¤à®©":815,"à¯Į":816,"à®±à®²":817,"à®ªà®Łà®µ":818,"Ġà®ķà®³":819,"à®µà®Ļ":820,"à®¨à®°":821,"à®ĩà®ª":822,"âĢĺ":823,"Ġà®İà®µ":824,"000":825,"à®±à®Ļ":826,"à®¾à¯į.":827,"Ġà®īà®±à®µ":828,"à¯į..":829,"ĠP":830,"Ġà®¤à®ķ":831,"à®µà®³":832,"ĠN":833,"ic":834,"à®£à®Ļ":835,"Ġà®ĵà®°":836,"à®ļà®Ļ":837,"ad":838,"Ġà®ĩà®¤à®±":839,"à®ļà®¨":840,"à®¤à®Ł":841,"Ġà®İà®©à®¤":842,"Ġ0":843,"Ġà®ĩà®´":844,"à®µà®ª":845,"Ġs":846,"à®ľà®©":847,"Ġt":848,"Ġà®Ĩà®ª":849,"à®ªà®µà®®":850,"Ġà®¤à®³":851,"it":852,"amil":853,"Ġà®īà®ļ":854,"ou":855,"Ġ12":856,"à¯ģ:":857,"à®¯à®ļ":858,"à®ªà®Łà®®":859,"Ġà®ªà®ļ":860,"re":861,"Ġà®ĩà®°à®µ":862,"à®¨à®ķà®°":863,"Ġà®ĥà®ª":864,"Ġà®®à®ķà®©":865,"Ġà®ªà®©":866,"à®ħà®®":867,"à®İà®²":868,"à®¤à®ļ":869,"Ġà®®à®´":870,"Ġà®¤à®°à®ª":871,"à¯ģ!":872,"is":873,"Ġ15":874,"à¯ģÂŃ":875,"Ġà®®à®©à®¤":876,"Ġ20":877,"à®ªà®°à®ª":878,"Ġà®µà®³":879,"à®ªà®Ļ":880,"Ġà®ħà®®à®°":881,"Ġà®ķà®£à®ķ":882,"Ġc":883,"à®µà®©à®Ļ":884,"à®®à®£à®®":885,"ing":886,"à®©à®Ļ":887,"Ġà®µà®ļà®¤":888,"Ġà®Ĵà®Ł":889,"ï¿":890,"le":891,"Ġà®®à®ķà®³":892,"ï¿½":893,"à®ļà®ķ":894,"Ġà®¨à®ķ":895,"à®ªà®£":896,"19":897,"Ġà®ļà®¤à®µ":898,"Ġà®ķà®Łà®²":899,"à®©à®ª":900,"à®Łà®£":901,"Ġà®ŀ":902,"à®ĩà®µà®°":903,"à¯į\"":904,"Ġà®Ĵà®´":905,"Ġà®İà®°":906,"à®ªà®ª":907,"à®µà®®à®©":908,"à®®à®®":909,"Ġà®¨à®ªà®°":910,"à®ķà®Łà®¨":911,"Ġà®ªà®£à®®":912,"Ġ200":913,"Ġà®°à®¤":914,"Ġà®ħà®µà®±":915,"à®°à®³":916,"Ġà®ħà®µà®ļ":917,"à®ªà®¯":918,"à®ķà®°à®©":919,"à¯ģ?":920,"Ġà®İà®³":921,"à®ľà®°":922,"Ġà®Ĭà®Ł":923,"à®ªà®³":924,"Ġp":925,"//":926,"à®©à®£":927,"à®¯à®¨":928,"à®®à®±":929,"Ġà®ıà®°":930,"à¯Ī:":931,"à®ħà®©":932,"ew":933,"Ġà®ļà®©":934,"Ġà®ĩà®¯à®²":935,"ĠR":936,"à®¨à®Ł":937,"Ġà®ªà®¯à®£":938,"Ġw":939,"Ġà®µà®©":940,"Ġà®¤à®ª":941,"ion":942,"Ġth":943,"à®¯à®²à®²":944,"Ġ11":945,"à®Łà®ļ":946,"à®ĩà®°":947,"ĠI":948,"Ġà®Ĵà®³":949,"Ġm":950,"à®µà®°à®¤":951,"à®Ĩà®°":952,"à¯įâĢ¦":953,"as":954,"Ġà®Ĩà®µ":955,"Ġf":956,"ĠB":957,"à®ĩà®¤à®±":958,"20":959,"Ġà®ĩà®®":960,"ĠD":961,"Ġà®°à®¯":962,"à®©à®ķ":963,"Ġà®¨à®®à®ķ":964,"Ġà®ĩà®¸":965,"ĠTamil":966,"Ġ18":967,"Ġà®ķà®ª":968,"Ġb":969,"à®·à®®":970,"Ġ!":971,"à®ħà®Ł":972,"Ġà®°à®ľ":973,"à®©à®²":974,"Ġà®Ĩà®Ļ":975,"Ġà®İà®ļ":976,"Ġà®ĩà®¯à®±":977,"el":978,"à®¾ÂŃ":979,"à¯ĩ!":980,"....":981,"30":982,"à®ĩà®µ":983,"ay":984,"à®ļà®Ł":985,"Ġà®Ĳà®¨":986,"ol":987,"Ġà®¨à®®à®¤":988,"à®©à®©":989,"à®³à®²":990,"ent":991,"à®ļà®¯à®®":992,"Ġh":993,"Ġà®ķà®Łà®©":994,"à®´à®ª":995,"à®¾à®¾à¯į":996,"à®ľà®ķ":997,"à®®à®Ł":998,"à®±à®ļ":999,"Ġà®µà®Łà®ķ":1000,"Ġà®ļà®µ":1001,"Ġ30":1002,"à®¤à®ªà®Ł":1003,"Ġà®Ĭà®´":1004,"Ġà®ªà®´à®ķ":1005,"Ġ?":1006,"Ġà®ļà®±":1007,"Ġin":1008,"à®®à®¨":1009,"Ġà®ªà®¨":1010,"Ġà®¤à®®à®¤":1011,"à®ķà®¨":1012,"ï¿½ï¿½":1013,"ĠĠĠĠĠĠĠĠĠĠĠĠĠĠĠĠ":1014,"à®µà®£":1015,"Ġà®ıà®´":1016,"10":1017,"Ġ14":1018,"à®ķà®©à®µ":1019,"ai":1020,"à®Łà®±":1021,"à®µà®²à®°":1022,"à®İà®©à®µ":1023,"ĠF":1024,"à®°à®£à®¤":1025,"à®İà®®":1026,"Ġ25":1027,"Ġà®ĩà®±à®¨":1028,"Ġà®ĩà®±à®Ļ":1029,"à®¤à®ķà®®":1030,"Ġà®īà®ª":1031,"ews":1032,"à®¿:":1033,"Ġà®ķà®µà®©":1034,"Ġa":1035,"Ġà®®à®©à®®":1036,"ur":1037,"Ġà®ĩà®ķ":1038,"Ġd":1039,"Ġà®Īà®°":1040,"à®¯à®µà®±":1041,"),":1042,"à®ĩà®²à®Ļ":1043,"Ġà®ĩà®¯à®Ļ":1044,"Ġà®ķà®®à®²":1045,"Ġo":1046,"et":1047,"Ġ16":1048,"à®²à®Ł":1049,"à®ķà®°à®®":1050,"Ġà®°à®©":1051,"and":1052,"à®¤à®²à®®":1053,"®ĵ":1054,"à®ĵ":1055,"à®ħà®°à®ļ":1056,"Ġà®īà®´":1057,"Ġà®ļà®£":1058,"à®īà®Ļ":1059,"Ġà®ķà®Łà®µ":1060,"Ġà®¤à®©à®ķ":1061,"Ġ[":1062,"Ġà®ļà®²":1063,"Ġ13":1064,"id":1065,"Ġà®īà®Łà®©à®Ł":1066,"Ġà®ªà®°à®µ":1067,"à®¤à®©à®®":1068,"''":1069,"Ġà®Ĵà®²":1070,"ch":1071,"Ġà®ķà®Łà®±":1072,"Ġà®µà®±":1073,"à®¤à®µà®©":1074,"à®ļà®©à®®":1075,"à®ķà®£à®ķ":1076,"Ġ/":1077,"Ġà®ķà®µà®°":1078,"Ġà®ķà®µà®²":1079,"à®ĩà®²":1080,"ag":1081,"Ġà®ħà®ŀ":1082,"Ġthe":1083,"ÂłÂł":1084,"Ġà®ĩà®´à®¨":1085,"à®¯à®³":1086,"Ġ50":1087,"Ġà®°à®µ":1088,"Ġà®ĩà®³à®®":1089,"ĠG":1090,"Ġà®ªà®£à®¤":1091,"ir":1092,"à®®à®Ļ":1093,"à®ªà®Łà®Ļ":1094,"Ġà®İà®©à®ª":1095,"Ġ#":1096,"à®£à®ķ":1097,"em":1098,"à®ħà®µ":1099,"ĠL":1100,"Ġ17":1101,"à®ªà®°à®®":1102,"ĠV":1103,"ĠO":1104,"ct":1105,"Ġà®İà®ķ":1106,"Ġà®Ĳà®ķ":1107,"Ġà®¨à®µ":1108,"à®ľà®ªà®ķ":1109,"Ġà®®à®¹":1110,"à¯ĪÂŃ":1111,"Ġà®ļà®ļ":1112,"com":1113,"un":1114,"à®ħà®¤à®±":1115,"Ġà®ªà®°à®ªà®°à®ª":1116,"à®µà®´":1117,"ĠK":1118,"--":1119,"Ġà®ĵà®¯":1120,"Ġà®ķà®µà®©à®®":1121,"Ġà®Ĭà®Łà®ķ":1122,"ro":1123,"à®Łà®¨":1124,"Ġà®®à®¨":1125,"Ġ100":1126,"à¯ģ)":1127,"à®©à®¨":1128,"Ġà®ªà®¯à®£à®®":1129,"50":1130,"à®ªà®µà®¤":1131,"à®³à®µà®°":1132,"Ġà®ªà®ŀ":1133,"12":1134,"ia":1135,"Ġà®ıà®ķ":1136,"Ġà®īà®²à®ķà®®":1137,"Ġ...":1138,"Ġà®Ĩà®´":1139,"à®¤à®´":1140,"Ġà®İà®®à®¤":1141,"à®·à®¯à®®":1142,"à®·à®¯à®Ļ":1143,"ĠH":1144,"Ġà®ħà®µà®¤":1145,"ri":1146,"Ġà®Ĩà®¸":1147,"à®ļà®µ":1148,"à®ļà®ķà®°":1149,"Ġà®ķà®Łà®¤":1150,"Ġà®ĩà®±à®ķ":1151,"à®ķà®³à®µ":1152,"à¯ģâĢĻ":1153,"à¯ģ...":1154,"à®¯à®ķà®°":1155,"ĠNews":1156,"Ġà®ªà®¯à®Ļ":1157,"Ġà®ķà®©à®µ":1158,"à®¤à®³":1159,"Ġto":1160,"Ġà®ªà®²à®©":1161,"Ġà®µà®¯":1162,"à®¿-":1163,"Ġof":1164,"Ġà®ıà®®":1165,"à®£à®²":1166,"Ġ24":1167,"à®İà®¤":1168,"ore":1169,"Ġà®ªà®²à®®":1170,"ak":1171,"Ġà®ķà®Łà®®":1172,"à®µà®°à®®":1173,"à¯ģâĢĿ":1174,"Ġn":1175,"à®µà®²à®ķà®¤":1176,"Ġà®¤à®¤":1177,"à®°à®£à®Ļ":1178,"à®±à®°":1179,"11":1180,"à¯Ī!":1181,"à¯ģ..":1182,"à¯ģ;":1183,"à®¾à®¾à¯į.":1184,"oo":1185,"à¯Ī)":1186,"Ġà®®à®ļ":1187,"Ġà®ªà®µ":1188,"à®¿)":1189,"à®ªà®µà®Ļ":1190,"à®¯à®£":1191,"à®ħà®°":1192,"Ġà®ķà®£à®µà®°":1193,"Ġà®¨à®°":1194,"ĠE":1195,"à®ĩà®Ļ":1196,"Ġà®®à®²à®°":1197,"Ġà®ªà®°à®ª":1198,"à®¿!":1199,"Ġl":1200,"Ġà®Ĵà®±":1201,"à®°à®¨":1202,"Ġà®ħà®ľ":1203,"à®¨à®®":1204,"à®´à®©":1205,"Ġ07":1206,"Ġà®ªà®Łà®ķ":1207,"Ġà®ĩà®µà®±":1208,"à®ªà®ļ":1209,"Ġà®ľà®©à®¨":1210,"Ġà®ħà®Łà®Ļ":1211,"Ġ`":1212,"à®µà®°à®Ļ":1213,"ĠâĢĿ":1214,"à®´à®¤":1215,"à®¤à®ķà®¤":1216,"à®¿âĢĻ":1217,"Ġà®¤à®Łà®µ":1218,").":1219,"à®°à®ªà®²":1220,"à®²à®ļ":1221,"tt":1222,"av":1223,"à®ħà®Ļ":1224,"Ġà®Ĭà®´à®²":1225,"ĠW":1226,"à¯į(":1227,"®Ī":1228,"à®ħà®²":1229,"à®Ī":1230,"à®´à®ķà®®":1231,"à®ªà®¤à®©":1232,"à®¾!":1233,"Ġ2018":1234,"18":1235,"à®¨à®²":1236,"Ġà®ªà®´à®©":1237,"à®İà®Ļ":1238,"15":1239,"ĠJ":1240,"à®¤à®°à®®":1241,"à®¯à®ķà®®":1242,"à®®à®ļ":1243,"us":1244,"Ġ..":1245,"ex":1246,"Ġà®ħà®°à®Ļ":1247,"à¯ĩà®¾à¯į":1248,"Ġ22":1249,"à®²à®µà®°":1250,"à®ķà®µà®°":1251,"à®µà®¤à®©":1252,"à®£à®±":1253,"à®°à®®à®£":1254,"Ġ21":1255,"ul":1256,"ot":1257,"Ġà®Ĭà®Łà®ķà®Ļ":1258,"iv":1259,"à®²à®²":1260,"Ġà®ķà®£à®µà®©":1261,"à®°à®¯":1262,"à®Łà®³":1263,"Ġà®ķà®ļ":1264,"Ġà®ħà®Łà®ķ":1265,"à®ķà®°à®µ":1266,"Ġà®İà®µà®°":1267,"à®µà®°à®©":1268,"Ġà®Ĭà®±":1269,"Ġà®ªà®¸":1270,"!!":1271,"à®®à®ª":1272,"Ġà®ªà®Łà®ª":1273,"à®īà®²à®ķ":1274,"ik":1275,"à®°à®µà®°":1276,"Ġ40":1277,"14":1278,"um":1279,"âĢĵ":1280,"Ġ23":1281,"Ġ)":1282,"à®©à®ķà®°à®©":1283,"à¯ģ-":1284,"à®±à®µà®±":1285,"à®ħà®£":1286,"2018":1287,"à®¤à®°à®°":1288,"Ġà®ĩà®´à®ª":1289,"à¯Ģ.":1290,"Ġà®¤à®³à®¤":1291,"ov":1292,"®Ĭ":1293,"à®Ĭ":1294,"à®ļà®©à®Ļ":1295,"ation":1296,"Ġà®ħà®¯":1297,"Ġà®¨à®²à®©":1298,"Ġà®®à®ŀ":1299,"Ġà®®à®±à®¨":1300,"à®ıà®©":1301,"ig":1302,"im":1303,"Ġon":1304,"à®İà®©à®ķ":1305,"Ġà®Ĩà®©à®¨":1306,"200":1307,"à®ªà®µà®©":1308,"Ġà®ĩà®¤à®´":1309,"Ġà®¨à®±":1310,"Ġ27":1311,"Ġà®Ĩà®ªà®¤":1312,"os":1313,"Ġà®¹à®°":1314,"à¯ĩ?":1315,"à®¤à®£":1316,"ce":1317,"à®ķà®Łà®²":1318,"Ġà®¨à®Łà®ª":1319,"à®ļà®³":1320,"Ġà®īà®®":1321,"ath":1322,"à®ļà®°à®µ":1323,"Ġà®¨à®ª":1324,"Ġà®Ĩà®ķà®µ":1325,"Ġà®Ĳà®°":1326,"Ġà®ĩà®°à®¤":1327,"à®ĩà®°à®£":1328,"Ġà®ķà®³à®®":1329,"nd":1330,"à®·à®¯à®¤":1331,"à®¯à®ķà®©":1332,"à®ħà®µà®©":1333,"Ġ28":1334,"Ġà®®à®¯":1335,"à®İà®ª":1336,"à®ľà®®":1337,"25":1338,"à®Ĩà®ķ":1339,"Ġg":1340,"Ġà®īà®©à®ķ":1341,"à®©à®Ł":1342,"Ġà®ķà®·":1343,"à®¯à®³à®µ":1344,"ra":1345,"à®ķà®©à®Ļ":1346,"Ġà®Ĭà®ķ":1347,"ers":1348,"Ġà®¤à®°à®®":1349,"Ġà®ħà®®à®²":1350,"à®ķà®³à®ª":1351,"à®¯à®µà®¨":1352,"est":1353,"à®¤à®°à®ª":1354,"Ġà®īà®²à®ķà®¤":1355,"ĠÂ":1356,"à®¤à®©à®¤":1357,"ow":1358,"Ġà®ļà®®à®°":1359,"à®´à®Ļ":1360,"Ġà®ĵà®µ":1361,"Ġà®ħà®¸":1362,"Ġand":1363,"Ġk":1364,"à¯ģâĢ¦":1365,"à®¯à®ªà®Ł":1366,"à®¿'":1367,"à®ķà®ªà®Ł":1368,"Ġà®ħà®ķà®±":1369,"Ġà®®à®°à®£à®®":1370,"Ġà®°à®·":1371,"à®¤à®ķà®Ļ":1372,"ww":1373,"à¯ģ'":1374,"à®¸à®²":1375,"à®ªà®Łà®ķ":1376,"Ġ26":1377,"Ġà®Ĭà®¤":1378,"à®ķà®´à®ķ":1379,"Ġà®ıà®ª":1380,"à¯ĪâĢĻ":1381,"Ġà®ªà®²à®¤":1382,"Ġv":1383,"13":1384,"17":1385,"à®®à®¤à®®":1386,"à®Łà®£à®®":1387,"16":1388,"Ġà®µà®£à®Ļ":1389,"ut":1390,"Ġà®Ĩà®¤à®°":1391,"Ġ{":1392,"à®¤à®³à®Ļ":1393,"Ġà®ªà®´à®®":1394,"ttp":1395,"à®©à®ļ":1396,"à®¯à®ķà®¤":1397,"Ġà®µà®¤":1398,"à®¾âĢĻ":1399,"ĠÂł":1400,"Ġ199":1401,"Ġà®¨à®¤":1402,"://":1403,"Ġà®ĵà®µà®°":1404,"à®®à®£à®¤":1405,"Ġ2017":1406,"à®ķà®²à®®":1407,"Ġà®ªà®´à®Ļ":1408,"à®ªà®Łà®²":1409,"à®¯à®°à®ļ":1410,"à¯Ĩ.":1411,"®ĥ":1412,"à®ĥ":1413,"Ġà®©":1414,"à®ªà®°à®Ļ":1415,"à®°à®ªà®²à®®":1416,"Ġà®®à®°à®ª":1417,"Ġre":1418,"Ġà®ªà®¯à®®":1419,"**":1420,"Ġà®İà®Łà®ª":1421,"Ġà®ķà®µà®©à®¤":1422,"ind":1423,"à®īà®¤":1424,"Ġà®®à®Ļ":1425,"ap":1426,"à®Ĩà®£":1427,"à®·à®¤":1428,"à¯ĭ.":1429,"ith":1430,"Ġà®ªà®²à®µ":1431,"Ġà®ªà®°à®®":1432,"à®¯à®¸":1433,"à¯Ĥà®¾à¯į":1434,"à®²à®¯":1435,"Ġà®±":1436,"Ġà®ľà®©à®µà®°":1437,"Ġà®ľà®®":1438,"à®īà®³":1439,"à®¯à®®à®Ł":1440,"Ġà®ĩà®°à®Ł":1441,"ment":1442,"Ġà®°à®ķ":1443,"Ġà®¨à®µà®®":1444,"Ġà®ķà®¤à®µ":1445,"à®²à®ķà®®":1446,"ĠTh":1447,"Ġà®°à®®":1448,"Ġà®µà®°à®ª":1449,"80":1450,"à®ªà®³à®®":1451,"24":1452,"ead":1453,"à®ĩà®±":1454,"ĠâĢĻ":1455,"à®ħà®ķ":1456,"Ġà®°à®£":1457,"Ġ29":1458,"Ġà®ĩà®µà®©":1459,"à®µà®¯à®¤":1460,"Ġà®ļà®®à®¯à®®":1461,"à®°à®ľ":1462,"Ġ60":1463,"art":1464,"à®ķà®©à®¤":1465,"Ġà®¤à®°à®µ":1466,"à®Łà®®à®©":1467,"à®Łà®¯à®®":1468,"à¯ģ\"":1469,"Ġà®ªà®¯à®£à®¤":1470,"à®İà®¨":1471,"Ġ+":1472,"Ġà®ħà®²à®Ļ":1473,"Ġ2016":1474,"Ġà®®à®©à®¨":1475,"à®ħà®±":1476,"à®²à®³":1477,"à®³à®¸":1478,"ip":1479,"à¯įâĢĮ":1480,"Ġà®ħà®ķà®¤":1481,"à®¾..":1482,"à®£à®¯":1483,"35":1484,"à®®à®ķà®©":1485,"Ġà®ħà®µà®ļà®°":1486,"ome":1487,"Ġà®¤à®³à®ªà®¤":1488,"Ġà®ĩà®µà®°à®¤":1489,"Ġà®ķà®²à®ķ":1490,"Ġà®ļà®®à®¯à®¤":1491,"Ġà®ĩà®²à®Ł":1492,"all":1493,"Ġà®¤à®ŀ":1494,"Ġà®Ĩà®ľà®°":1495,"ab":1496,"à®ıà®±":1497,"Ġ''":1498,"à®Łà®ļà®ª":1499,"Ġà®Ĩà®¨":1500,"Ġà®®à®¤à®¤":1501,"22":1502,"à¯ĪâĢĿ":1503,"Ġà®®à®°à®Ļ":1504,"Ġà®īà®ªà®¯":1505,"Ġà®ħà®µà®Ļ":1506,"à®ķà®®à®¤":1507,"à®ªà®ķà®®":1508,"à®²à®¨":1509,"à®ķà®´à®ķà®¤":1510,"Ġà®®à®©à®ļ":1511,"Ġà®°à®ķà®ļ":1512,"ĠĠĠĠĠĠĠĠĠĠĠĠĠĠĠĠĠĠĠĠĠĠĠĠĠĠĠĠĠĠĠĠ":1513,"40":1514,"à®²à®ķà®Ł":1515,"à®Ĵà®µ":1516,"Ġà®ľà®ª":1517,"à®ªà®ķà®²":1518,"à®®à®ķà®³":1519,"Ġà®īà®Łà®®":1520,"ess":1521,"Ġà®¤à®´":1522,"Ġà®İà®¤à®±":1523,"à®ķà®©à®®":1524,"Ġà®ķà®Ļ":1525,"à®Łà®¯à®Ļ":1526,"up":1527,"à®ķà®³à®®":1528,"ĠU":1529,"à®ħà®µà®³":1530,"à®µà®ļà®®":1531,"ist":1532,"Ġà®İà®±":1533,"à®ŀà®©":1534,"Ġà®®à®°à®¤":1535,"à®¤à®³à®¤":1536,"ter":1537,"ub":1538,"à®īà®£":1539,"vi":1540,"Ġà®µà®°à®®":1541,"Ġà®µà®Łà®®":1542,"ĠÂłĠÂł":1543,"ĠMore":1544,"op":1545,"od":1546,"Ġst":1547,"à®ªà®´":1548,"à¯Ī-":1549,"ĠĠĠ":1550,"à®¤à®°à®©":1551,"à®ľà®¯à®ķ":1552,"Ġà®ļà®ŀ":1553,"à®Ĩà®¯":1554,"à®¤à®¯":1555,"Ġ31":1556,"à®µà®°à®°":1557,"Ġfor":1558,"Ġà®īà®³à®µ":1559,"à®ļà®£":1560,"à®ķà®Łà®©":1561,"à®´à®±":1562,"à®Łà®ķà®®":1563,"Ġà®²à®ķ":1564,"ine":1565,"à¯Ī;":1566,"à®¾...":1567,"à®ķà®°à®¤":1568,"Ġà®®à®¤à®®":1569,"Ġà®¨à®²à®®":1570,"Ġà®ķà®¨":1571,"Ġà®ĩà®¯à®¨":1572,"ĠâĢ¦":1573,"ber":1574,"Ġà®ħà®µà®©à®¤":1575,"Ġ077":1576,"ck":1577,"Ġà®Īà®´à®¤":1578,"Ġà®Ĳà®¸":1579,"à®ľà®ķà®µ":1580,"Ġà®¨à®¨":1581,"2017":1582,"Ġ500":1583,"Ġ35":1584,"23":1585,"à®Łà®Ł":1586,"60":1587,"à¯į),":1588,"à®²à®£":1589,"Ġà®®à®±à®ķ":1590,"à®¯à®°à®Ļ":1591,"ĠCh":1592,"à®¯à®µà®©":1593,"à®µà®²à®ķà®®":1594,"à¯ĭ?":1595,"Ġà®¨à®ķà®°à®Ļ":1596,"Ġà®Ĩà®ķà®¸":1597,"à®ļà®©à®¤":1598,"Ġà®ĩà®©à®¤":1599,"à®ķà®¸":1600,"à®©à®¸":1601,"45":1602,"à®ħà®µà®°à®¤":1603,"à®¿à®¾à¯į":1604,"à®¹à®®":1605,"à®µà®´à®ķ":1606,"à¯į....":1607,"à®ªà®°à®¤":1608,"ud":1609,".,":1610,"Ġà®ļà®ķà®²":1611,"Ġ&":1612,"99":1613,"Ġ198":1614,"à¯Ī'":1615,"à¯ģà®¾":1616,"Ġà®ªà®±à®µ":1617,"Ġà®ªà®¤à®±":1618,"Ġà®ķà®´à®ķà®¤":1619,"âĢĭ":1620,"à®¾'":1621,"21":1622,"à®¯à®²à®°":1623,"à®±à®Ł":1624,"ht":1625,"Ġà®Ĳà®ª":1626,"Ġy":1627,"ost":1628,"og":1629,"Ġ2015":1630,"ish":1631,"à®³à®ļ":1632,"if":1633,"Ġà®ĩà®²à®µà®ļ":1634,"Ġà®ķà®³à®¤":1635,"Ġà®ªà®ķà®²":1636,"our":1637,"ill":1638,"28":1639,"à®³à®Łà®ķ":1640,"à®¤à®¤à®±":1641,"à®®à®³à®µ":1642,"Ġà®¨à®ļ":1643,"Ġà®Ĩà®µà®£à®Ļ":1644,"à¯Ģà®¾à¯į":1645,"à®¤à®³à®µ":1646,"Ġhttp":1647,"à®µà®°à®µ":1648,"à®¤à®³à®®":1649,"à®Ĩà®ļ":1650,"Ġà®ĩà®³à®µà®°":1651,"Ġà®®à®°à®£":1652,"à®¾à¯į,":1653,"Ġis":1654,"à®µà®²à®®":1655,"à®īà®Łà®©":1656,"à®Łà®µà®©":1657,"are":1658,"à®Ĩà®Ł":1659,"Ġà®Ĩà®©à®¤":1660,"à®¿?":1661,"05":1662,"26":1663,"ï¿½ï¿½ï¿½ï¿½":1664,"27":1665,"à®ĩà®ļ":1666,"Ġà®¤à®³à®®":1667,"à®´à®µ":1668,"Ġà®ıà®µ":1669,"----":1670,"ep":1671,"ank":1672,"à®Łà®ªà®¤":1673,"Ġ]":1674,"à®®à®¸":1675,"ec":1676,"Ġà®¨à®³":1677,"ST":1678,"Ġ2014":1679,"Ġà®®à®£à®²":1680,"ate":1681,"Ġà®ĩà®¯":1682,"Ġà®¤à®ļ":1683,"Ġà®ķà®©à®Ł":1684,"Ġà®ļà®°à®£":1685,"à®¾-":1686,"à®Łà®©à®®":1687,"à®ļà®ķà®®":1688,"ĠSt":1689,"Ġà®²à®£":1690,"à®µà®Łà®ķ":1691,"Ġà®¨à®ķà®°à®®":1692,"Ġr":1693,"à®Ĩà®µà®¤":1694,"à®²à®¸":1695,"Ġ70":1696,"70":1697,"ide":1698,"à®ĩà®ķ":1699,"à®°à®ķà®®":1700,"Ġà®ªà®±à®ķ":1701,"à®Łà®ķà®¤":1702,"Ġà®ķà®´à®ķ":1703,"à¯Ī?":1704,"Ġà®Ĩà®µà®¤":1705,"Ġà®Ĳà®¯":1706,"Ġ80":1707,"Ġà®Ĩà®´à®®":1708,"à®¤à®°à®Ļ":1709,"Ġà®ĩà®©à®®":1710,"à®ªà®¸":1711,"Ġà®īà®¯à®°à®®":1712,"ain":1713,"ies":1714,"à¯į.âĢĿ":1715,"29":1716,"Ġà®ļà®°à®¤":1717,"Ġà®īà®Łà®±":1718,"Ġà®ħà®ªà®°":1719,"à®¹à®°":1720,"à®¿...":1721,"à®ļà®¯":1722,"à®Ĩà®ķà®µ":1723,"à®±à®ªà®Ł":1724,"out":1725,"à®īà®Łà®²":1726,"Ġà®µà®²à®¤":1727,"à¯Ī...":1728,"Ġà®®à®°à®®":1729,"ang":1730,"à®Ĩà®ª":1731,"Ġà®®à®°à®£à®¤":1732,"Ġà®ªà®°à®µà®²":1733,"ous":1734,"à®±à®³":1735,"à®°à®®à®ļ":1736,"Ġà®ħà®µà®³à®¤":1737,"Ġà®¤à®®à®ķ":1738,"Ġà®ľà®©à®¤":1739,"ff":1740,"Ġà®¤à®³à®Ļ":1741,"à®ľà®¸":1742,"à®£à®µà®©":1743,"ont":1744,"Ġà®Ĭà®Łà®ķà®µ":1745,"Ġà®¤à®ķà®°":1746,"ne":1747,"à®²à®±":1748,"Ġà®ªà®¯à®¨":1749,"Ġ;":1750,"Ġwith":1751,"à¯į''":1752,"Ġà®µà®²à®®":1753,"à®ªà®£à®®":1754,"à®¸à®°":1755,"à®¤à®¸":1756,"Ġà®®à®Łà®Ļ":1757,"à®²à®ķà®¤":1758,"Ġà®ĩà®²à®µà®ļà®®":1759,"Ġ45":1760,"Ġà®ªà®±à®¨":1761,"Home":1762,"Read":1763,"à¯ĭà®¾à¯į":1764,"à®¤à®µà®³":1765,"à®®à®¯":1766,"Ġà®µà®®":1767,"à®īà®©":1768,"Ġà®¨à®ķà®°à®¤":1769,"ant":1770,"à®£à®ļ":1771,"Ġà®ĵà®°à®³à®µ":1772,"2016":1773,"07":1774,"à®±à®µà®©":1775,"à®µà®£à®©":1776,"à®İà®©à®¤":1777,"à®Łà®¯à®¤":1778,"à®İà®´":1779,"à¯Ī..":1780,"Ġà®¨à®¯à®©":1781,"à®Łà®¤à®±":1782,"ail":1783,"44":1784,"Ġà®ħà®°à®£":1785,"Ġà®Ĩà®²à®¯à®¤":1786,"à®²à®¯à®¤":1787,"ĠÂ»":1788,"à®ļà®®à®¯à®®":1789,"Ġà®µà®³à®®":1790,"à®µà®°à®ª":1791,"Ġà®µà®µ":1792,"ĠInd":1793,"à®ĩà®®":1794,"à¯ĩ...":1795,"Ġ90":1796,"Ġà®ľà®²":1797,"à®ļà®ļ":1798,"à®¿..":1799,"à®ªà®ķà®¤":1800,"end":1801,"à®Ĵà®©":1802,"à®¤à®ķà®°":1803,"Ġà®®à®©à®ª":1804,"Ġtamil":1805,"Ġà®īà®¯à®°à®¤":1806,"ice":1807,"à®µà®µ":1808,"Ġà®ªà®ķà®µ":1809,"Ġ2013":1810,"à®¯à®²à®®":1811,"09":1812,"Ġà®ķà®ŀ":1813,"à®°à®´":1814,"à¯į/":1815,"Ġà®Ĵà®£":1816,"Ġà®Ĳà®Ł":1817,"ue":1818,"ĠÐ":1819,"à®ĩà®Ł":1820,"à®ħà®ļ":1821,"Ġà®ĩà®©à®ª":1822,"08":1823,"à®·à®Ļ":1824,"à®°à®®à®®":1825,"Ġà®ħà®ļà®¤":1826,"Ġà®Ĩà®ĥà®ª":1827,"à¯į}":1828,"Ġà®ķà®©à®®":1829,"à®¿âĢĿ":1830,"36":1831,"ly":1832,"500":1833,"Ġ2009":1834,"??":1835,"à®°à®ķà®¤":1836,"ĠCom":1837,"ph":1838,"Ġà®³":1839,"Ġ197":1840,"Ġà®¤à®¯à®Ļ":1841,"Ġà®®à®¯à®ķ":1842,"ort":1843,"ĠIn":1844,"Ġà®ķà®´à®ķà®®":1845,"__":1846,"Ġà®īà®ķ":1847,"Ġà®İà®®à®ķ":1848,"06":1849,"Ġà®īà®²à®ķà®ķ":1850,"Ġà®ļà®®à®¨":1851,"Ġà®Łà®ª":1852,"Ġà®İà®¯":1853,"ood":1854,"ear":1855,"âĢĻâĢĻ":1856,"ug":1857,"Ġà®²à®ŀ":1858,"eb":1859,"Ġà®ħà®°à®ª":1860,"à®°à®¹":1861,"Ġ01":1862,"48":1863,"ev":1864,"à®·à®²":1865,"à®®à®²à®°":1866,"ĠâĢĺâĢĺ":1867,"Ġà®°à®¹":1868,"à®Ĩà®¤":1869,"Ġà®¯à®¤":1870,"Ġ300":1871,"2019":1872,"Ġà®¨à®²à®¤":1873,"Ġà®ħà®°à®ļà®©":1874,"199":1875,"à®©à®µà®©":1876,"à®¿(":1877,"IN":1878,"aj":1879,"à®İà®Ł":1880,"Ġà®ªà®²à®ª":1881,"Ġ2011":1882,"à®°à®±":1883,"à®ķà®¯":1884,"à®¤à®¤à®©":1885,"à®ľà®ª":1886,"ity":1887,"33":1888,"Ġà®¨à®Łà®©à®®":1889,"à¯Ī\"":1890,"à®®à®´":1891,"à®¨à®©":1892,"à®¾âĢ¦":1893,"Ġà®ĩà®±à®ª":1894,"à®©à®ŀ":1895,"âĢĺâĢĺ":1896,"Ġ2019":1897,"2015":1898,"Ġà®ķà®¯":1899,"ook":1900,"Ġà®¨à®Łà®°":1901,"à¯ĩ..":1902,"old":1903,"Ġà®¨à®·":1904,"à®¤à®©à®Ļ":1905,"))":1906,"Ġbe":1907,"ary":1908,"Ġ2012":1909,"he":1910,"47":1911,"Ġà®ļà®®à®®":1912,"==":1913,"à®īà®°":1914,"03":1915,"à®¤à®µà®±":1916,"Ġà®İà®ŀ":1917,"Ġà®ħà®µà®ļà®°à®®":1918,"à®±à®´":1919,"à®¯à®¤à®³à®¤":1920,"à¤":1921,"Ġ36":1922,"ive":1923,"Ġà®µà®ļà®¨":1924,"Ġ32":1925,"37":1926,"04":1927,"Ġà®ħà®°à®ļà®°":1928,"à®¨à®µ":1929,"oc":1930,"Ġà®®à®µ":1931,"Ġà®ĩà®©à®µ":1932,"Ġà®µà®£à®ķ":1933,"Ġby":1934,"à®ıà®ķ":1935,"à®ĩà®³":1936,"à®Łà®ªà®Ł":1937,"Ġà®ħà®°à®µ":1938,"Ġà®ĩà®µà®³":1939,"ian":1940,"à®µà®ķà®Ļ":1941,"Ġà®µà®¯à®²":1942,"à®ķà®´à®ķà®®":1943,"ĠIST":1944,"à®ªà®´à®ķ":1945,"à®¾âĢĿ":1946,"Ġà®ħà®µà®®":1947,"TE":1948,"ext":1949,"Ġà®ıà®Ł":1950,"à®īà®¯":1951,"à®ªà®Łà®ª":1952,"à¯į.,":1953,"Ġà®®à®ķà®¤":1954,"Ġà®®à®£à®®":1955,"ard":1956,"à®°à®µà®¤":1957,"39":1958,"age":1959,"55":1960,"Ġà®ļà®Łà®Ļ":1961,"Ġà®°à®ŀ":1962,"38":1963,"49":1964,"Ġà®īà®¤à®Ł":1965,"Ġà®Ĩà®µà®²":1966,"à®ĩà®£":1967,"ember":1968,"à¯į).":1969,"à®¨à®®à®¤":1970,"ah":1971,"Ġà®Ĳà®®":1972,"à®ªà®²à®®":1973,"à®¤à®©à®©":1974,"à®ļà®±":1975,"à®©à®ļà®°":1976,"Ġà®¤à®³à®°":1977,"Ġà®ıà®¨":1978,"à®ķà®®à®²":1979,"Ġà®¤à®°à®¤":1980,"Ġcom":1981,"Ġà®ĵà®ļ":1982,"à®¤à®®à®Ł":1983,"'s":1984,"Ġà®ĩà®´à®ķ":1985,"ell":1986,"à®ķà®µà®©":1987,"à®ĩà®µà®±":1988,"à®¾?âĢĿ":1989,"à®ķà®±à®¤":1990,"à®°à®ªà®²à®Ļ":1991,"Ġ1000":1992,"Ġà®ĵà®ª":1993,"31":1994,"Ġà®īà®²à®ķà®ª":1995,"à®Łà®¸":1996,"à¯įâĢĻâĢĻ":1997,"à®ĩà®°à®µ":1998,"à®¯à®£à®©":1999,"à¯ĩâĢĿ":2000,"ry":2001,"Ġà®µà®ļà®©à®Ļ":2002,"Ġà®ªà®£à®ķ":2003,"ust":2004,"ie":2005,"ãģ":2006,"Ġà®ĩà®©à®Ļ":2007,"ast":2008,"Ġà®¨à®°à®®":2009,"Ð¾":2010,"02":2011,"ial":2012,"à®°à®®à®¤":2013,"à®¤à®ķà®µà®²":2014,"à®¯à®¤à®±":2015,"à®¤à®²à®°":2016,"Ġà®µà®¯à®ļ":2017,"Ġà®°à®Ļ":2018,"à®ĩà®¸":2019,"ey":2020,"Ġ75":2021,"Ġà®ħà®·":2022,"Ġà®ªà®¯à®ª":2023,"ib":2024,"Ġ150":2025,"Ġà®µà®ļà®©à®®":2026,"Ġà®ķà®²à®Ļ":2027,"Ġà®¨à®Łà®®":2028,"Ġà®ħà®µà®ķ":2029,"Â»":2030,"à¯ģ(":2031,"à®¯à®®à®©à®®":2032,"à®¸à®©":2033,"à®ĩà®¯à®ķ":2034,"Ġch":2035,"Ġà®µà®°à®ķ":2036,"Ġ2010":2037,"ee":2038,"à®Īà®°":2039,"à®·à®°":2040,"Ġà®Łà®©":2041,"Ġà®ĩà®³à®Ļ":2042,"à®Łà®£à®¤":2043,"Ġà®ĵà®¤":2044,"à®¾:":2045,"pl":2046,"2014":2047,"à®©à®°à®²":2048,"75":2049,"Ġà®ļà®°à®ķ":2050,"Ġà®ķà®²à®µ":2051,"Ġà®ªà®²à®ķ":2052,"à®ľà®²":2053,"Ġà®ļà®®à®¯à®Ļ":2054,"à®µà®¯":2055,"à®¿.,":2056,"à®·à®ª":2057,"à®ħà®µà®±":2058,"à®Ĳà®ķ":2059,"Ġ196":2060,"à®£à®®à®²":2061,"à®³à®Ł":2062,"à®¤à®²à®©":2063,"Ġà®ħà®ķà®°":2064,"à®°à®ŀ":2065,"ong":2066,"ction":2067,"Ġà®ħà®µà®°à®µà®°":2068,"à®µà®²à®ķ":2069,"Ġà®ªà®¤à®ķ":2070,"ĠY":2071,"à®ļà®¸":2072,"Ġmore":2073,"âĢ¦.":2074,"Ġà®Īà®¸":2075,"Ġà®ĩà®¤à®¯à®¤":2076,"oun":2077,"ord":2078,"ass":2079,"46":2080,"ðŁ":2081,"à®ķà®£à®®":2082,"Ġà®Łà®µ":2083,"icle":2084,"Ġà®ķà®¸":2085,"Ġà®ħà®²à®Ł":2086,"ĠĠĠĠĠĠĠĠĠĠĠĠ":2087,"Ġà®īà®±à®Ļ":2088,"Ġà®ªà®°à®¨":2089,"100":2090,"iy":2091,"Ġà®ĵà®ķ":2092,"Ġwh":2093,"à®¯à®²à®ķà®¤":2094,"à®ķà®Łà®µ":2095,"Ġà®İà®©à®ļ":2096,"Ġ=":2097,"ikat":2098,"Ġà®ķà®ľ":2099,"ĠOne":2100,"à®µà®©à®°":2101,"Ġà®µà®°à®¤":2102,"india":2103,"198":2104,"qu":2105,"Ġat":2106,"Ġ48":2107,"à®¿\"":2108,"Ġà®ķà®²à®ª":2109,"iz":2110,"Ġà®Ĵà®ķ":2111,"à®¤à®°à®¤":2112,"32":2113,"à®ķà®®à®±":2114,"........":2115,"à®ªà®´à®®":2116,"ack":2117,"Ġà®µà®°à®µà®´":2118,"Ġ37":2119,"à®°à®ķà®Ļ":2120,"ĠĠĠĠĠĠĠĠĠĠĠĠĠĠĠĠĠĠĠĠĠĠĠĠĠĠĠĠĠĠĠĠĠĠĠĠĠĠĠĠĠĠĠĠĠĠĠĠ":2121,"ÂłÂłÂłÂł":2122,"ory":2123,"à®¿;":2124,"à®¾)":2125,"à®³à®¨":2126,"Ġà®®à®¯à®Ļ":2127,"Ġà®ķà®©à®®à®´":2128,"www":2129,"edia":2130,"ĠRe":2131,"Ġà®īà®ªà®ķà®°":2132,"Ġà®ªà®ª":2133,"ĠThe":2134,"à®ªà®³à®¤":2135,"ikatan":2136,"Ġà®¹à®©":2137,"à®¨à®¤":2138,"à®£à®¯à®®":2139,"Ġ2000":2140,"à¯įâĢ¦.":2141,"ĠÂłĠÂłĠÂłĠÂł":2142,"ach":2143,"Ġà®¤à®°à®ķ":2144,"Ġà®ķà®²à®°":2145,"56":2146,"****":2147,"à®®à®¹":2148,"ann":2149,"Ġà®ħà®ķà®²":2150,"Ġà®ĩà®¤à®°":2151,"Ġà®ķà®Łà®ķ":2152,"à®µà®²à®ķà®Ļ":2153,"à®Ĩà®±":2154,"à®Łà®ķà®Ļ":2155,"lo":2156,"Ġà®Ĩà®²à®¯à®®":2157,"Ð°":2158,"à®¨à®Łà®¤":2159,"Ġ2008":2160,"ld":2161,"].":2162,"Ġ33":2163,"à®ħà®´":2164,"Ġà®Łà®ķ":2165,"à¯į.\"":2166,"enn":2167,"à®Łà®²à®¤":2168,"à®°à®ļà®©":2169,"à®°à®¤à®¤":2170,"à¯ĩâĢĻ":2171,"à®·à®©à®°":2172,"Ġà®µà®±à®Ł":2173,"à®ľà®¯à®®":2174,"ark":2175,"ric":2176,"à®Ĳà®Ł":2177,"und":2178,"à®İà®µ":2179,"Ġà®ķà®¤à®±":2180,"Ġ*":2181,"Ġà®®à®°à®ķ":2182,"à®¨à®ªà®°":2183,"Ġà®ħà®Łà®°":2184,"à®ªà®¯à®£à®®":2185,"à®°à®ªà®ŀ":2186,"ite":2187,"à®Łà®ªà®®":2188,"Ġà®ªà®®":2189,"à®¨à®£":2190,"à®°à®·":2191,"Ġà®µà®©à®¤":2192,"34":2193,"Ġà®ĩà®ŀ":2194,"à®ļà®ķà®¤":2195,"Ðµ":2196,"à¯ĪâĢ¦":2197,"ress":2198,"har":2199,"http":2200,"Ġ38":2201,"Ġpro":2202,"Ġj":2203,"à®³à®±":2204,"à®Ĭà®°":2205,"Ġà®ļà®®à®¯":2206,"à®İà®£":2207,"Â³":2208,"Ġâ":2209,"Ġà®ªà®°à®¤":2210,"Ġab":2211,"ER":2212,"Ġà®¹à®®":2213,"org":2214,"à®®à®©à®¤":2215,"Ġà®ħà®±à®ķ":2216,"Ġà®·à®Ļ":2217,"pp":2218,"\"\"":2219,"AM":2220,"âĢ¦]":2221,"Ġà®ĩà®°à®Ļ":2222,"à®²à®¯à®®":2223,"à®ĩà®µà®°à®¤":2224,"Ġà®®à®®":2225,"à®¯à®ķà®ª":2226,"à®¿âĢ¦":2227,"Ġà®µà®³à®Ļ":2228,"à®ħà®´à®ķ":2229,"à®Ĳà®¯":2230,"Ġà®ªà®£à®ª":2231,"ace":2232,"anth":2233,"Ġà®Ĵà®¯":2234,"Ġà®·à®°":2235,"view":2236,"à¯ĭ!":2237,"Ġ||":2238,"Ġà®µà®ļà®®":2239,"Ġà®īà®ķà®¨":2240,"pt":2241,"à®ħà®¯":2242,"ac":2243,"Ġà®īà®ªà®ķà®°à®£à®Ļ":2244,"57":2245,"ĠIndia":2246,"Ġà®ªà®¯à®¤":2247,"à®µà®°à®²":2248,"Ġ400":2249,"à¯Ĭ.":2250,"à®²à®¨à®Ł":2251,"à®ļà®¯à®¤":2252,"rom":2253,"88":2254,"ĠVikatan":2255,"à®Łà®¤à®©":2256,"à®²à®ªà®®":2257,"Ġà®ļà®ªà®°":2258,"Ġà®ľà®µ":2259,"Ġà®¤à®¯à®µ":2260,"à®Łà®¯":2261,"à®¤à®²à®¤":2262,"Ġà®ļà®®à®¤":2263,"à®¯à®¤à®©":2264,"à®İà®ļ":2265,"à®Łà®²à®®":2266,"à®¯à®®à®°":2267,"day":2268,"lish":2269,"ave":2270,"Ġà®ļà®°à®µà®£à®©":2271,",,":2272,"Ġà®ħà®¹":2273,"ani":2274,"à®Łà®°à®ª":2275,"ĠAM":2276,"à®ķà®²à®ª":2277,"hi":2278,"ĠĠĠĠĠĠĠĠĠĠĠĠĠĠĠĠĠĠĠĠĠĠĠĠĠĠĠĠĠĠĠĠĠĠĠĠĠĠĠĠĠĠĠĠĠĠĠĠĠ":2279,"Ġà®ļà®Łà®²à®®":2280,"Ġà®ªà®¯à®£à®Ļ":2281,"à®®à®£à®°":2282,"Ġe":2283,"Ġà®ªà®µà®°":2284,"à®©à®®à®£":2285,"Ġwww":2286,"à®²à®µà®±":2287,"Ġ34":2288,"Ġà®ĵà®²":2289,"à®ªà®ŀ":2290,"ru":2291,"ated":2292,"ala":2293,"ĠOneindia":2294,"Ġà®īà®¨":2295,"à®¤à®µà®ķ":2296,"line":2297,"Ġà®ĵà®Ļ":2298,"Ġà®İà®¤à®©":2299,"à®·à®µ":2300,"2013":2301,"à®¨à®ķ":2302,"à®Ĩà®Ļ":2303,"ans":2304,"Ġà®¤à®µà®®":2305,"77":2306,"Ġsh":2307,"à¯įâĢĻ,":2308,"Ġare":2309,"Ġà®µà®¤à®¨":2310,"Ġ65":2311,"à®¾\"":2312,"Ġ39":2313,"à¯ģ....":2314,"Ġà®ĩà®°à®ķà®ļ":2315,"à®²à®µà®©":2316,"à®±à®±":2317,"à®¤à®°à®£":2318,"âĢĶ":2319,"AN":2320,"à®Łà®ķà®°":2321,"à®ķà®®à®³":2322,"»¿":2323,"Ġà®¤à®¯à®ķ":2324,"Ġà®ĩà®·":2325,"à¯į.[":2326,"Ġà®µà®ŀ":2327,"à®°à®®à®Ł":2328,"à®ļà®¯à®Ļ":2329,"à®²à®µà®´":2330,"ï»¿":2331,"ĠSh":2332,"à®¿à¯į":2333,"42":2334,"Ġà®ľà®Ł":2335,"Ġà®¤à®²à®®":2336,"à®Ĩà®¸":2337,"Ġà®ĩà®°à®ļ":2338,"Ġà®ªà®µà®©":2339,"ments":2340,"Ġyou":2341,"à¯į.(":2342,"Ġà®Ĳà®¯à®ª":2343,"Ġart":2344,"à¯į..!":2345,"Ġà®ĩà®³à®µà®°à®ļ":2346,"Ġà®ĩà®¤à®¯à®®":2347,"à®Ĩà®°à®®":2348,"65":2349,"Ġà®ıà®ļ":2350,"à®īà®±":2351,"Pre":2352,"à®ļà®ķà®©":2353,"ver":2354,"Ġ55":2355,"Ð¸":2356,"``":2357,"ctor":2358,"Ġà®ħà®ķà®´":2359,"à®ļà®²à®®":2360,"à®ħà®ľ":2361,"à®¯à®²à®±":2362,"Ġ[âĢ¦]":2363,"adu":2364,"anka":2365,"oss":2366,"à®ªà®µà®±":2367,"Ġà®¨à®ķà®²":2368,"Ġà®ĥ":2369,"Ġà®īà®·":2370,"à¯Ģ,":2371,"à®īà®¯à®°":2372,"à¯ĩâĢ¦":2373,"Ġ2006":2374,"Ġà®ħà®µà®®à®¤":2375,"ĠAr":2376,"à®ĩà®¯à®±":2377,"ns":2378,"Ġà®¹à®µ":2379,"à®®à®°à®©":2380,"à®´à®°à®ļ":2381,"à®µà®¸":2382,"à®£à®ļà®ª":2383,"one":2384,"ĠEn":2385,"Ġà®®à®¸":2386,"Ġ2007":2387,"à¯ĩÂŃ":2388,"vious":2389,"AR":2390,"à®¤à®ŀ":2391,"Ġ49":2392,"43":2393,"à®īà®ļ":2394,"Ġà®ħà®©à®²":2395,"Ø§":2396,"à®°à®µà®®":2397,"à®İà®ķ":2398,"à®ĵà®°":2399,"eat":2400,"ideo":2401,"à®ķà®²à®¤":2402,"Ġà®ĩà®£à®ķ":2403,"Ġà®²à®¤":2404,"Ġà®Ĭà®ļ":2405,"Ġà®Łà®®":2406,"Ġà®ļà®³":2407,"à®īà®²":2408,"ennai":2409,"Ġà®°à®ª":2410,"58":2411,"Ġà®²à®Ļ":2412,"à¯ģ.[":2413,"à®ıà®¤":2414,"......":2415,"à®ıà®´":2416,"59":2417,"Th":2418,"Ġà®¨à®°à®ļ":2419,"Ġà®ļà®®à®¸":2420,"Ġà®²à®µ":2421,"star":2422,"à®īà®£à®µ":2423,"à®ľà®¤":2424,"2012":2425,"Previous":2426,"Ġà®Ĩà®Łà®®":2427,"à®Ĵà®¤":2428,"ase":2429,"Ġà®®à®©à®ķ":2430,"à¯į?âĢĿ":2431,"à®ªà®²à®©":2432,"--------":2433,"ob":2434,"ure":2435,"à®Ĩà®³":2436,"âĢį":2437,"à¥":2438,"Ġà®ĩà®¤à®¯":2439,"à®µà®³à®°":2440,"Ġ//":2441,"à®¤à®°à®ķ":2442,"ÑĤ":2443,"Ġà®Ĭà®Łà®ķà®®":2444,"tw":2445,"Ġà®īà®²à®°":2446,"à®¿âĢĮ":2447,"à®¤à®©à®ķ":2448,"Ġà®ħà®¯à®°":2449,"ire":2450,"Ġarticle":2451,"ays":2452,"à®±à®ŀ":2453,"Ġ``":2454,"ta":2455,"à®ĵà®Ł":2456,"ight":2457,"Ġà®ĩà®³à®µà®°à®ļà®°":2458,"à¯į!!":2459,"Ġà®ĵà®®":2460,"à®·à®©à®²":2461,"Ġà®®à®¤à®Ļ":2462,"||":2463,"ern":2464,"66":2465,"à®Łà®²à®Ļ":2466,"Ġread":2467,"à®İà®®à®¤":2468,"à®®à®µ":2469,"ash":2470,"41":2471,"ĠÂ·":2472,"à®ªà®µà®³":2473,"Ġabout":2474,"Ġà®īà®ªà®¤":2475,"2020":2476,"uk":2477,"sh":2478,"aw":2479,"à®¤à®®à®²":2480,"port":2481,"Ġà®®à®ķà®°":2482,"Ġà®ļà®°à®¸":2483,"ere":2484,"2011":2485,"à®ľà®¯à®ª":2486,"ĠAn":2487,"ge":2488,"à¯Ī(":2489,"à®®à®ŀ":2490,"à¯ģ:-":2491,"Ġà®ıà®ķà®ª":2492,"Ġà®ļà®¤à®®":2493,"ä¸":2494,"à®µà®³à®µà®©":2495,"Ġà®ħà®¯à®²":2496,"Ġà®ħà®²à®ķ":2497,"ect":2498,"à®ķà®Łà®®":2499,"Ġà®®à®°à®£à®®à®Ł":2500,"Ġà®ĩà®³à®¨":2501,"Ġnot":2502,"à®²à®ŀ":2503,"Ġ42":2504,"à®ķà®Łà®¤":2505,"ĠTag":2506,"Ġà®ĩà®Łà®ª":2507,"à®µà®®à®´":2508,"ilm":2509,"67":2510,"ition":2511,"Ġà®ļà®°à®£à®Ł":2512,"à®Ĳà®¨":2513,"Ġà®ĩà®°à®ķ":2514,"ĠCont":2515,"Ġà®ªà®²à®µà®±":2516,"att":2517,"à®°à®°à®ļ":2518,"Ġde":2519,"log":2520,"à®¯à®µà®³":2521,"Ġ09":2522,"à®®à®£à®©":2523,"orm":2524,"à¯į.)":2525,"à®ķà®©à®Ł":2526,"à®īà®²à®ķà®®":2527,"Ġà®ıà®Ļ":2528,"uth":2529,"Ġ43":2530,"à®µà®°à®ķ":2531,"Ġà®ķà®°à®Ļ":2532,"Ġà®Ĩà®µà®£à®ª":2533,"à®µà®©à®¨":2534,"avan":2535,"ĠTamilstar":2536,"Ġà®ªà®Łà®µ":2537,"Ġà®Īà®ķ":2538,"app":2539,"à®ªà®³à®µ":2540,"kal":2541,"Ġà®Ĩà®²à®¯":2542,"à®Ĵà®Ł":2543,"athai":2544,"Ġ:)":2545,"à®®à®³":2546,"à®¯à®¤à®³à®®":2547,"Ġà®µà®©à®ª":2548,"Ġà®ħà®²à®±":2549,"ÑĢ":2550,"à®²à®¯à®Ļ":2551,"Ġ:-":2552,"90":2553,"à®Ĳà®ª":2554,"Ġit":2555,"à®¨à®²à®®":2556,"Ð½":2557,"tur":2558,"âĢ¦âĢ¦":2559,"ĠAth":2560,"à®¨à®Ļ":2561,"Ġà®®à®¤à®ļ":2562,"ical":2563,"Ġà®ªà®´à®¤":2564,"Ġà®¹à®ķ":2565,"à®¾(":2566,"Ġà®İà®©à®²":2567,"78":2568,"à®©à®±":2569,"à¯į[":2570,"ram":2571,"cc":2572,"Ġ64":2573,"Ġà®®à®Łà®ķ":2574,"à®ķà®®à®Ł":2575,"à®°à®®à®ª":2576,"Ġà®ķà®£à®ªà®¤":2577,"ens":2578,"ond":2579,"à®°à®®à®Ļ":2580,"ile":2581,"/=":2582,"Ġsp":2583,"à®¾?\"":2584,"Ġan":2585,"Ġà®ķà®£à®®":2586,"à¯ĩ'":2587,"52":2588,"à®ľà®ļ":2589,"à¯ĨÂŃ":2590,"Ġà®ħà®±à®µ":2591,"68":2592,"Ġà®ħà®±à®¨":2593,"à®ªà®ķà®µ":2594,"Ġà®ļà®ľ":2595,"Ġ600":2596,"à®¨à®ª":2597,"Ġà®²à®²":2598,"à®¤à®®à®°":2599,"à®¯à®°à®¤":2600,"54":2601,"ĠSri":2602,"Ġle":2603,"ĠPro":2604,"Ġà®µà®¤à®ķ":2605,"à®²à®ľ":2606,"Ġà®®à®¤à®µ":2607,"à®¨à®¨":2608,"Ġà®İà®µà®©":2609,"AL":2610,"à®ıà®°":2611,"Ġ250":2612,"à®ļà®µà®®":2613,"à®ķà®¨à®ªà®°":2614,"à®Ĩà®¨":2615,"à®®à®°à®®":2616,"ĠĠĠĠĠĠĠĠĠĠĠĠĠĠĠ":2617,"ĠX":2618,"ating":2619,"à¯įâĢĻ.":2620,"sp":2621,"Ġà®ħà®°à®ķ":2622,"Ġor":2623,"âĢ¢":2624,"à®ıà®ª":2625,"Tamil":2626,"à®ªà®¤à®µ":2627,"Ġà®ªà®¯à®©à®°":2628,"Ġ47":2629,"à®ķà®²à®©":2630,"ount":2631,"ĠNov":2632,"à®ľà®¯à®©":2633,"à®Łà®©à®¤":2634,"Ġà®ķà®´à®±":2635,"Â²":2636,"Ġà®Īà®´":2637,"ence":2638,"à®ªà®¯à®©":2639,"à®ĩà®²à®ķ":2640,"à®ķà®°à®£":2641,"____":2642,"ons":2643,"Ñģ":2644,"Ġ08":2645,"Ġà®İà®²à®ķ":2646,"Ġà®ħà®©à®¨":2647,"ĠRo":2648,"Ġà®ļà®°à®®":2649,"ree":2650,"inam":2651,"69":2652,"Ġex":2653,"à®®à®°à®¤":2654,"ings":2655,"Ġà®¹à®¤":2656,"Ġà®ħà®±à®®":2657,"ĠNo":2658,"à®¤à®®à®¤":2659,"na":2660,"à®£à®Ł":2661,"à®Łà®µà®£":2662,"ON":2663,"Ġà®Ĩà®°à®µ":2664,"ance":2665,"php":2666,"à®ļà®®à®Ł":2667,"à¯ĭÂŃ":2668,"Ġà®ıà®ľ":2669,"Ġà®Ĩà®¤à®Ļ":2670,"à®¤à®¯à®®":2671,"Ġ44":2672,"ound":2673,"Ġà®¨à®ŀ":2674,"AT":2675,"Ġå":2676,"Ġà®µà®´à®®":2677,"ĠPost":2678,"ple":2679,"per":2680,"Ġthat":2681,"à®Ĳà®°":2682,"ĠâĢĭ":2683,"Ġà®ħà®ķà®®à®¤":2684,"à®°à®µà®©":2685,"Ġà®ķà®ļà®ª":2686,"à®µà®ķà®®":2687,"iss":2688,"Ġ2020":2689,"Ġà®Ĩà®¯à®¤":2690,"à®¨à®ķà®°à®®":2691,"53":2692,"Ġ04":2693,"à®µà®²à®©":2694,"Ġà®¹à®ľ":2695,"Ġ2004":2696,"Ġfrom":2697,"ĠPub":2698,"Ġà®¤à®²à®Ļ":2699,"à®¯à®£à®®":2700,"ĠAl":2701,"Ġà¯Ĩ":2702,"Ġà®®à®¤à®ķ":2703,"à®µà®©à®µ":2704,"à®Łà®Łà®¤":2705,"https":2706,"Ġà®ľà®ķ":2707,"à®±à®µà®Ļ":2708,"ick":2709,"oll":2710,"Ġà®Ĳà®¯à®®":2711,"à®±à®³à®µ":2712,"à¯Ĥ,":2713,"à®¯à®ķà®ķ":2714,"à®µà®ŀ":2715,"à®ªà®¤à®®":2716,"itle":2717,"à®īà®Ł":2718,"ĠPr":2719,"à®Ĩà®²":2720,"à®ķà®´à®ķà®Ļ":2721,"Ġà®Ĭà®©":2722,"à®ªà®©à®°":2723,"Ġas":2724,"ml":2725,"Ġà®ªà®ļà®Ļ":2726,"Ð¾Ð":2727,"ame":2728,"à¯į',":2729,"Ġà®ªà®¤à®Ł":2730,"ij":2731,"à®ªà®ķà®Ļ":2732,"à®±à®©à®µ":2733,"51":2734,"Ġà®ķà®³à®µ":2735,"à®¿),":2736,"Ġ46":2737,"Ġ02":2738,"Ġ41":2739,"à®ĥà®ªà®°":2740,"ÂłÂłÂł":2741,"à¯¦":2742,"à®µà®²à®¤":2743,"à®Łà®µà®Ł":2744,"à®ķà®²à®Ļ":2745,"own":2746,"Ġ03":2747,"à¯į!\"":2748,"ari":2749,"Ġà®ıà®±à®¤":2750,"à¯į,''":2751,"Ġà®ĵà®°à®®":2752,"à®¨à®Łà®ª":2753,"Ġà®£":2754,"à®Ĵà®³":2755,"à®ħà®¸":2756,"à¯ģ.âĢĿ":2757,"pr":2758,"wik":2759,"Ġà®ªà®ľ":2760,"à®¯à®®à®²":2761,"Ġhttps":2762,"à®ªà®£à®¤":2763,"Ġ05":2764,"2009":2765,"à®¨à®®à®ķ":2766,"ĠPM":2767,"Ġà®īà®°à®®":2768,"Ġà®ħà®²à®ļ":2769,"à®ªà®²à®ª":2770,"Ġà®ħà®©à®°":2771,"Ġnews":2772,"à¯ģâĢĮ":2773,"79":2774,"Ġpl":2775,"Ġà®µà®°à®ļ":2776,"Ġà®ķà®²à®µà®°à®®":2777,"à¯įâĢĵ":2778,"ĠDIN":2779,"à®®à®¤à®¤":2780,"Ġ120":2781,"ult":2782,"Ġar":2783,"Ġ06":2784,"Ġ56":2785,"Ġ....":2786,"ZU":2787,"Ġ99":2788,"Ġà®ħà®²à®°":2789,"Ġ2005":2790,"du":2791,"à®¤à®¯à®¤":2792,"ss":2793,"orld":2794,"à¯į!âĢĿ":2795,"eg":2796,"à®Łà®Łà®®":2797,"Ġà®¤à®®à®©":2798,"ĠUn":2799,"====":2800,"à®ķà®ľ":2801,"Ġ00":2802,"à®¤à®µà®Ļ":2803,"ha":2804,"à®ļà®°à®£":2805,"lished":2806,"Ġà®Ĩà®¤à®°à®µà®³":2807,"Ġà®®à®¤à®©":2808,"ink":2809,"à¯į,âĢĿ":2810,"à®ĩà®³à®®":2811,"Ġà®ķà®°à®®":2812,"Ġà®Ĳà®¯à®°":2813,"ĠOff":2814,"à¯į.....":2815,"ĠJTE":2816,"ĠJTEZU":2817,"ĠâĢĶ":2818,"à®ľà®¯à®¤":2819,"amak":2820,"à¯ĭ-":2821,"ft":2822,"Ġà®®à®°à®ªà®£":2823,"à®ªà®©à®µ":2824,"Ġà®ĩà®£à®Ļ":2825,"Ġà®°à®ļà®©":2826,"Ġthis":2827,"Ġà®Ĩà®¤à®²":2828,"Ġà®ļà®®à®©":2829,"ãĤ":2830,"à®ªà®¯à®Ļ":2831,"à®°à®¤à®°":2832,"Ġà®Ĩà®²à®¯à®Ļ":2833,"Ġà®ļà®¯":2834,"Ġà®ħà®ķà®ª":2835,"ele":2836,"ged":2837,"à®µà®Łà®®":2838,"à®ªà®²à®°":2839,"ĠReview":2840,"Ġà®īà®©à®¤":2841,"Ġà®ªà®Łà®°":2842,"Ġ58":2843,"Ġ52":2844,"ery":2845,"ÙĦ":2846,"Ġ72":2847,"à¸":2848,"ork":2849,"Ġà¯":2850,"ool":2851,"eal":2852,"ike":2853,"aran":2854,"Ġà®īà®²à®ķà®³":2855,"},":2856,"Ġà®¤à®°à®µà®°":2857,"Ġà®Ĩà®´à®¤":2858,"Ġà®Ĭà®Łà®ķà®¤":2859,"Ġà®µà®ļà®©à®¤":2860,"à®©à®¯":2861,"):":2862,"index":2863,"?âĢĿ":2864,"html":2865,"Ġà®®à®Łà®¤":2866,"à®¤à®®à®©":2867,"Ġà®®à®¯à®®":2868,"à®³à®©à®®":2869,"Ġà®¤à®ķà®ª":2870,"76":2871,"ĠOn":2872,"à®īà®®":2873,"à®¯à®°à®®":2874,"IC":2875,"PS":2876,"à®ķà®°à®µà®°":2877,"eng":2878,"à®µà®£à®ķ":2879,"à®ķà®°à®°":2880,"rig":2881,"ĠLanka":2882,"ĠFilm":2883,"Ġà®¨à®Łà®©":2884,"li":2885,"Ġà®ľà®¸":2886,"By":2887,"az":2888,"Ġ63":2889,"Ġà®ķà®³à®Ļ":2890,"AE":2891,"2010":2892,"à®´à®Ł":2893,"à®±à®¨à®ķà®°":2894,"à®Īà®´à®¤":2895,"à®ķà®³à®µà®°":2896,"Ġà®ĵà®ªà®©":2897,"à®İà®°":2898,"title":2899,"à®®à®©à®®":2900,"Ġà®ķà®ķ":2901,"air":2902,"Ġà®®à®©à®Ļ":2903,"à®¯à®®à®±":2904,"ater":2905,"Ġà®ķà®°à®Ł":2906,"Ġ108":2907,"ĠAd":2908,"Ġà®ķà®°à®£":2909,"Ġà®µà®¸":2910,"Ġà®ķà®²à®µà®°à®¤":2911,"ĠQ":2912,"à®·à®¯":2913,"Ġ\"\"":2914,"à®ļà®²à®ª":2915,"ĠÃ":2916,"à®®à®µà®°":2917,"ĠEx":2918,"à®Łà®µà®ļà®®":2919,"int":2920,"à®¯à®¤à®³":2921,"à®¹à®²":2922,"ĠØ":2923,"à®Ĩà®Ĩ":2924,"à¯ĩ\"":2925,"Ġà®µà®³à®¤":2926,"à®©à®°à®®":2927,"ĠMan":2928,"Ġà®ħà®Łà®®":2929,"ĠRead":2930,"man":2931,"à®µà®²à®ª":2932,"ĠPublished":2933,"à®¤à®©à®ª":2934,"row":2935,"à®Łà®Łà®Ļ":2936,"ĨĴ":2937,"à®ªà®´à®ķà®©":2938,"Ġad":2939,"eet":2940,"Ġà®¨à®²à®ķ":2941,"erv":2942,"Ġà®ħà®ļà®²":2943,"âģ":2944,"Ġà®®à®£à®¨":2945,"Ġà®®à®£à®ª":2946,"Ġ51":2947,"Ġà®ħà®ķà®²à®®":2948,"à°":2949,"ĠChennai":2950,"Ġà®ķà®´à®Ł":2951,"Ġ69":2952,"à¯į]":2953,"ational":2954,"Ġ57":2955,"64":2956,"han":2957,"Ġà®ļà®®à®ķ":2958,"Ġà®ħà®ªà®ķà®°":2959,"The":2960,"olog":2961,"Ġà®Łà®¯à®²":2962,"Ġà®ıà®²à®®":2963,"ĠGood":2964,"à®īà®©à®ķ":2965,"à®Łà®µà®±":2966,"oldid":2967,"à®®à®¯à®®":2968,"à®µà®ļà®¤":2969,"amb":2970,"à¯ĭâĢĻ":2971,"Ġà®ıà®±à®ķ":2972,"gle":2973,"able":2974,"0000":2975,"à®¾à®¿":2976,"Ġ85":2977,"Ġà®Ĳà®¤à®°":2978,"89":2979,"Ġà®ħà®°à®ļà®®":2980,"à®°à®¤à®ª":2981,"ĠMar":2982,"Ġà®Īà®ļà®©":2983,"ĠSp":2984,"à®ªà®´à®¤":2985,"][":2986,"ĠâĨĴ":2987,"Ġà®ĩà®Łà®Ĵà®¤":2988,"à®İà®ĥà®ª":2989,"Ġà®ļà®¸":2990,"à®¸à®®":2991,"Ġà®ªà®ķà®µà®¤":2992,"à¯ĭ...":2993,"ok":2994,"à®ķà®°à®Ļ":2995,"Ġ[.":2996,"à®ĩà®µà®©":2997,"à®¯à®²à®Ł":2998,"à¯ĤÂŃ":2999,"Ġà®Ĩà®ªà®°":3000,"à®īà®Łà®©à®Ł":3001,"ich":3002,"Next":3003,"AC":3004,"à®¹à®©":3005,"âģ´":3006,"ĠNovember":3007,"Ġà¯ĩ":3008,"à®¤à®ķà®Ł":3009,"à¯įâĢ¦âĢĿ":3010,"ett":3011,"Ġà®¤à®Łà®®":3012,"à®Ĩà®µ":3013,"Ġ2001":3014,"ipedia":3015,"IT":3016,"à®Łà®µà®³":3017,"à®ķà®£à®µà®©":3018,"Ġ59":3019,"inem":3020,"ijay":3021,"Ġà®Ĳà®¤":3022,"à¯įâĢĿ.":3023,"à®°à®£à®ª":3024,"à®°à®³à®¤":3025,"hy":3026,"Ġà®ĩà®¯à®²à®µ":3027,"ake":3028,"Ġà®ªà®²à®µà®ķ":3029,"Ġ68":3030,"à®¯à®¤à®³à®Ļ":3031,"à®©à®µà®³":3032,"Ġà®İà®ĥà®ª":3033,"Ġà®Ĭà®°à®ķ":3034,"uv":3035,"esh":3036,"Ġà®īà®®à®°":3037,"Ġwill":3038,"à¯į_":3039,"Ġun":3040,"Ġà®¤à®©à®®":3041,"Ġà®¯à®®":3042,"Ġà®¤à®µà®£":3043,"ĠPl":3044,"Ġag":3045,"âĢĶâĢĶ":3046,"io":3047,"à®Ĩà®©à®¨":3048,"Ġà®Ĳà®ļ":3049,"ãĥ":3050,"OR":3051,"à®¤à®ķà®ķ":3052,"retur":3053,"Ġà®Ĩà®ŀ":3054,"Ġà®Īà®ļ":3055,"Ġà®¨à®´":3056,"Ġà®ħà®ķà®©":3057,"à®®à®°à®ª":3058,"ories":3059,"Ġà®ħà®°à®µà®£":3060,"62":3061,"wikipedia":3062,"Ġ62":3063,"72":3064,"à¯ĩ-":3065,"IL":3066,"Ġà®ªà®°à®£":3067,"Ġà®Ĭà®®":3068,"Ġà®ľà®¯à®ļ":3069,"ther":3070,"à®²à®°à®ļ":3071,"à®¨à®µà®®":3072,"à®¯à®£à®ļ":3073,"à¯ģ''":3074,"Ġà®ķà®ļà®ķ":3075,"Ġà®īà®¤à®¯à®¨":3076,"Ġà®ħà®ķà®®":3077,"Ġà®Ĩà®·":3078,"oy":3079,"à®ľà®¤à®¨":3080,"Ġ95":3081,"à®ĵà®¯":3082,"AD":3083,"alar":3084,"à®ªà®´à®Ļ":3085,"AS":3086,"ĠEng":3087,"tamil":3088,"à®¤à®ķà®ª":3089,"Ġà®µà®Łà®ª":3090,"à®´à®ļ":3091,"à®ľà®©à®µà®°":3092,"à®®à®£à®Ļ":3093,"à®ªà®²à®¤":3094,"ĠComments":3095,"à®¾..?":3096,"atch":3097,"Ġà®īà®®à®¤":3098,"à®¯à®°à®ļà®°":3099,"ĠRating":3100,"à®ķà®£à®¤":3101,"Ùİ":3102,"à¯į,\"":3103,"ĠReviewed":3104,"Ġà®ķà®³à®ŀ":3105,"Ġ2003":3106,"Ġà®Łà®ļ":3107,"à®ªà®®à®Ł":3108,"Ġà®īà®°à®¤":3109,"Ġà®ĩà®µà®Ļ":3110,"Ġal":3111,"mail":3112,"à¯įà¯Ī":3113,"ull":3114,"Ġà®Īà®´à®®":3115,"ata":3116,"ovie":3117,"à¯ĭ..":3118,"returns":3119,"à®¯à®²à®ķ":3120,"Ġà®ľà®©à®Ļ":3121,"ics":3122,"ĠGoodreturns":3123,"Ġ800":3124,"Ġà®Ĭà®Łà®ķà®ª":3125,"act":3126,"à®¤à®³à®ªà®¤":3127,"ibeat":3128,"Ġà®īà®±à®ķ":3129,"à®Łà®£à®Ļ":3130,"EN":3131,"Ġ53":3132,"alai":3133,"ĠFilmibeat":3134,"ĠTr":3135,"Ġà®ĥà®ªà®°":3136,"à®ķà®°à®ļ":3137,"Ġ54":3138,"Ġtr":3139,"se":3140,"Ġ2002":3141,"Ġà®Īà®°à®®":3142,"ĠAm":3143,"3580":3144,"600":3145,"Ch":3146,"Ġà®ķà®Łà®ª":3147,"Ġà®Ĩà®°à®ŀ":3148,"ĠÂłĠÂłĠÂłĠÂłĠÂłĠÂłĠÂłĠÂł":3149,"Ġà®¤à®µà®±à®µ":3150,"à¯įâĢĭ":3151,"Ġ!!":3152,"ĠRaj":3153,"ĠâĢĮ":3154,"load":3155,"eed":3156,"Ġà®Ĩà®µà®°":3157,"à®²à®µà®°à®®":3158,"cl":3159,"à®¨à®²à®ķ":3160,"à¯į?\"":3161,"bo":3162,"||\"":3163,"Ġà®µà®±à®£":3164,"300":3165,"cri":3166,"à®ªà®²à®ķ":3167,"Ġà®¹à®ļ":3168,"Ġ%":3169,"Ġsex":3170,"!!!":3171,"Ġ\"||\"":3172,"Ġcl":3173,"ady":3174,"à®Ĵà®ª":3175,"à®¤à®°à®ķà®¤":3176,"form":3177,"Ġà®ĩà®©à®ķ":3178,"oogle":3179,"ild":3180,"ma":3181,"ual":3182,"Ġà®Ĩà®¤à®µà®©":3183,"à®īà®ª":3184,"IS":3185,"ĠTN":3186,"Ġà®ļà®Łà®²à®¤":3187,"Ġman":3188,"Ġà®ªà®³à®ª":3189,"à®ªà®¯à®£à®¤":3190,"Ġfl":3191,"Ġwho":3192,"ions":3193,"Ġ1990":3194,"à¯ģ),":3195,"inue":3196,"98":3197,"tern":3198,"à®µà®³à®¤":3199,"à¯į:-":3200,"à¯Įà®¿":3201,"à®ĩà®¯":3202,"ET":3203,"63":3204,"à®ħà®ŀ":3205,"Ġà®ļà®®à®°à®ļ":3206,"Ġà®ĩà®¯à®©":3207,"Ġpr":3208,"ĠRs":3209,"à¯ģ).":3210,"Ġà®¶":3211,"Rel":3212,"rit":3213,"à®ķà®®à®£":3214,"à®°à®®à®©":3215,"********":3216,"à®©à®µà®±":3217,"ents":3218,"à®ķà®°à®ª":3219,"Ġà®ıà®ŀ":3220,"Ġà®°à®¸":3221,"à®·à®£":3222,"Ġà®ªà®¤à®®":3223,"à®ªà®´à®©":3224,"Ġà¯Ī":3225,"Ġra":3226,"Ġà®ħà®ªà®¤":3227,"à®īà®²à®ķà®¤":3228,"Ġ>":3229,"Ġoff":3230,"Ġ011":3231,"overn":3232,"Ġà®īà®¤à®¯à®ķ":3233,"ðŁĺ":3234,"Ġ071":3235,"71":3236,"à¯įâĢĿ,":3237,"une":3238,"à®°à®ªà®Ł":3239,"Ġà®µà®°à®¤à®°":3240,"à®Ĭà®´à®²":3241,"à®¾?âĢĻ":3242,"Ġà®Łà®°":3243,"à¯į},":3244,"Ġ66":3245,"Tag":3246,"inist":3247,"ya":3248,"Ġà®ĩà®Łà®®à®³":3249,"à®¤à®²à®Ļ":3250,"à®ķà®°à®ļà®°":3251,"à®ªà®¯à®£":3252,"St":3253,"Ġà®ķà®®à®°":3254,"à®ľà®©à®¨":3255,"Ġà®ħà®µà®²":3256,"à®ľà®©à®¤":3257,"Ġx":3258,"ĠZ":3259,"book":3260,"co":3261,"osted":3262,"Ġà®Īà®µ":3263,"à®¤à®®à®±":3264,"Ġà®µà®°à®Ł":3265,"NL":3266,"à®©à®ªà®Ł":3267,"ĠCol":3268,"à®©à®¤à®®":3269,"Ġà®ĩà®Łà®°":3270,"à®īà®¤à®µ":3271,"Ġdo":3272,"à®ĥà®¤":3273,"à®İà®³":3274,"ï¿½ï¿½ï¿½":3275,"igh":3276,"Ġà®®à®Łà®®":3277,"à®µà®ķà®¤":3278,"Ġà®ªà®°à®¸":3279,"Ġà®ļà®ķà®ľà®®":3280,"à®µà®ķà®°":3281,"ube":3282,"äº":3283,"ĠTags":3284,"ĠTe":3285,"à®īà®±à®µ":3286,"à¯į'.":3287,"Ġ67":3288,"Ġà®īà®²à®µ":3289,"Ġà®Ĩà®¯à®°":3290,"Ġ98":3291,"Ġà®ĩà®°à®¯":3292,"In":3293,"aff":3294,"ĠPh":3295,"ĠNew":3296,"à¯ģâĢ¦.":3297,"Ġ78":3298,"Ġà®īà®®à®ķ":3299,"à®ļà®ªà®°":3300,"Ġher":3301,"Ġ076":3302,"its":3303,"Ġà®¨à®ľ":3304,"Ġà®ļà®¹":3305,"Ġà®Ĩà®µà®£à®®":3306,"96":3307,"Ġà®¤à®²à®¤":3308,"Ġà®īà®¤à®¯":3309,"Ġup":3310,"à®£à®¨":3311,"Ġà®®à®ľ":3312,"Ġà®¹à®Ł":3313,"à®¤à®£à®°":3314,"ife":3315,"ĠContinue":3316,"Ġam":3317,"ĠSep":3318,"inamani":3319,"à¯Ĥà®¾à¯į,":3320,"Ġà®ķà®ªà®Ł":3321,"Ġà®¨à®¯":3322,"Ġà®ļà®®à®°à®ļà®®":3323,"à¯į.//":3324,"à®°à®ļà®µ":3325,"erm":3326,"/-":3327,"Ġà®īà®ªà®°":3328,"Ġà®ħà®ļà®®":3329,"Ġyour":3330,"Related":3331,"irst":3332,"Ġà®®à®£à®ķ":3333,"à®©à®®à®²à®°":3334,"à®±à®®à®Ł":3335,"><":3336,"Ġà®¸à®²":3337,"Ġ$":3338,"à®īà®£à®°":3339,"à®ķà®µà®¤":3340,"Ġ700":3341,"à®³à®³à®µ":3342,"Ġà®Łà®¯à®°":3343,"Ġà®ıà®²à®¤":3344,"Sh":3345,"Ġreading":3346,"95":3347,"ĠWh":3348,"Ġ110":3349,"anc":3350,"Ġà®ħà®¤à®°":3351,"ayal":3352,"74":3353,"gal":3354,"Ġ96":3355,"Ġà®®à®£à®®à®ķà®©":3356,"Ġà®µà®ļà®ª":3357,"inema":3358,"Ġà®¹à®²":3359,"à®±à®µà®³":3360,"Ġà®¨à®Łà®µ":3361,"à¯į......":3362,"à¯ĭ'":3363,"à®°à®ļà®µà®¤":3364,"à®ļà®ķà®Ļ":3365,"2008":3366,"à¯į&":3367,"à¯ĩà®¾,":3368,"à®ĵà®®":3369,"eop":3370,"Ġà®ĩà®¤à®®":3371,"Ġà®ıà®¯":3372,"à®µà®ļà®ª":3373,"jp":3374,"oor":3375,"à®£à®®à®Ł":3376,"Ð»":3377,"à®¨à®Łà®¨":3378,"à®ķà®³à®©":3379,"Ġ<":3380,"à®²à®ªà®Ł":3381,"Ġus":3382,"blog":3383,"Ġà®Ĩà®ķà®²":3384,"73":3385,"ign":3386,"ebs":3387,"room":3388,"ci":3389,"Ġcon":3390,"Ġà®ĵà®°à®¤":3391,"à®Ĭà®Ł":3392,"à®°à®ļà®µà®®":3393,"Ġà®Ĩà®µà®£":3394,"Ġà®ĩà®³à®ŀ":3395,"à®¯à®²à®ķà®®":3396,"ement":3397,"à®Ĩà®ķà®¸":3398,"400":3399,"à®ħà®³à®µ":3400,"Ġà®·à®®":3401,"ĠFr":3402,"reat":3403,"à¯ģ/":3404,"à¯ģâĢĻâĢĻ":3405,"à®©à®Łà®¤":3406,"!âĢĿ":3407,"85":3408,"oh":3409,"à®ļà®©à®²":3410,"à®¯à®¤à®°":3411,"à®²à®ķà®£":3412,"Ġà®¨à®¸":3413,"ise":3414,"Ġà®¨à®µà®°":3415,"aily":3416,"enc":3417,"Ġà®ħà®µà®²à®®":3418,"Ġà®īà®°à®ķ":3419,"à®Ĳà®ļ":3420,"à®±à®¤à®±":3421,"à®Łà®³à®µ":3422,"riv":3423,"Ġà®īà®¤à®±":3424,"akk":3425,"à®ķà®²à®¨":3426,"ĠĠĠĠĠĠĠĠĠĠĠĠĠ":3427,"itter":3428,"Ġà®īà®²à®ķà®³à®µ":3429,"Ġà®ĵà®°à®Ļ":3430,"ĠIndian":3431,"ale":3432,"à®ªà®¤à®ķ":3433,"à®®à®Łà®Ļ":3434,"MK":3435,"à®²à®ķà®°":3436,"Ġim":3437,"à®©à®¤à®²":3438,"à®Ĵà®²":3439,"bs":3440,"à®¹à®¤":3441,"ĠÙ":3442,"à®ļà®°à®¤":3443,"Ġà®¨à®µà®ķ":3444,"ime":3445,"Ġà®ħà®ķà®µ":3446,"amakathai":3447,"OM":3448,"ĠKar":3449,"à®±à®¤à®©":3450,"à®°à®ķà®©":3451,"ana":3452,"à®ļà®µà®©":3453,"à®¾âĢĮ":3454,"Ġi":3455,"à®³à®Łà®Ļ":3456,"ower":3457,"Ġ61":3458,"AI":3459,"à®©à®¤à®±":3460,"Ġà®®à®²à®ļ":3461,"ãĢ":3462,"oug":3463,"Ã©":3464,"les":3465,"à®¾à®¾à¯į,":3466,"Ġ--":3467,"à®¯à®ļà®ª":3468,"anj":3469,"Ġà®°à®ķà®®":3470,"Ġà®ķà®³à®ª":3471,"amp":3472,"Ġà®ħà®²à®®":3473,"à®Łà®©à®ª":3474,"ĠAthir":3475,"tr":3476,"Ġà®Łà®¤":3477,"à®¨à®³":3478,"à®®à®²à®¤":3479,"ĠAthirady":3480,"à®¯à®®à®©":3481,"à¯ĩ)":3482,"ebsite":3483,"Ġ1980":3484,"Ġà®ªà®¯à®©à®Ł":3485,"à®ªà®ķà®ª":3486,"à®¿/":3487,"Ġ71":3488,"umb":3489,"à®ķà®®à®®":3490,"Ã¤":3491,"Ġwas":3492,"à®ªà®±à®µ":3493,"ert":3494,"Ġà®ķà®£à®¤":3495,"Ġà®īà®°à®ļ":3496,"EL":3497,"Ġà®Ĩà®ķà®ķ":3498,"Ġhe":3499,"ED":3500,"Ġà®µà®°à®©":3501,"ict":3502,"eople":3503,"à¯į\".":3504,"å¤":3505,"Ġà®Ĩà®²à®®":3506,"ĠOnline":3507,"à®ªà®©à®®":3508,"à®²à®ķà®Ļ":3509,"à®Ĵà®´":3510,"à¯įâĢ¦!":3511,"à®²à®µà®°à®ª":3512,"tember":3513,"à¯ĩ:":3514,"Ġ5000":3515,"à®®à®°à®Ļ":3516,"ital":3517,"61":3518,"Ġà®ªà®£à®µ":3519,"Ġà®¨à®©à®µ":3520,"ung":3521,"Ġà®ıà®²à®ķ":3522,"à®¯à®¯":3523,"img":3524,"Ġà®®à®¤à®°":3525,"Ġà®¤à®Łà®Ļ":3526,"à®£à®¯à®¤":3527,"à®£à®¯à®Ļ":3528,"âĨ":3529,"SS":3530,"ĠCl":3531,"à®´à®µà®©":3532,"orn":3533,"nadu":3534,"Ġà®ľà®°":3535,"ef":3536,"à®³à®µà®¤":3537,"UR":3538,"à®Īà®Ł":3539,"acebook":3540,"Ġme":3541,"ĠOct":3542,"à®ķà®¤à®µ":3543,"TN":3544,"jpg":3545,"ĠArt":3546,"à®³à®µà®©":3547,"of":3548,"à®ĩà®±à®¨":3549,"Ind":3550,"Ġlike":3551,"overnment":3552,"à®®à®°à®ķ":3553,"à®µà®³à®®":3554,"æľ":3555,"Ġmy":3556,"Ġà®īà®µà®®":3557,"à®ķà®Łà®±":3558,"Ġà®®à®³":3559,"ĠDec":3560,"Ġà®ªà®ķà®Ł":3561,"ĠâĢ¢":3562,"ove":3563,"à®ŀà®°à®£":3564,"Ġ84":3565,"ology":3566,"Ġsays":3567,"Ġà®µà®©à®µ":3568,"Ġà®ªà®£à®µà®°à®µ":3569,"Ġ77":3570,"Ġà®ªà®´à®ļ":3571,"Ðº":3572,"Ġsup":3573,"à®¾....":3574,"Ġà®ķà®´à®ķà®Ļ":3575,"Ġapp":3576,"à®ªà®°à®µ":3577,"Ġà®Ĵà®ļ":3578,"Ġ3000":3579,"Ġall":3580,"ode":3581,"Ġà®ĩà®³à®µ":3582,"Ġà®Īà®®":3583,"ini":3584,"els":3585,"à®¨à®ķà®°à®Ļ":3586,"Ġà®®à®²à®®":3587,"ade":3588,"Ġ350":3589,"Ġà®Ĩà®ļà®©à®Ļ":3590,"à®ļà®ķà®Ł":3591,"Ġte":3592,"Ġà®¸à®®":3593,"84":3594,"ĠJul":3595,"Ġà®ªà®ķà®¤":3596,"à®®à®ķà®°":3597,"à®ķà®³à®ķ":3598,"à®ļà®ŀ":3599,"à®°à®®à®²":3600,"Ġ73":3601,"ara":3602,"à®ħà®µà®Ļ":3603,"ral":3604,"Ġà®µà®°à®²à®Ł":3605,"Ġà®®à®©à®µ":3606,"à¯į.!":3607,"oday":3608,"çī":3609,"à®¤à®©à®µ":3610,"86":3611,"ax":3612,"sk":3613,"Ġà®ľà®©à®©":3614,"Ġ1996":3615,"Ġà®ļà®µà®°à®©":3616,"à®ĵà®µ":3617,"me":3618,"ates":3619,"à¯ģ[":3620,"à®°à®ªà®¤":3621,"Ġà®Ĳà®µà®°":3622,"te":3623,"ober":3624,"Ġà®¤à®©à®ª":3625,"Ġà®īà®´à®µ":3626,"à®©à®Łà®®":3627,"Ġen":3628,"à®³à®ªà®Ł":3629,"2000":3630,"Ġà®®à®£à®®à®ķà®³":3631,"dinamani":3632,"ĠSe":3633,"Ġà®īà®¤à®¯à®®":3634,"ication":3635,"put":3636,"ÙĨ":3637,"ĠâĢĻâĢĻ":3638,"Ġà®Łà®¯":3639,"à¯ĭ)":3640,"à®°à®¤à®©":3641,"à®©à®ķà®¤":3642,"adi":3643,"Ġà¤":3644,"Ġà®ªà®´à®¨":3645,"Ġ1500":3646,"à®ķà®Łà®Ļ":3647,"Ġqu":3648,"Ġ76":3649,"Ġund":3650,"Ġà®¹à®ª":3651,"Ġ@":3652,"à®ĩà®°à®Ł":3653,"ock":3654,"à¯ģ.\"":3655,"à®ľà®µ":3656,"Ġà®ķà®©à®ķà®°":3657,"Ġ88":3658,"tn":3659,"ats":3660,"2006":3661,"land":3662,"Ġà®īà®£à®µà®ķà®¤":3663,"à®Ĩà®´":3664,"1000":3665,"ose":3666,"à®ªà®±à®®":3667,"ownload":3668,"à®ķà®ŀ":3669,"umar":3670,"ty":3671,"Ġres":3672,"à®ĩà®Łà®¤":3673,"Ġse":3674,"////":3675,"Ġà®ļà®®à®°à®µ":3676,"Ġà®ļà®·":3677,"ism":3678,"right":3679,"à®ªà®©à®¤":3680,"à®¨à®±":3681,"à®¯à®°à®ļà®©":3682,"aram":3683,"Ġà®ķà®²à®ķà®²à®ª":3684,"inal":3685,"Ġ125":3686,"cript":3687,"800":3688,"Ġà®ħà®°à®Ł":3689,"ĠSup":3690,"ĠRes":3691,"af":3692,"à®¤à®µà®¤":3693,"ĠMay":3694,"à¯ģ?âĢĿ":3695,"atest":3696,"ĠSeptember":3697,"ĠAug":3698,"Ġ74":3699,"à®µà®´à®Ļ":3700,"utt":3701,"Ġpol":3702,"der":3703,"à®µà®ķà®ļ":3704,"à¯įâĢĺ":3705,"affna":3706,"Ġà®¹à®¸":3707,"Ġà®Ĭà®±à®µ":3708,"Ġà®ķà®©à®¤":3709,"Ġà®¨à®®à®¸":3710,"ps":3711,"à®ļà®µà®°":3712,"à®°à®®à®±":3713,"ĠJan":3714,"à®¯à®®à®©à®¤":3715,"be":3716,"à®©à®ķà®°":3717,"Ġind":3718,"akaran":3719,"à®ªà®ķà®°à®®":3720,"\",":3721,"à®ĩà®Łà®®":3722,"Ġà®Īà®°à®ª":3723,"Ġcont":3724,"Ġà®ħà®ľà®¯":3725,"87":3726,"AA":3727,"à®İà®¤à®±":3728,"Ġà®ķà®©à®ķ":3729,"Ġà®´":3730,"ideos":3731,"Ġ1999":3732,"Ġï¿½ï¿½ï¿½ï¿½":3733,"Ġà®īà®´à®µà®°":3734,"à®µà®°à®ļ":3735,"ĠIs":3736,"âĨĳ":3737,"twimg":3738,"iews":3739,"Ġà®µà®°à®£":3740,"Ġhave":3741,"91":3742,"à¯ģ..!":3743,"à¯ĭ:":3744,"athir":3745,"à®¯à®¤à®²":3746,"Ø±":3747,"à¯ģ!!":3748,"ĠComm":3749,"Ġà®ıà®²":3750,"Ġà®ªà®¹":3751,"à®ĩà®°à®¤":3752,"ĠSex":3753,"Ġà®ļà®®à®µ":3754,"itt":3755,"Ġà®ļà®°à®µ":3756,"Ġ130":3757,"ourt":3758,"à®¾),":3759,"à¯ĬÂŃ":3760,"Ñĥ":3761,"ÂłÂłĠ":3762,"ĠToday":3763,"à¯ĩ;":3764,"Ġà®ļà®Łà®²à®Ļ":3765,"----------------":3766,"Ġà®¤à®°à®²":3767,"ÂłÂłÂłÂłÂłÂłÂłÂł":3768,"à®¾;":3769,"Â·":3770,"Ġà®īà®£à®µà®ķà®Ļ":3771,"Ġà®®à®ķà®ļ":3772,"ĠThir":3773,"Posted":3774,"ĠPer":3775,"adh":3776,"à®¯à®¨à®²":3777,"à®¨à®ķà®°à®¤":3778,"å½":3779,"à®°à®ķà®Łà®©à®®":3780,"Ġà®Ĩà®¹":3781,"à®ıà®µ":3782,"à®ľà®©à®®":3783,"à®·à®ķ":3784,"Ġà®ªà®¤à®ª":3785,"ealth":3786,"à¯Ī),":3787,"ets":3788,"Ġhis":3789,"ĠFeb":3790,"Ġà®ıà®£":3791,"ould":3792,"pe":3793,"åĽ":3794,"83":3795,"ka":3796,"à®©à®ļà®®":3797,"ages":3798,"Ġà®¤à®°à®ķà®°":3799,"Ġagain":3800,"riend":3801,"Ġà®ĩà®³à®µà®°à®ļà®©":3802,"Ġà®İà®ľà®®":3803,"UT":3804,"lam":3805,"à®±à®¯":3806,"à®¤à®°à®ķà®®":3807,"inister":3808,"à®¯à®ķà®°à®®":3809,"Ġà®īà®£à®°à®ª":3810,"Ġ1991":3811,"Ġà®ªà®²à®°à®¤":3812,"Ġà®Ĩà®µà®£à®¤":3813,"à®°à®¯à®®":3814,"à®¯à®£à®¤":3815,"à®ļà®µà®¤":3816,".)":3817,"Ġpart":3818,"2007":3819,"à®ķà®ļà®ª":3820,"Ġà®Īà®±":3821,"à®µà®£à®Ļ":3822,"à¯į..!!":3823,"à®ħà®®à®°":3824,"à®°à®ļà®®":3825,"ĠPol":3826,"Ġà®ħà®µà®ļà®°à®ª":3827,"iya":3828,"ĠGr":3829,"Ġro":3830,"au":3831,"à¯ĢÂŃ":3832,"à®īà®²à®ķà®ķ":3833,"Ġ160":3834,"à®¤à®µà®®":3835,"à®°à®ķà®Łà®©à®ª":3836,"ĠTAM":3837,"à®ķà®£à®µà®°":3838,"à®Łà®©à®Ļ":3839,"ident":3840,"à®°à®ķà®£à®®":3841,"ĠFor":3842,"Ġæ":3843,"Ġà®ļà®©à®¤":3844,"Ġà®ħà®±à®¤":3845,"Ġ140":3846,"Ġà®¨à®µà®¨":3847,"ouse":3848,"à®ªà®°à®©":3849,"Ġà®ħà®µà®¸":3850,"yst":3851,"ĠUS":3852,"Ġ1998":3853,"Ġà®Ĩà®ªà®°à®£à®Ļ":3854,"à®°à®ªà®°à®£":3855,"à®¯à®¨à®²à®®":3856,"ĠAthavan":3857,"à®¾?'":3858,"Ġ79":3859,"à¯į.âĢĻ":3860,"urai":3861,"Ġrec":3862,"uy":3863,"à®®à®£à®ª":3864,"à®Ļà®©à®®":3865,"Ġà®ļà®²à®ļà®²à®ª":3866,"Ġà®īà®£à®°à®µ":3867,"eral":3868,"à®®à®£à®²":3869,"ĠTagged":3870,"Ġ89":3871,"kar":3872,"ĠVideo":3873,"igg":3874,"ĠBS":3875,"Ġà®°à®®à®£":3876,"Ġ83":3877,"Ġper":3878,"Â¢":3879,"Ġhas":3880,"Ġà®Łà®¯à®Ł":3881,"Ġà®ĵà®Łà®µ":3882,"Ġà®īà®£à®µà®ķà®®":3883,"Ġev":3884,"Ġà®²à®¯à®©":3885,"aking":3886,"aut":3887,"ĠFl":3888,"ï¼":3889,"à®ķà®¤à®°":3890,"anthi":3891,"ĠMus":3892,"à®²à®ķà®²":3893,"à¯ģ.)":3894,"amal":3895,"ina":3896,"à®ļà®Łà®Ļ":3897,"à®°à®ļà®Ļ":3898,"Ġà®ķà®°à®©":3899,"Ġà®Ĭà®©à®®":3900,"Ġà®Īà®´à®ª":3901,"Ġà®®à®´à®²":3902,"Ġà®ħà®µà®¤à®°":3903,"Ġà®®à®ķà®ª":3904,"82":3905,"à®Łà®±à®¤":3906,"Ġà®Ĩà®ķà®®":3907,"Ġà®ħà®¯à®©":3908,"à®µà®ļà®¨":3909,"Ġé":3910,"Ġà®ħà®ļà®°":3911,"Ġ92":3912,"Ġà®®à®Łà®²":3913,"ins":3914,"à¯įâĢľ":3915,"à¯į!!!":3916,"à®¤à®°à®ļ":3917,"Ġ82":3918,"ID":3919,"AF":3920,"Ġà®ķà®©à®ħà®Ł":3921,"II":3922,"ION":3923,"ES":3924,"à®¯à®®à®Ļ":3925,"Ġà®īà®³à®®":3926,"amakathaikal":3927,"à®¤à®¤à®¤":3928,"ĠVijay":3929,"à®ļà®©à®ª":3930,"Ġyear":3931,"TM":3932,"Ġtoday":3933,"ues":3934,"à®ķà®³à®Ļ":3935,"Ġà®¨à®Ļ":3936,"Ġnew":3937,"Ġà®ªà®·":3938,"à®¯à®©à®µ":3939,"81":3940,"ivers":3941,"à®Ĭà®¤":3942,"à¯ĭâĢ¦":3943,"]]":3944,"Ġà®Ĳà®İà®¸":3945,"à®µà®ļà®Ļ":3946,"Ġà®ħà®³à®ª":3947,"ĠRoad":3948,"à®ľà®¯à®²à®Ł":3949,"Ġà®µà®°à®¤à®Ł":3950,"Ġà®µà®Łà®ļ":3951,"________":3952,"Ġà®®à®£à®µ":3953,"à®īà®´":3954,"à®Łà®²à®Ł":3955,"\\\\":3956,"Ġà®ªà®²à®¨":3957,"duc":3958,"à¯Ī....":3959,"ĠâĢĺâĢĻ":3960,"ush":3961,"Ġà®ħà®´à®±":3962,"Me":3963,"à±":3964,"Ġà®Īà®ª":3965,"à®¨à®¯à®©":3966,"93":3967,"à®µà®©à®ª":3968,">>":3969,"Ġunder":3970,"aid":3971,"Ġà®¨à®Łà®©à®¤":3972,"92":3973,"94":3974,"à¯įÂ»":3975,");":3976,"Ġà®īà®¸":3977,"lic":3978,"ĠOctober":3979,"Ġpost":3980,"An":3981,"rest":3982,"Ġone":3983,"à®Łà®°à®²":3984,"à®ħà®ķà®¤":3985,"Ġà®ħà®®à®®":3986,"à¯Ģ-":3987,"Ġele":3988,"ines":3989,"br":3990,"Ġ97":3991,"ox":3992,"à®Ĳà®¸":3993,"Ġ91":3994,"Ġ1970":3995,"à®®à®¤à®©":3996,"Ġ81":3997,"Ġent":3998,"ĠDin":3999,"Ġà®¨à®ķà®°à®ļà®ª":4000,"Ġà®¤à®µà®¤":4001,"chool":4002,"Ġ87":4003,"Ġ1987":4004,"BS":4005,"yle":4006,"Ġà®®à®±à®¤":4007,"fer":4008,"åħ":4009,"alk":4010,"Ġà®®à®¹à®¤":4011,"Ġ180":4012,"à¯Ī/":4013,".....":4014,"à®£à®±à®²":4015,"Ġà®ıà®µà®ª":4016,"Ġ1989":4017,"ĠCent":4018,"ossip":4019,"IR":4020,"Ġà®Ļ":4021,"Ġà®ħà®ķà®¨":4022,"ateg":4023,"à®ľà®¯à®ķà®²":4024,"Ð¤":4025,"amy":4026,"à¯įâĢį":4027,"Ġà®ªà®¯à®²":4028,"ruary":4029,"à¯į;.":4030,"arm":4031,"à®İà®µà®°":4032,"Ġà®·à®ķ":4033,"You":4034,"ĠIN":4035,"ĠJuly":4036,"PL":4037,"EC":4038,"pen":4039,"Ġ144":4040,"97":4041,"Ġà®²à®·":4042,"à®Ĵà®±":4043,"Ġà®ħà®®à®°à®µ":4044,"Ġ94":4045,"Ġà®ªà®²à®¤à®°à®ª":4046,"à®³à®©à®µ":4047,"à®³à®¯":4048,"à®²à®¤à®©à®®":4049,"ĠAnd":4050,"uary":4051,"à®¯à®©à®®":4052,"Ġç":4053,"Ġà®²à®¯":4054,"à®¹à®¸":4055,"Ġà®µà®ľ":4056,"ĠVir":4057,"Ġà®¤à®ķà®Ł":4058,"Ġà®®à®©à®¨à®²":4059,"Ã¡":4060,"Ġà®¤à®³à®µ":4061,"Ġ1983":4062,"spot":4063,"à®ļà®°à®ķ":4064,"lim":4065,"à¯į?âĢĻ":4066,"ĠLe":4067,"à®Łà®®à®£":4068,"Ġà®Łà®µà®°":4069,"Ġ86":4070,"Ġà®ħà®µà®²à®Ļ":4071,"ony":4072,"arth":4073,"Ġà®Ĩà®ķà®ª":4074,"à®µà®ļà®ķ":4075,"Ġà®µà®¯à®°":4076,"ix":4077,"MS":4078,"à®ĩà®¯à®²":4079,"Ġ93":4080,"Ġact":4081,"eek":4082,"iled":4083,"Ġsu":4084,"à®®à®ķà®µ":4085,"ĠYou":4086,"Ġà®īà®ªà®ļà®°":4087,"ors":4088,"Ġà®ħà®®à®°à®°":4089,"urr":4090,"Ġà®īà®²à®®":4091,"irl":4092,"Ġà®ħà®µà®ļà®°à®ķ":4093,"ĠGoogle":4094,"Ùħ":4095,"Ġà®ļà®®à®ļ":4096,"à®ıà®İà®¸":4097,"à®ķà®°à®Ł":4098,"Ġsam":4099,"Ġsc":4100,"à¯į\",":4101,"Äģ":4102,"Ġà®¤à®µà®´":4103,"à®°à®ľà®©":4104,"ĠAugust":4105,"ject":4106,"ĠSam":4107,"gmail":4108,"à®²à®ļà®¨":4109,"odi":4110,"rain":4111,"à®°à®³à®®":4112,"========":4113,"Ġà®ħà®±à®ª":4114,"edition":4115,"ĠApr":4116,"à®³à®¤à®®":4117,"min":4118,"Ġà®ħà®µà®ļà®°à®¤":4119,"ali":4120,"ĠðŁ":4121,"à®ķà®³à®±":4122,"Ġà®®à®°à®£à®Ļ":4123,"Ġà®µà®²à®ª":4124,"ĠDr":4125,"BC":4126,"à®ĩà®³à®µà®°":4127,"Ġcan":4128,"Ġà®ķà®µà®©à®¯":4129,"?)":4130,"999":4131,"so":4132,"Ġdis":4133,"Daily":4134,"à®ķà®²à®ķ":4135,"ĠWorld":4136,"oot":4137,"à¯ĩ....":4138,"media":4139,"ada":4140,"à®ķà®¤à®®":4141,"ocal":4142,"ĠØ§":4143,"à®°à®°à®ļà®°":4144,"arg":4145,",,,,":4146,"EW":4147,"RO":4148,"Ġpeople":4149,"Ñı":4150,"2004":4151,"ane":4152,"earch":4153,"Ġà®°à®ļà®®":4154,"Ġà®īà®Łà®¨":4155,"ally":4156,"à®ĩà®²à®µ":4157,"à®±à®®à®³":4158,"eld":4159,"Ġà®ħà®ļà®Ł":4160,"Ġà®ħà®±à®Ļ":4161,"Ġà®ķà®²à®µà®°à®Ļ":4162,"ĠFebruary":4163,"omen":4164,"hares":4165,"Ġà®ĩà®²à®¤":4166,"à®¨à®Łà®µà®Ł":4167,"à®ªà®¹":4168,"Ġà®Ĭà®ŀ":4169,"Ġà®¹à®ļà®©":4170,"ows":4171,"®¶":4172,"Ġstory":4173,"arn":4174,"Ġà®ļà®ªà®¤à®®":4175,"Ġà®ķà®µà®ļà®®":4176,"Ġwe":4177,"ama":4178,"à¯ĭâĢĿ":4179,"Ġstr":4180,"Ġcomment":4181,"Ġà®Ĳà®Ĳà®Ł":4182,"pbs":4183,"à¯į.'":4184,".âĢĿ":4185,"à®³à®©à®¤":4186,"///":4187,"Ġà®¨à®°à®ķà®¤":4188,"à®ļà®°à®®":4189,"Ġà®Ĩà®Łà®²":4190,"Ġà®®à®¤à®ª":4191,"à®Łà®µà®®":4192,"blogspot":4193,"ÙĪ":4194,"eep":4195,"à¯įâĢ¦..":4196,"à®ķà®²à®µ":4197,"abad":4198,"Ġà®īà®°à®Ļ":4199,"ĠTo":4200,"str":4201,"araj":4202,"outube":4203,"à®ļà®°à®¸":4204,"come":4205,"Ġà®ķà®©à®°":4206,"lack":4207,"à®ªà®ªà®Ł":4208,"Ġvideo":4209,"ĠDecember":4210,"LA":4211,"Ġcome":4212,"à®®à®ķà®¤":4213,"à´":4214,"Ġagainst":4215,"Ġà®ķà®£à®Ļ":4216,"Ġgo":4217,"?\"":4218,"Tags":4219,"ĠTV":4220,"à¯į...!":4221,"Ġà®ħà®³à®¨":4222,"Ġà®¤à®µà®³":4223,"à®¯à®±à®¤":4224,"ips":4225,"à®¯à®®à®©à®Ļ":4226,"Ġà®İà®´à®µ":4227,"à®ļà®ªà®ķ":4228,"AP":4229,"Ġà®Īà®©":4230,"ayam":4231,"Ġmon":4232,"Ġcol":4233,"à®ªà®²à®µ":4234,"à®ļà®¤à®®":4235,"à®¨à®Łà®°":4236,"Al":4237,"Ð°Ð":4238,"à®¤à®®à®®":4239,"En":4240,"Ġà®µà®²à®¯à®¤":4241,"Ġ1992":4242,"DI":4243,"PSC":4244,"ÙĬ":4245,"à®¨à®ķà®°à®ļà®ª":4246,"à®¿âĢĻ,":4247,"à®¤à®Łà®µ":4248,"Ġà®ªà®¤à®¤":4249,"Ġà®īà®ªà®¨":4250,"à®ıà®®":4251,"à¯į!âĢĻ":4252,"],":4253,"à®ªà®¤à®¤":4254,"chn":4255,"150":4256,"Thanthi":4257,"à¯ģà¯į":4258,"à®¯à®Łà®ķ":4259,"à®¸à®µ":4260,"!!!!":4261,"????":4262,"ĠArticle":4263,"athi":4264,"Ġï¿½":4265,"Ġph":4266,"\".":4267,"ied":4268,"Ġà®ªà®£à®®à®¤":4269,"press":4270,"Ġà®®à®£à®¤":4271,"Ġà®Ĩà®°à®¤":4272,"Ġà®Ĩà®¤à®°à®µà®±":4273,"Ġà®ªà®±à®ª":4274,"à®ĥà®ķ":4275,"à®ļà®£à®®":4276,"Ġ900":4277,"Ġà®ĥà®ªà®£":4278,"à®¤à®Łà®®":4279,"å½©":4280,"ÂłĠ":4281,"ĠJaffna":4282,"akes":4283,"Ġà®ĩà®²à®ŀ":4284,"%,":4285,"Ġà®ļà®ķà®¤":4286,"HER":4287,"Ġà®¨à®ķà®Ļ":4288,"asu":4289,"à®ıà®ļ":4290,"ING":4291,"à¯į...\"":4292,"mer":4293,"à¯į..?":4294,"Ġà®ħà®®à®³":4295,"à®¹à®µ":4296,"ts":4297,"Ġ075":4298,"TV":4299,"ĠDel":4300,".[":4301,"Ġà®Ĳà®©":4302,"à¯ĩ?âĢĿ":4303,"Ġà®ļà®²à®µ":4304,"à®¤à®µà®£":4305,"DailyThanthi":4306,"Com":4307,"à®ķà®´à®µ":4308,"ä¸Ń":4309,"to":4310,"Ġà®īà®³à®±":4311,"now":4312,"uc":4313,"à®ªà®°à®ļ":4314,"0530":4315,"700":4316,"ran":4317,"ĠNext":4318,"à®ħà®³":4319,"Ġinter":4320,"Ġmovie":4321,"à®£à®£":4322,"Ġsw":4323,"order":4324,"OL":4325,"Ġ1997":4326,"oint":4327,"à®¤à®ķà®©":4328,"à®Łà®¨à®®":4329,"OS":4330,"ĠJune":4331,"Ġà®µà®ļà®©":4332,"åı":4333,"Ñĭ":4334,"ecial":4335,"Ġ1984":4336,"Ġla":4337,"à®ĩà®³à®Ļ":4338,"Ġà®ªà®°à®ļ":4339,"Ġatt":4340,"Ġà®®à®©à®¤à®³à®µ":4341,"med":4342,"à®¨à®²à®¤":4343,"mur":4344,"Ġà®ªà®³à®ªà®³à®ª":4345,"RE":4346,"US":4347,"pd":4348,"Ġè":4349,"ystem":4350,"Ġà®ļà®®à®£":4351,"ctions":4352,"à®Īà®¸":4353,"900":4354,"à®ªà®¤à®²":4355,"ations":4356,"ĠComment":4357,"à®®à®¤à®ª":4358,"à®Łà®ķà®ķ":4359,"à®ªà®ķà®°":4360,"Ġà®ĵà®©":4361,"Ġ:-)":4362,"à¯ģ.....":4363,"ĠTamilnadu":4364,"aa":4365,"Ġà®Ķ":4366,"!)":4367,"Ġwater":4368,"à®¯à®´":4369,"ble":4370,"Ġ101":4371,"Ġà®Ĩà®²à®Ļ":4372,"Ġpre":4373,"rol":4374,"BI":4375,"à®µà®©à®Ł":4376,"Ar":4377,"ution":4378,"rim":4379,"Ġno":4380,"à®®à®©à®ļ":4381,"Ġacc":4382,"à®¿....":4383,"à®Łà®°à®µ":4384,"2005":4385,"à¯ģ.(":4386,"Ġà®ļà®¤à®¤":4387,"à¯į!'":4388,"Ġ1995":4389,"à®´à®ķà®©":4390,"angal":4391,"aiy":4392,"news":4393,"à®ļà®¯à®©":4394,"ĠJanuary":4395,"Ġem":4396,"fter":4397,"ĠBook":4398,"Ġà®ľà®¨":4399,"Ġà®·à®¤":4400,"oup":4401,"oon":4402,"à®ķà®³à®°":4403,"à¯į`":4404,"agar":4405,"atur":4406,"apt":4407,"Le":4408,"ĠSong":4409,"à®Łà®®à®®":4410,"à®¹à®ª":4411,"Ġ1994":4412,"Ġ0777":4413,"Ġà®ķà®£à®©":4414,"Ġstud":4415,"à®¸à®¸":4416,"à®²à®®à®©":4417,"................":4418,"Ġà®Ĩà®Łà®µà®°":4419,"Ġà®®à®£à®®à®ķ":4420,"Ġà®ªà®¯à®±":4421,"ĠGen":4422,"ĠWebsite":4423,"ott":4424,"à®¯à®©à®°":4425,"à®ķà®ķà®³":4426,"RI":4427,"ĠAb":4428,"Ġà®®à®®à®¤":4429,"Ph":4430,"Ġ1960":4431,"ĠApp":4432,"à®ļà®®à®¯à®¤":4433,"ĠCon":4434,"Ġday":4435,"2001":4436,"ĠAss":4437,"ody":4438,"]]>":4439,"à®ķà®²à®Ł":4440,"Ġà®°à®Ł":4441,"Ġsamayal":4442,"à®Ĩà®¹":4443,"Ġà®¤à®°à®£":4444,"Ġà®ªà®¯à®ķ":4445,"Ġà®Ĳà®ıà®İà®¸":4446,"ĠBre":4447,"Ġà®¤à®¸":4448,"ission":4449,"ĠAcc":4450,"à®¯à®ķà®²":4451,"à®²à®¤à®²":4452,"Ġà®ĩà®®à®¯à®®à®²":4453,"à®µà®°à®¤à®°":4454,"ĠâĢ¦.":4455,"Ġà®¨à®°à®ķ":4456,"Ġà®ªà®¯à®£à®ª":4457,"1990":4458,"ÐµÐ":4459,"à®µà®¯à®²":4460,"à®¸à®ª":4461,"Ġà®¯à®ļ":4462,"à®°à®¯à®¤":4463,"à®´à®ķà®°":4464,"Ġcr":4465,"ombo":4466,"à®°à®µà®¸":4467,"Ġwork":4468,"thi":4469,"++":4470,"Ġà®µà®©à®®":4471,"à®ļà®²à®¤":4472,"ĠMad":4473,"à®İà®Łà®ª":4474,"à®ĩà®µà®³":4475,"Ġ072":4476,"ĠCinema":4477,"Ġif":4478,"Ġà®ħà®´à®ķà®°":4479,"Ġà®µà®¹":4480,"Ġ1950":4481,"rab":4482,"à¯Ī.âĢĿ":4483,"mp":4484,"ute":4485,"ĠMon":4486,"rist":4487,"à®ļà®ªà®Ł":4488,"à¯©":4489,"à®ļà®°à®µà®£à®©":4490,"ward":4491,"Shares":4492,"Ġgr":4493,"ĠIS":4494,"Ġdes":4495,"outh":4496,"à®®à®£à®ķ":4497,"Ġà®¨à®ķà®°à®ª":4498,"reen":4499,"athiravan":4500,"alan":4501,"ĠNadu":4502,"à®°à®µà®ª":4503,"Ġtheir":4504,"Ġà®ªà®°à®®à®ļ":4505,"ĠVideos":4506,"ç¥":4507,"à®ķà®µà®´à®ķ":4508,"Ġ~":4509,"OT":4510,"Ġà®ķà®®à®²à®¹":4511,"Ġà®ªà®©à®Ļ":4512,"Ġprot":4513,"à®¨à®²à®©":4514,"Ġà®ķà®°à®¤":4515,"Ġà®®à®±à®ª":4516,"à®ªà®Łà®ļ":4517,"à®Łà®°à®Ļ":4518,"Ġ450":4519,"Ġonline":4520,"video":4521,"ĠAll":4522,"Ġà®¤à®ķà®µà®²à®±":4523,"à®ªà®ľà®©":4524,"px":4525,"Ġà®Ĵà®¸":4526,"Ġcomm":4527,"Ġà®ıà®´à®°":4528,"à®³à®°à®µ":4529,"Ġ1993":4530,"Ġout":4531,"à®ľà®¨":4532,"ĠQu":4533,"Ġà®ĵà®¨":4534,"any":4535,"urn":4536,"raph":4537,"Ùĩ":4538,"</":4539,"over":4540,"erson":4541,"Ġ:))":4542,"ĠApril":4543,"ĠDinakaran":4544,"à®·à®ªà®®":4545,"à¯«":4546,"âĢĶâĢĶâĢĶâĢĶ":4547,"asan":4548,"ĠMovie":4549,"à¯ģ,âĢĿ":4550,"Ġà®ļà®¯à®©":4551,"eer":4552,"Ġà®ªà®²à®©à®³":4553,"ĠStories":4554,"à®¾},":4555,"Ġ4000":4556,"ĠEd":4557,"Ġà®īà®£à®°à®®":4558,"ited":4559,"iyan":4560,"way":4561,"arket":4562,"à®ªà®©à®µà®±":4563,"Ġarrest":4564,"ron":4565,"Ġover":4566,"rick":4567,"à¯Ģ.,":4568,"IF":4569,"à®¸à®¤":4570,"à¯ĩ},":4571,"à®ķà®´à®ª":4572,"ief":4573,"Ġà®µà®¸à®²":4574,"ĠTE":4575,"emple":4576,"Ġ104":4577,"pu":4578,"à®µà®®à®±":4579,"erala":4580,"Ã¼":4581,"/=.":4582,"Ġà®İà®®à®©":4583,"Ġà®ľà®Ļ":4584,"adan":4585,"à®Łà®Īà®Ł":4586,"ĠGossip":4587,"Ġà®ľà®µà®¹à®°":4588,"Sp":4589,"à¯į//":4590,"âĢĻ,":4591,"ars":4592,"à®°à®ļà®ª":4593,"icial":4594,"à®ªà®°à®¨":4595,"Ġ1988":4596,"UN":4597,"Ġà®ļà®®à®·":4598,"Ġà®ªà®°à®µà®ļà®®":4599,"ants":4600,"ĠMP":4601,"Ġ105":4602,"ÛĮ":4603,"Ġà®ħà®ĥà®¤":4604,"ĠIntern":4605,"à®Łà®®à®³":4606,"Â«":4607,"à¯Ī''":4608,"à®®à®ľ":4609,"ĠST":4610,"twitter":4611,"ĠAp":4612,"India":4613,"à¯į,.":4614,"åĽ¾":4615,"à®¤à®Łà®Ļ":4616,"à¯į?'":4617,"Ġcase":4618,"à®ķà®³à®²":4619,"ames":4620,"itch":4621,"à®±à®¤à®²":4622,"à¤¾":4623,"ĠÂŃ":4624,"Ġtw":4625,"Ġà®ªà®°à®¤à®©":4626,"Ġà®ħà®ļà®¨":4627,"à®Ĳà®İà®¸":4628,"imb":4629,"à®ļà®µà®Ļ":4630,"ï¿½ï¿½ï¿½ï¿½ï¿½":4631,"Ġà®ªà®¯à®©à®³":4632,"ĠTv":4633,"Ġà®°à®ķà®Ļ":4634,"à¥į":4635,"ĠMarch":4636,"à®ķà®©à®ª":4637,"oci":4638,"Ġà®ħà®ķà®¸":4639,"alv":4640,"çł":4641,"Ġ1977":4642,"à®ĵà®ķ":4643,"iness":4644,"ĠDev":4645,"à®ľà®¯à®°":4646,"ĠMedia":4647,"Ġà®ķà®°à®ķ":4648,"à®ķà®°à®¨":4649,"GB":4650,"Ġà®ªà®ľà®©":4651,"que":4652,"èĤ":4653,"tha":4654,"Ġsm":4655,"Ġà®ħà®ķà®Ļ":4656,"rooms":4657,"Ġà®ĩà®¤à®¯à®Ļ":4658,"etw":4659,"à®¶":4660,"lk":4661,"On":4662,"à®¹à®®à®Ł":4663,"ĠAct":4664,"Ġà®ħà®³à®ķ":4665,"ange":4666,"Ġà®ªà®²à®µà®¨":4667,"ĠEle":4668,"250":4669,"Ġà®¨à®°à®ķà®®":4670,"Ġ......":4671,"Ġà®¤à®©à®ŀ":4672,"Ãł":4673,"AG":4674,"Ġà®Ĵà®Ļ":4675,"col":4676,"à®°à®ªà®¨":4677,"ĠAs":4678,"à®Łà®¤à®Ł":4679,"à¯ģ!\"":4680,"Ġà®Ĩà®£à®µà®®":4681,"à®¤à®¤à®²":4682,"alin":4683,"à®¯à®µà®¤":4684,"ÑĮ":4685,"aus":4686,"ĠâĤ":4687,"à®Ĭà®´":4688,"à®ķà®·":4689,"Ġ1986":4690,"Ġà®Ĵà®®":4691,"ĠTw":4692,"à¥°":4693,"Ġ1985":4694,"anni":4695,"à®ĵà®ª":4696,"à¯ģ,''":4697,"ĠBSNL":4698,"ope":4699,"ĠServ":4700,"Ġà®Ĭà®µ":4701,"à®¯à®®à®³":4702,"à®ķà®£à®Ļ":4703,"eries":4704,"gr":4705,"à®°à®£à®ķ":4706,"Ġà®¨à®²à®ª":4707,"Ġà®ªà®¯à®©à®±":4708,"à®¤à®ķà®²":4709,"xx":4710,"elv":4711,"ĠÂ«":4712,"Ġà®ļà®°à®³à®®":4713,"JP":4714,"æĸ":4715,"IM":4716,"play":4717,"Ġà®¤à®ļà®°":4718,"à®¤à®µà®²":4719,"à®°à®¤à®Ļ":4720,"Ġà®Ĩà®ĥà®ªà®°":4721,"ĠRoom":4722,"à®µà®¤à®°":4723,"ĠEduc":4724,"à®¤à®Łà®¤":4725,"sky":4726,"ĠTO":4727,"DF":4728,"Ġà®®à®©à®¨à®²à®®":4729,"Ġà®¯à®ķ":4730,"Ġà®Ĩà®ļà®©à®¤":4731,"Ġà®ħà®µà®²à®¤":4732,"Ġà®µà®Łà®¨":4733,"lease":4734,"à®ĩà®ŀ":4735,"irector":4736,"ough":4737,"vent":4738,"vid":4739,"CH":4740,"à®°à®´à®ķ":4741,"Ġà®¯à®©":4742,"AK":4743,"Ġà®ķà®°à®ª":4744,"à®Łà®¤à®ķ":4745,"à®ħà®°à®µ":4746,"ĠPar":4747,"Ġà®ħà®¹à®®à®¤":4748,"ĠDo":4749,"Ġà®µà®³à®µ":4750,"Ġ1971":4751,"2002":4752,"oman":4753,"à®¤à®°à®ķà®°":4754,"Ġkill":4755,"ĠLatest":4756,"à¯Ī).":4757,"Ġà®ĩà®ķà®´":4758,"Ġà®¯à®Ł":4759,"ooking":4760,"Ġgovernment":4761,"ava":4762,"ĠBe":4763,"ĠEnglish":4764,"ÙĲ":4765,"murasu":4766,"çłģ":4767,"IV":4768,"val":4769,"à®µà®®à®£":4770,"à®ķà®°à®µà®£":4771,"rish":4772,"Ġà®¤à®°à®Ļ":4773,"å¤©":4774,"anjil":4775,"Ġà®īà®ªà®ķ":4776,"à®¾?.":4777,"obile":4778,"ĠRam":4779,"Â°":4780,"Ġà®ļà®°à®µà®£":4781,"à®ªà®°à®¸":4782,"à®¨à®¯":4783,"EWS":4784,"à®¯à®ļà®°":4785,"à®²à®Łà®ķ":4786,"Ġfirst":4787,"Ġà®īà®£à®µà®³":4788,"Ġà®Ĩà®°à®£":4789,"CC":4790,"Ġcomp":4791,"à®ħà®µà®©à®¤":4792,"Ġà®ļà®©à®¨":4793,"ĠMinister":4794,"other":4795,"à¯Ĥ-":4796,"Ġ2500":4797,"Ġà®ĩà®²à®£":4798,"ms":4799,"Ġà®ļà®®à®£à®°":4800,"à®ıà®¯":4801,".(":4802,"à®¾??":4803,"Ġ750":4804,"á»":4805,"à®³à®¤à®©":4806,"ĠÐ¿":4807,"Ġ.....":4808,"à®©à®®à®Ł":4809,"Ġà®Ĩà®³à®ª":4810,"elf":4811,"ĠKol":4812,"lock":4813,"Ġtime":4814,"à¯į.''":4815,"een":4816,"ĠOr":4817,"ĠTel":4818,"à¯¨":4819,"Ġà®Ĩà®©à®µà®°":4820,"TR":4821,"con":4822,"ren":4823,"à®¤à®¯à®µ":4824,"à®°à®ķà®°":4825,"à®ķà®¹":4826,"No":4827,"à¯¦à¯¦":4828,"Ġz":4829,"à¯ģâĢĻ,":4830,"ĠSc":4831,"ineer":4832,"Ġrel":4833,"ords":4834,"opy":4835,"Ġà®ªà®Łà®²à®®":4836,"ness":4837,"ĠFacebook":4838,"âĢİ":4839,"eel":4840,"CR":4841,"udi":4842,"Ġà®ªà®¯à®°":4843,"ĠAg":4844,"Ġà®ļà®¤à®Ļ":4845,"à®¯à®ľ":4846,"aya":4847,"à®²à®±à®¤":4848,"Ġ1200":4849,"PP":4850,"ĠCan":4851,"ĠSw":4852,"Ġ128":4853,"à¯ĪâĢĮ":4854,"???":4855,"à®¨à®²à®µ":4856,"Ġà®Ĳà®¯à®©":4857,"Ġà®ļà®®à®¯à®ª":4858,"èĤĸ":4859,"à¯ģ?\"":4860,"ounc":4861,"oto":4862,"wn":4863,"à®ĵà®ļ":4864,"Ġbl":4865,"à®ħà®µà®ļ":4866,"emb":4867,"ative":4868,"à®©à®ķà®²":4869,"à®®à®°à®£":4870,"ÑģÑĤ":4871,"Share":4872,"res":4873,"uch":4874,"inamalar":4875,"à®Łà®°à®°":4876,"1996":4877,"à®µà®ķà®©":4878,"Ġà®ıà®ķà®®":4879,"Ġà®ıà®³à®©à®®":4880,"Â¡":4881,"æī":4882,"Ġà®īà®²à®ķà®®à®¯à®®":4883,"\",\"":4884,"stit":4885,"very":4886,"dy":4887,"****************":4888,"à¯ĩ!âĢĿ":4889,"ĠRep":4890,"ĠEducation":4891,"Ġà®°à®ķà®³":4892,"ek":4893,"Ġà®°à®ĥà®ª":4894,"à®ķà®®à®©":4895,"Ġà®¸à®°":4896,"Ġà®ıà®ķà®¤":4897,"Ġà®Ĳà®¯à®Ļ":4898,"Ġà®ªà®¯à®£à®ļ":4899,"ĠÂłĠÂłĠÂłĠÂłĠÂłĠÂłĠÂłĠÂłĠÂłĠÂłĠÂłĠÂłĠÂłĠÂłĠÂłĠÂł":4900,"arri":4901,"Ġà®ıà®µà®²":4902,"à®ħà®µà®ļà®°":4903,"ĠHy":4904,"TH":4905,"Ġà®ķà®²à®ķà®®":4906,"à®²à®µà®°à®¤":4907,"ĠDis":4908,"ency":4909,"âĢ¦..":4910,"ĠSur":4911,"à®£à®¯à®ķ":4912,"Ġà¯Ĭ":4913,"ç½":4914,"à®īà®ķ":4915,"à®İà®¯":4916,"Ex":4917,"ublic":4918,"Ġà®ħà®¤à®Ł":4919,"Filed":4920,"à®ªà®ķà®Ł":4921,"unch":4922,"à®Łà®ķà®ª":4923,"Ġà®¤à®µà®°":4924,"à®īà®Łà®®":4925,"ĠDelhi":4926,"ier":4927,"Ġà®Ĩà®ķà®Ł":4928,"inn":4929,"2003":4930,"ives":4931,"icro":4932,"à®±à®®à®±":4933,"Ġthey":4934,"à®±à®£":4935,"Ġà®īà®£à®°à®²":4936,"Ġà®ĵà®ķà®¸":4937,"à¯ģ!âĢĿ":4938,"aper":4939,"à®µà®¤à®®":4940,"urs":4941,"aint":4942,"à®¾âĢ¦.":4943,"ĠDe":4944,"Ġà®īà®£à®µà®°":4945,"à®Ĵà®ķ":4946,"ium":4947,"à®°à®ķà®ª":4948,"Ġà®©à®°":4949,"iew":4950,"Ġ1947":4951,"à®µà®¤à®²":4952,"atus":4953,")-":4954,"LL":4955,"Ġworld":4956,"ĠMalai":4957,"ica":4958,"à®Ĵà®¯":4959,"angu":4960,"Ġà®ªà®¤à®ŀ":4961,"à®Łà®ķà®©":4962,"wood":4963,"ots":4964,"Ġà®®à®°à®£à®¤à®£":4965,"Ġà®ħà®°à®ļà®µ":4966,"OG":4967,"Â½":4968,"à®©à®²à®®":4969,"Ġà®¤à®Łà®ķà®³":4970,"à®®à®Łà®®":4971,"Ġà®µà®³à®°à®µ":4972,"ĠBl":4973,"à¯įï»¿":4974,"artment":4975,"iversity":4976,"otos":4977,"à®ļà®ļà®°":4978,"va":4979,"à®ķà®²à®°":4980,"à®Łà®ªà®Ļ":4981,"ĠCo":4982,"Ð²":4983,"Ġà®ķà®©à®°à®ķ":4984,"Ġà®®à®±à®µ":4985,"nov":4986,"ril":4987,"à®¯à®¨à®²à®¤":4988,"Ġå¤":4989,"atha":4990,"Ġà®µà®¤à®®":4991,"unn":4992,"à®ķà®ļà®®":4993,"Ġiss":4994,"ĠØ§ÙĦ":4995,"à¨":4996,"pro":4997,"1980":4998,"Ġ1948":4999,"ukk":5000,"ACHER":5001,"Ġ1981":5002,"Ġafter":5003,"Ø¯":5004,"ĠSub":5005,"à®©à®¤à®©":5006,"Ġà®µà®³à®ª":5007,"pur":5008,"Ġà®ĩà®Łà®ķ":5009,"ĠĠĠĠĠĠĠĠĠ":5010,"ÙĴ":5011,"Ġà®ªà®Łà®ªà®Łà®ª":5012,"Ġà®ķà®µà®©à®ķ":5013,"Ġà®µà®²à®ķ":5014,"Ġà®İà®©à®°":5015,"à¯į*":5016,"ĠSing":5017,"à®ķà®°à®ķ":5018,"Øª":5019,"à®²à®ķà®ª":5020,"à®ķà®µà®¨":5021,"à¯ģâĢ¦âĢĿ":5022,"Ġour":5023,"oth":5024,"ased":5025,"Ġà®Ĩà®µà®¤à®±":5026,"à®ªà®¯à®°":5027,"Ġà®¤à®ķà®©à®®":5028,"Ġ360":5029,"ika":5030,"Wel":5031,"oz":5032,"à®²à®ķà®µ":5033,"ĠTR":5034,"Ġ170":5035,"Ġà®ħà®³à®µà®±":5036,"ĠIm":5037,"à®¯à®ļà®®":5038,"ager":5039,"ç½ĳ":5040,"à®Łà®²à®µ":5041,"ize":5042,"à®¤à®ķà®ļ":5043,"à®°à®ĥà®ª":5044,"Ġà®īà®²à®ķà®ļ":5045,"ible":5046,"à®¤à®ķà®µà®²à®±":5047,"Ġ1982":5048,"à®²à®°à®¤":5049,"fo":5050,"Ġà®ļà®²à®©à®®":5051,"à®´à®µà®°":5052,"à®¤à®®à®ķ":5053,"alm":5054,"Ġà®ľà®ķà®¤":5055,"à®ħà®±à®®":5056,"ayan":5057,"Ġfree":5058,"1991":5059,"à®²à®¤à®©à®¤":5060,"get":5061,"Ġ370":5062,"ĠBed":5063,"Ġkathai":5064,"à¯į,,":5065,"Ġvis":5066,"à¯ĭ\"":5067,"Ġà®ĩà®¯à®°":5068,"Ġ---":5069,"umber":5070,"à®Łà®®à®Ł":5071,"à¯Ĭà®¿":5072,"Ġà®ħà®²à®±à®²":5073,"rict":5074,"ĠPart":5075,"à®°à®¤à®ļ":5076,"Ġà®¨à®¯à®®":5077,"orth":5078,"ys":5079,"Ġà®Ĩà®ķà®£":5080,"à®ıà®Ł":5081,"ĠPre":5082,"estion":5083,"ator":5084,"idhi":5085,"à®ªà®ķà®±":5086,"ĠFirst":5087,"à®®à®¯à®ķ":5088,"ĠBank":5089,"hu":5090,"Ġ1972":5091,"%)":5092,"Ġà®°à®®à®²":5093,"à®ķà®ªà®²à®®":5094,"à®Ĳà®®":5095,"à®Ĭà®Łà®ķà®Ļ":5096,"à®ľà®Ļ":5097,"Ġshould":5098,"à®¾...?":5099,"çī¹":5100,"à®µà®²à®Ļ":5101,"ĠBath":5102,"à®ªà®°à®ªà®°à®ª":5103,"ĠColombo":5104,"Ġ6000":5105,"ĠStud":5106,"This":5107,"âĢĭâĢĭ":5108,"à®ªà®µà®°à®¤":5109,"Ġsec":5110,"ï¿½ï¿½ï¿½ï¿½ï¿½ï¿½":5111,"Ġà®ļà®°à®£à®®":5112,"à®ļà®®à®®":5113,"Ġà®ļà®ķà®µ":5114,"à®Łà®©à®µ":5115,"ĠMalaimurasu":5116,"à®®à®¨à®ªà®°":5117,"ĠSoor":5118,"Ġà®¤à®³à®ª":5119,"cont":5120,"ely":5121,"Ġà®¯à®¨":5122,"à¯ģ}":5123,"usiness":5124,"Ġ102":5125,"à®©à®µà®Ļ":5126,"Ġà®ªà®Łà®²":5127,"à®ªà®Łà®Ł":5128,"Ġà®Ĩà®Łà®µ":5129,"Ġà®īà®²à®ķà®¨":5130,"á¾":5131,"rid":5132,"ift":5133,"unan":5134,"ought":5135,"IP":5136,"à®©à®°à®¤":5137,"eri":5138,"ote":5139,"à®ħà®°à®ª":5140,"Ġà®Īà®°à®¤":5141,"çĶ":5142,"Ġà®ĩà®³à®ķ":5143,"à®ħà®·":5144,"à¯Ī}":5145,"à®Ĩà®¤à®²":5146,"Ġà®¤à®Łà®¤":5147,"Ġ1978":5148,"ĠMuslim":5149,"la":5150,"à®²à®ķà®©":5151,"ĠIt":5152,"AY":5153,"uss":5154,"à®°à®µà®£à®ķ":5155,"Ġà®īà®²à®ķà®Ļ":5156,"Ġà®īà®µà®ķ":5157,"ĠTH":5158,"aik":5159,"âĢ¦âĢ¦âĢ¦âĢ¦":5160,"ami":5161,"à®īà®Łà®±":5162,"aka":5163,"red":5164,"Mean":5165,"Ġà®ĩà®ļà®ķ":5166,"ĠComput":5167,"ield":5168,"net":5169,"Ġà®¨à®®à®ļ":5170,"à®©à®³à®µ":5171,"à®ķà®¨à®²":5172,"à®ķà®³à®ŀ":5173,"ĠStory":5174,"à®ħà®°à®Ļ":5175,"ÃŃ":5176,"à®ķà®µà®ļà®®":5177,"Ġfriend":5178,"à®©à®³":5179,"ather":5180,"ux":5181,"ĠColle":5182,"Ġà®ļà®°à®³":5183,"fl":5184,"ĠSec":5185,"ĠPrice":5186,"Pro":5187,"Ġà®Īà®·":5188,"DP":5189,"indows":5190,"ibr":5191,"à®ķà®ļà®Ļ":5192,"Ġsupport":5193,"Ġass":5194,"à®¿âĢĭ":5195,"ĠBold":5196,"EM":5197,"à®²à®¤à®©":5198,"à¯ģ,\"":5199,"00000000":5200,"à®ķà®®à®°":5201,"ĠThis":5202,"1999":5203,"ured":5204,"Ġna":5205,"Í¼":5206,"Ġà®ķà®¯à®²":5207,"à®¾âĢĻ,":5208,"Ġà®ªà®²à®¸":5209,"ä»":5210,"Ġ103":5211,"TML":5212,"gram":5213,"à®Łà®¤à®²":5214,"à¯ģ..!!":5215,"à®¿',":5216,"ser":5217,"à®ªà®°à®ķ":5218,"Ġ1956":5219,"Ġcall":5220,"à®ħà®°à®£":5221,"à¯į+":5222,"Ġmeet":5223,"Ġ1967":5224,"vest":5225,"Ġï¿½ï¿½":5226,"ĠMy":5227,"ĠDownload":5228,"à¯ĩâĢĮ":5229,"Ġà¯į":5230,"120":5231,"ĠBreaking":5232,"à®®à®¤à®Ļ":5233,"ĠMed":5234,"Ġà®ħà®ķà®²à®¤":5235,"Ġà®µà®¯à®ª":5236,"ival":5237,"ocial":5238,"á¹":5239,"ĠKamakathaikal":5240,"Ġ).":5241,"Meanings":5242,"ĠHigh":5243,"à¯ĩ?\"":5244,"ury":5245,"led":5246,"à®°à®ªà®°":5247,"Ġfilm":5248,"à®ĥà®®":5249,"Ġarrested":5250,"Ġà®®à®²à®Ł":5251,"à¯į..âĢĿ":5252,"ret":5253,"Ġ119":5254,"urrent":5255,"',":5256,"à®¤à®°à®ļà®©":5257,"Ġà®ªà®¯à®£à®ķ":5258,"à¯į|":5259,"OW":5260,"Ġà®ªà®°à®®à®ķ":5261,"ĠMah":5262,"war":5263,"ä¹":5264,"ĠIslam":5265,"COM":5266,"à®ĩà®±à®ķ":5267,"umbai":5268,"à®ļà®©à®ķ":5269,"itor":5270,"!\"":5271,"roid":5272,"ĠRec":5273,"Ġà®ķà®£à®µ":5274,"Ġà®µà®Łà®ªà®´à®©":5275,"à®£à®µà®¤":5276,"ĠðŁĺ":5277,"Ġà®®à®²à®ª":5278,"à®¯à®²à®£":5279,"Ġà®°à®£à®¤":5280,"ve":5281,"à®ªà®°à®²":5282,"à®°à®ķà®²":5283,"Ġplay":5284,"à¯į!)":5285,"ized":5286,"ĠSal":5287,"Ġ}":5288,"à¯ĩ!)":5289,"à®ľà®¯à®ļ":5290,"trl":5291,"à¯ģâĢĿ.":5292,"à¯ģâĢĵ":5293,"à®¯à®µà®´":5294,"ĠBoldsky":5295,"ump":5296,"imes":5297,"ams":5298,"web":5299,"ision":5300,"youtube":5301,"ĠInter":5302,"à®³à®¤à®±":5303,"à®Łà®°à®Ł":5304,"Ġà®µà®Łà®®à®°":5305,"Ã´":5306,"Ġà®İà®©à®ªà®¤":5307,"à®¨à®ļ":5308,"Ġà®¤à®Łà®¯à®Ļ":5309,"ason":5310,"dis":5311,"æ¸":5312,"à¯ģâĢ¦!":5313,"à®īà®²à®ķà®ª":5314,"à¯ĭà¯į":5315,"à¯ģ......":5316,"à®£à®°à®¤":5317,"CE":5318,"yn":5319,"reet":5320,"Ġac":5321,"igital":5322,"Ġ:-))":5323,"à®ªà®µà®ª":5324,"à®Łà®¯à®ª":5325,"ices":5326,"ĠAir":5327,"ĠPort":5328,"Ġ112":5329,"à®¤à®±à®Ł":5330,"à®ķà®µà®©à®®":5331,"Ġà®®à®©à®ħà®´":5332,"Ġka":5333,"Ġà®ķà®´à®©":5334,"ustom":5335,"Ġentry":5336,"Ġ115":5337,"Ġ!!!":5338,"à¯į?.":5339,"Ò»":5340,"Ġà®ªà®°à®Ļ":5341,"ĠGeneral":5342,"Ġà®ĵà®©à®°":5343,"ĠHe":5344,"à®ľà®Ł":5345,"ĠEngineer":5346,"Ġà®ħà®Łà®Ł":5347,"TC":5348,"Ġà®ĩà®©à®¨":5349,"Ġdist":5350,"Wh":5351,"ities":5352,"ĠWe":5353,"iles":5354,"ource":5355,"ricket":5356,"à®ªà®°à®£":5357,"ATE":5358,"osp":5359,"Ġà®ªà®°à®²":5360,"Ã³":5361,"å¿":5362,"AV":5363,"Ġ1975":5364,"Ġà®Ĳà®Ļ":5365,"à®ĩà®©à®ª":5366,"Ġrecip":5367,"Ġà®Ĩà®µà®©":5368,"aksh":5369,"1987":5370,"à®ļà®ļà®ª":5371,"1983":5372,"Ġà®¸à®¤":5373,"Ġbeaut":5374,"ĠÐ²":5375,"ĠChand":5376,"Ġà®ħà®µà®¨à®®":5377,"etail":5378,"ature":5379,"ĠWeb":5380,"à¯ģ.//":5381,"avi":5382,"à®¯à®©à®Ļ":5383,"ĠBlog":5384,"***":5385,"ena":5386,"Ġà®ħà®®à®°à®ļ":5387,"Ġtag":5388,"Ġà®ľà®¯":5389,"Ġà®µà®Łà®ªà®ķ":5390,"Ġ_":5391,"ĠIl":5392,"erg":5393,"à®®à®ļà®Ļ":5394,"Ġso":5395,"Ġà®Ĭà®°à®Łà®Ļ":5396,"thir":5397,"istory":5398,":)":5399,"Ġdel":5400,"Ġà®ħà®¤à®©à®Ł":5401,"à®ħà®¤à®©à®Ł":5402,"à¯įà¯Ĩ":5403,"Ġ1979":5404,"à¯§":5405,"à®ķà®µà®¤à®°":5406,"rib":5407,"Ġbook":5408,"çİ":5409,"ands":5410,"Ġsub":5411,"thing":5412,"ĠCM":5413,"Ġà®ķà®°à®µ":5414,"de":5415,"ĠÎ":5416,"Ġget":5417,"çļ":5418,"Ð¼":5419,"ular":5420,"Ġà®ħà®´à®ķà®ª":5421,"uck":5422,"asi":5423,"å¥":5424,"ĠMe":5425,"à®ħà®°à®ļà®°":5426,"à®ħà®®à®²":5427,"Ġà®¸à®¹":5428,"à¯ĩ!\"":5429,"aug":5430,"Â¤":5431,"ilank":5432,"ĠDay":5433,"Ġà®īà®ªà®µ":5434,"ati":5435,"à¯į=":5436,"ille":5437,"ese":5438,"à®¿:-":5439,"irth":5440,"Ġ106":5441,"ĠGu":5442,"formation":5443,"mi":5444,"Im":5445,"à®°à®ªà®²à®®à®Ł":5446,"Ġyears":5447,"à¯Ģ!":5448,"à¯į.âĢĻâĢĻ":5449,"ype":5450,"à®ķà®£à®ªà®¤":5451,"cience":5452,"à®°à®µà®Ļ":5453,"Ġà®ķà®ĥà®ª":5454,"Ġpar":5455,"à®ĩà®³à®µà®°à®ļ":5456,"à®īà®¤à®¯à®ķ":5457,"ainet":5458,"Ġà®¹à®Ļ":5459,"Ġ1976":5460,"anam":5461,"unanidhi":5462,"à®ķà®©à®ķ":5463,"ilankainet":5464,"por":5465,"à®ļà®ķà®²":5466,"Ġgirl":5467,"à®¤à®±à®²":5468,"Ġ113":5469,"Ùı":5470,"Ġtrans":5471,"Ġ122":5472,"Ġdr":5473,"Ñĩ":5474,"post":5475,"Ġfr":5476,"à®Łà®®à®°":5477,"à®Ĵà®£":5478,"OO":5479,"Ġà®ķà®²à®®":5480,"Ġà®·à®ª":5481,"Ġà®ªà®°à®µà®ļà®¤":5482,"à®°à®³à®µ":5483,"à®¹à®ľ":5484,"à®¯à®µà®Ļ":5485,"Ġann":5486,"ship":5487,"Ġhigh":5488,"à®ļà®®à®¨":5489,"ĠAN":5490,"Ġ107":5491,"Ġà®¯à®Ļ":5492,"idd":5493,"ĠCar":5494,"à®¿).":5495,"Ġback":5496,"æīĭ":5497,"oud":5498,"à®°à®¤à®ķ":5499,"eran":5500,"ptions":5501,"à¯ĪâĢĻ,":5502,"Ġany":5503,"Ġvs":5504,"Raj":5505,"à¯į!''":5506,"TS":5507,"EO":5508,"à¯ģ]":5509,"à®ªà®ľ":5510,"à®²à®±à®®":5511,"ĠOrig":5512,"ongress":5513,"sex":5514,"à®°à®ķà®µ":5515,"âĢĿ,":5516,"ĠDes":5517,"IG":5518,"Ġ118":5519,"Ġpolice":5520,"Â®":5521,"à®ħà®µà®³à®¤":5522,"à®ľà®²à®Ł":5523,"Ġà®ħà®±à®µà®´":5524,"Ġ117":5525,"Ġà®ķà®µà®°à®ª":5526,"auvery":5527,"à®³à®µà®±":5528,"à®Īà®Ī":5529,"Sc":5530,"Ad":5531,"Ġà°":5532,"à¯ģâĢĿ,":5533,"à®ªà®¯à®®":5534,"Ġà®°à®£à®µà®ķ":5535,"App":5536,"à®¤à®±à®¤":5537,"Ġà®¤à®°à®®à®±":5538,"Ġvar":5539,"Ġï":5540,"elop":5541,"ĠÑģ":5542,"Ġà®µà®Łà®¤":5543,"à®¤à®°à®£à®®":5544,"Ġà®ľà®¯à®¨":5545,"1998":5546,"Ġà®Ĩà®µà®Ł":5547,"read":5548,"à®°à®·à®°":5549,"à®°à®µà®²":5550,"Ġà®Łà®²":5551,"à®°à®ķà®£à®¤":5552,"Ġà®ħà®®à®°à®©":5553,"Ġ220":5554,"Ġà®¤à®ķà®µ":5555,":-":5556,"Ġrem":5557,"ĠAD":5558,"à®ħà®Łà®Ł":5559,"Ġà®ĵà®´":5560,"à®ķà®ľà®©":5561,"era":5562,"ountain":5563,"à®ľà®ķà®®":5564,"à®³à®³":5565,"Ġlife":5566,".\"":5567,"åĿ":5568,"Ġmay":5569,"ĠLocal":5570,"Ġà®¯à®ª":5571,"nan":5572,"}}":5573,"Ð¾Ð²":5574,"ograph":5575,"à®¹à®Ł":5576,"âĢ¦âĢĿ":5577,"ĠCourt":5578,"gov":5579,"à®¹à®°à®©":5580,"Ġà®İà®µà®±":5581,"ĠHot":5582,"à®ļà®ªà®¤":5583,"Ġ240":5584,"otes":5585,"ĠTNPSC":5586,"Ġà®ªà®£à®¯à®®":5587,"à®¿âĢĻ.":5588,"à®ĥà®µ":5589,"à®³à®°à®Ļ":5590,"Ġà®®à®²à®ķ":5591,"zh":5592,"Ġà®ħà®µà®ª":5593,"Ġà®ħà®²à®ļà®²":5594,"als":5595,"..!":5596,"à®¤à®¯à®Ļ":5597,"oung":5598,"ikanth":5599,"Ġed":5600,"à®ĩà®²à®µà®ļ":5601,",''":5602,"ym":5603,"à®®à®±à®¨":5604,"Ġà®ħà®°à®ļà®ķ":5605,"Ġcolle":5606,"Ġà®ªà®ķà®°":5607,"Ġ650":5608,"à®¨à®Łà®ķ":5609,"Ġà®Łà®Ļ":5610,"Ġà®ħà®Łà®²":5611,"ATION":5612,"ĠHTML":5613,"ĠComp":5614,"åĲ":5615,"à®Łà®°à®ļ":5616,"çļĦ":5617,"à®¯à®µà®ŀ":5618,"Ġknow":5619,"ĠÂ½":5620,"Ġ1974":5621,"à¯ĪâĢĻâĢĻ":5622,"ras":5623,"athy":5624,"ibrary":5625,"PM":5626,"ÐµÐ½":5627,"©¬":5628,"à®ķà®Łà®ª":5629,"Ġà®ľà®²à®¤":5630,"andhi":5631,"my":5632,"Ġà®°à®®à®´":5633,"color":5634,"à¯ģâĢĻ.":5635,"Ġits":5636,"AB":5637,"Ġà®®à®©à®¸":5638,"comm":5639,"ĠSiv":5640,"ours":5641,"Ġà®ħà®°à®µà®ķ":5642,"ility":5643,"amily":5644,"ĠFree":5645,"ja":5646,"Ġ),":5647,"Ġà®ĩà®³à®µà®¯à®¤":5648,"alam":5649,"ĠSm":5650,"lywood":5651,"lon":5652,"Ġà®İà®®à®°":5653,"elp":5654,"Ġà®®à®£à®±":5655,"Ġà®¤à®²à®µ":5656,"ĠHow":5657,"ĠHall":5658,"Ġwomen":5659,"Un":5660,"à®°à®ªà®²à®ª":5661,"Ġà®īà®Łà®²à®®":5662,"Ġbr":5663,"à®®à®°à®£à®®":5664,"1970":5665,"ĠAtt":5666,"Ġcent":5667,"Ġà®Ĩà®©à®ª":5668,"Ġà®®à®ĥ":5669,"à®ªà®£à®ķ":5670,"à®°à®£à®°":5671,"Ġà®ļà®¤à®®à®Ł":5672,"illage":5673,"Ø³":5674,"Ġà®Ĩà®¤à®®":5675,"ification":5676,"Ġà®ļà®°à®µà®£à®ª":5677,"ks":5678,"ithi":5679,"Ġ175":5680,"à®¯à®©à®¤":5681,"å°":5682,"Ġà®ķà®¤à®°":5683,"Ġ142":5684,"ĠTEACHER":5685,"à®ĩà®´":5686,"than":5687,"uman":5688,"ĠMumbai":5689,"ĠBy":5690,"Online":5691,"Ãµ":5692,"à®ħà®¹":5693,"ĠâĢİ":5694,"vir":5695,"Ġ124":5696,"---":5697,"Ġwebsite":5698,"Ġà®ĩà®µà®©à®¤":5699,"à®µà®°à®£":5700,"Ġà®²à®®":5701,"Ġdec":5702,"aby":5703,"Ġcond":5704,"rilanka":5705,"ĠAccount":5706,"Ġà®¨à®Łà®©à®ķ":5707,"Ġà®¨à®ķà®®":5708,"Ġpic":5709,"Ġà®ļà®ķà®²à®°":5710,"arkar":5711,"à®²à®Łà®Ļ":5712,"ror":5713,"Ġà®Ĩà®³à®µ":5714,"ĠGovernment":5715,"aster":5716,"ĠIslamic":5717,"à®¿à®¾à®¿":5718,"Ġà®īà®¤à®µà®µ":5719,"Ġvery":5720,"à®µà®±à®Ł":5721,"Ġ111":5722,"ful":5723,"Ġà®ķà®£à®£":5724,"à®ķà®Łà®ķà®®":5725,"Ġtra":5726,"News":5727,"à®©à®ķà®®":5728,"Ġà®ħà®ķà®°à®®":5729,"ĠAh":5730,"ĠTeach":5731,"oard":5732,"à®Ĭà®Łà®ķà®µ":5733,"à®Ĩà®Ĩà®Ĩà®Ĩ":5734,"à¯ĨâĢĮ":5735,"ĠTra":5736,"anguage":5737,"inikanth":5738,"ety":5739,"Ġà®ķà®°à®¨":5740,"ĠSon":5741,"à¯Ī!!":5742,"Ġstories":5743,"ĠĠĠĠĠĠĠĠĠĠĠĠĠĠĠĠĠĠĠĠĠĠĠĠĠĠĠĠĠĠĠĠĠĠĠĠĠĠĠĠĠ":5744,"à®®à®ķà®°à®®":5745,"Ġà®¨à®ķà®°à®ļ":5746,"ĠOriginal":5747,"Ġchild":5748,"annel":5749,"à¯ĪâĢ¦.":5750,"ĠModi":5751,"UM":5752,"aks":5753,"Ġ000":5754,"ĠHome":5755,"à±į":5756,"1989":5757,"uthor":5758,"sc":5759,"à®ķà®®à®Ļ":5760,"ĠâĢľâĢĿ":5761,"Ġ109":5762,"Cl":5763,"ĠGold":5764,"à®®à®ļà®¨":5765,"Ġà®Ĩà®ļà®©à®®":5766,"ĠPage":5767,"cept":5768,"à¯Ī]":5769,"Ġcourt":5770,"Ġwhen":5771,"ĠSongs":5772,"itical":5773,"Ġlead":5774,"Ġà®ªà®ļà®²":5775,"Ã¤Ã¤":5776,"ho":5777,"à®¿âĢ¦.":5778,"SP":5779,"owers":5780,"Ġkar":5781,"Leave":5782,"Ġprotest":5783,"ĠMur":5784,"ĠNational":5785,"Ġ1969":5786,"Ġà®Ĩà®ľ":5787,"Ġshe":5788,"ĠĠĠĠĠĠĠĠĠĠĠĠĠĠĠĠĠĠĠĠĠĠĠĠĠĠĠĠĠĠĠĠĠĠĠĠĠĠĠĠĠĠĠĠĠĠĠĠĠĠĠ":5789,"akesari":5790,"à®²à®µà®°à®Ļ":5791,"à®°à®ķà®ļ":5792,"ĠInternational":5793,"à®°à®¤à®µà®°":5794,"ĠIT":5795,"?âĢĻ":5796,"eh":5797,"à¯ģ',":5798,"Ð´":5799,"itha":5800,"à®°à®ķà®Łà®©à®¤":5801,"Ġà®µà®°à®Ļ":5802,"à®µà®ķà®ª":5803,"Ġ1800":5804,"ĠAI":5805,"à®ıà®£":5806,"ĠOF":5807,"à®¤à®µà®ª":5808,"à¯į...'":5809,"ĠSooriyan":5810,"ĠSchool":5811,"Ġupd":5812,"Ø¨":5813,"à¯ĩâĢ¦.":5814,"à®Ĳà®¤à®°":5815,"Ġ:(":5816,"Ġhere":5817,"à®Łà®Łà®ķ":5818,"uram":5819,"akh":5820,"chi":5821,"agam":5822,"angalore":5823,"Ġà®®à®¯à®ª":5824,"itiz":5825,"ĠTechn":5826,"Ġà®īà®²à®ķà®±":5827,"Ġ1930":5828,"ense":5829,"Ã£":5830,"à®ªà®Łà®±":5831,"à®ªà®©à®Ļ":5832,"Ġcount":5833,"Ġà®ıà®®à®©":5834,"ĠBest":5835,"à®¤à®ªà®¤":5836,"UP":5837,"à¯į.-":5838,"Ġà®ĵà®Łà®¤":5839,"Ġ1920":5840,"Ġà®ľà®¯à®µà®°":5841,"Ġweek":5842,"Ġline":5843,"KS":5844,"ports":5845,"à®¤à®®à®³":5846,"ooth":5847,"à®¯à®ķà®Ļ":5848,"back":5849,"à®İà®ŀ":5850,"ĠPres":5851,"Ġsome":5852,"à®īà®³à®µ":5853,"Ġsong":5854,"Ġ1965":5855,"à¯į>":5856,"ĠJun":5857,"Ġà®ªà®´à®ļà®ķ":5858,"Ġà®īà®ªà®ļ":5859,"à®ħà®°à®ļà®©":5860,"Ġred":5861,"Re":5862,"Ġà®·à®Ł":5863,"igar":5864,"à¯ĤâĢĻ":5865,"à¯į,'":5866,"Ġà®Īà®¤":5867,"Ġint":5868,"Ġà®®à®©à®°":5869,"Ġ126":5870,"à®°à®£à®µ":5871,"à¯Ī..!":5872,"ĠðŁĻ":5873,"cess":5874,"à®¾/":5875,"à¯į--":5876,"Ġdoes":5877,"amm":5878,"à®ħà®µà®¤":5879,"à®±à®µà®ķ":5880,"à®¯à®°à®³à®µ":5881,"Ġà®Īà®°à®²":5882,"itchen":5883,"å·":5884,"ude":5885,"Ġstart":5886,"ĠAut":5887,"ospital":5888,"à®µà®©à®ķ":5889,"Ġà®ľà®¹":5890,"Ġà®ªà®°à®ŀ":5891,"yric":5892,"ĠII":5893,"Ġ234":5894,"Ġà®Ĩà®£à®µà®¤":5895,"Ġwithout":5896,"yc":5897,"à®µà®®à®Ł":5898,"eli":5899,"pa":5900,"ĠTEACHERS":5901,"ract":5902,"à®¿à¯Ī":5903,"à®ĵà®ĵ":5904,"Ġ........":5905,"Ġà®ªà®²à®ļ":5906,"Ġà®¨à®²à®ļ":5907,"à®ħà®Łà®ķ":5908,"ffect":5909,"âĢĮâĢĮ":5910,"Ġreg":5911,"Ġ.,":5912,"ĠFrid":5913,"à¤°":5914,"...\"":5915,"1995":5916,"Ah":5917,"Ġ123":5918,"à®ļà®®à®ķ":5919,"Ġ</":5920,"ĠOf":5921,"à¯į):":5922,"Ġà®ĵà®®à®¨":5923,"Ġ135":5924,"à®·à®£à®®":5925,"Ġcooking":5926,"à¯ģ?âĢĻ":5927,"ĠTrans":5928,"Ġco":5929,"à®±à®ķà®Ł":5930,"estival":5931,"ke":5932,"Ġà®¤à®°à®ļ":5933,"ever":5934,"ãĢģ":5935,"ĠPark":5936,"à®ªà®³à®ª":5937,"Ġà®īà®¤à®µà®ķ":5938,"à¥¤":5939,"Ġà®ķà®©à®²":5940,"1984":5941,"iber":5942,"ettings":5943,"Ġà®ļà®©à®®":5944,"Ġ1962":5945,"nes":5946,"river":5947,"ior":5948,"108":5949,"à®¤à®®à®Ļ":5950,"à®µà®ľ":5951,"Ġà®ļà®°à®ļ":5952,"ton":5953,"ĠTop":5954,"Ġà®®à®²à®¤":5955,"ENT":5956,"ĠWhat":5957,"à¯ģâĢĭ":5958,"vers":5959,"Ġà®¯à®°":5960,"editions":5961,"Ġhero":5962,"ĠBJP":5963,"##":5964,"ocum":5965,"elect":5966,"Ġthere":5967,"ĠĠĠĠĠĠĠĠĠĠĠĠĠĠĠĠĠ":5968,"à¯į.*":5969,"Ġà®®à®°à®ķà®¤":5970,"Ġà®Ĩà®ķà®ļ":5971,"Ġnear":5972,"1992":5973,"à®Ĩà®¤à®°à®µ":5974,"Ġonly":5975,"ï»¿ï»¿":5976,"ven":5977,"SC":5978,"à®®à®°à®£à®¤":5979,"derabad":5980,"Ġà®¯à®®à®©":5981,"clus":5982,"à®¤à®¯à®ķ":5983,"gn":5984,"Ñħ":5985,"ĠâĤ¹":5986,"rive":5987,"Ġ??":5988,"ĠVirakesari":5989,"Ġà®µà®¤à®Ļ":5990,"Ġà®Ĩà®´à®ª":5991,"Ġà®³à®¤":5992,"ĠMLA":5993,"Pl":5994,"ĠVis":5995,"duct":5996,"Ġexam":5997,"Ġissue":5998,"âĢĻ.":5999,"à®Ĭà®Ĭ":6000,"Ġà®®à®©à®µà®°":6001,"Ġactress":6002,"ird":6003,"à®ĩà®¤à®©à®Ł":6004,"illion":6005,"Ġà®®à®ķà®®":6006,"å½©ç¥":6007,"Ġgreat":6008,"Ġindia":6009,"à®ıà®ı":6010,"ĠSE":6011,"ional":6012,"Ġcar":6013,"Ġopen":6014,"Vijay":6015,"word":6016,"Ġ116":6017,"à¯įâĢ¦âĢ¦":6018,"SL":6019,"Ġà®¸à®ķ":6020,"Ġwhich":6021,"ster":6022,"Ġà®¨à®¯à®µà®ŀ":6023,"ll":6024,"ĠBh":6025,"Ġ2021":6026,"lear":6027,"Ġà®Ĭà®ļà®²":6028,"ĠKerala":6029,"Ġà®µà®²à®¯à®®":6030,"undai":6031,"Ġà®ĩà®ĥà®¤":6032,"Ġà®®à®ķà®ľà®°":6033,"1997":6034,"TI":6035,"Ä±":6036,"à®²à®®à®£":6037,"à¯ª":6038,"à®ªà®¯à®²":6039,"ene":6040,"Ġà®Ĩà®©à®µ":6041,"oftw":6042,"à¯Ģ)":6043,"à®Ĩà®ªà®¤":6044,"1994":6045,"å¼":6046,"Ġà®ķà®³à®©":6047,"Ġdev":6048,"INE":6049,"Ġà®ªà®²à®®à®Łà®Ļ":6050,"Ġet":6051,"180":6052,"ĠAnn":6053,"bal":6054,"td":6055,"ĠList":6056,"unity":6057,"äºº":6058,"ae":6059,"Ġmed":6060,"Ġà®¹à®¸à®©":6061,"ĠName":6062,"àµ":6063,"ĠCor":6064,"à®ĥà®ªà®©":6065,"à®ļà®°à®©":6066,"eeds":6067,"Ġà®ıà®ķà®®à®©à®¤":6068,"Ġà®ħà®µà®ļà®°à®ļ":6069,"ĠTAMIL":6070,"Ġà®ķà®´à®ķà®ª":6071,"unction":6072,"Ġà®İà®©à®±":6073,"à®ľà®ķà®¤":6074,"Te":6075,"à®³à®±à®µ":6076,"Ġà®µà®³à®°à®ķ":6077,"ears":6078,"Ġ1968":6079,"à¯ĩ!!":6080,"à®´à®ķà®ª":6081,"æ¸¯":6082,"rop":6083,"Ġà®®à®³à®®":6084,"ĠChrist":6085,"ustral":6086,"à·":6087,"by":6088,"Ġ114":6089,"à¯ģ..?":6090,"ĠUN":6091,"à®°à®®à®°":6092,"indu":6093,"Ġ1957":6094,"Ġfound":6095,"à®¿..!":6096,"Ġpass":6097,"ĠMB":6098,"ĠAR":6099,"abels":6100,"ĠâĢĭâĢĭ":6101,"Ã¶":6102,"à¯ģà¯Ī":6103,"à®¯à®µà®ļà®®":6104,"æĬ":6105,"à¯į,âĢĻ":6106,"ĠContent":6107,"Ġ2022":6108,"125":6109,"Net":6110,"atic":6111,"à¯į...âĢĿ":6112,"Ġà®µà®©à®ľ":6113,"Ed":6114,"Ġà®®à®©à®®à®ķ":6115,"ĠÐ½":6116,"enu":6117,"¦Ļ":6118,"Tr":6119,"à®¯à®£à®°":6120,"Ġà®¤à®µà®ļ":6121,"istan":6122,"..?":6123,"à®ķà®©à®ļ":6124,"à®£à®®à®¯à®®":6125,"ĠHealth":6126,"Ġ(+":6127,"Ġà®°à®ķà®¤":6128,"OC":6129,"Ġà®Ĵà®³à®µ":6130,"ĠRed":6131,"å¹":6132,"etwork":6133,"Bigg":6134,"à®°à®ķà®ķ":6135,"Ġà®ĩà®²à®µà®ļà®Ļ":6136,"Ġkamakathaikal":6137,"Ġà®ĵà®¹":6138,"Ġà®²à®ļ":6139,"ĠBangalore":6140,"display":6141,"à®ķà®©à®°":6142,"à®³à®ķà®°":6143,"à®¾?''":6144,"iful":6145,"Ġother":6146,"ä¸Ģ":6147,"390":6148,"à®ļà®¨à®²":6149,"ela":6150,"ĠSch":6151,"Ġsur":6152,"Ġà®¨à®²à®µ":6153,"erc":6154,"ĠHD":6155,"ĠForm":6156,"è®":6157,"à®¿!!":6158,"Â´":6159,"ĠPolice":6160,"à®ľà®¯à®µ":6161,"à¯į!.":6162,"Ġà®ĩà®Łà®µ":6163,"Ġche":6164,"1993":6165,"ĠLeave":6166,"à¯Ģà¯į":6167,"Ġschool":6168,"Ġbut":6169,"ĠEm":6170,"the":6171,"Ġteam":6172,"Ġà®īà®¤à®µà®²":6173,"Ġà®ªà®°à®¤à®¨":6174,"Ġ\\":6175,"à®¯à®´à®ķà®©":6176,"ĠĠĠĠĠ":6177,"ĠDMK":6178,"à¯ģâĢį":6179,"Ġdem":6180,"Ġrecipes":6181,"ination":6182,"ii":6183,"ä¼":6184,"ĠAc":6185,"Ġgood":6186,"Ġà®¤à®·":6187,"à®ĩà®©à®µ":6188,"à®®à®Łà®¤":6189,"olution":6190,"à®ļà®®à®¯":6191,"Ġchennai":6192,"Ġà®ķà®²à®©":6193,"å½©ç¥¨":6194,"Ġà®Ĳà®ľ":6195,"Ġname":6196,"à®¤à®°à®²":6197,"Ġsee":6198,"ding":6199,"à®²à®Łà®®":6200,"à¯ģ:âĢĵ":6201,"rah":6202,"Ġmus":6203,"Ġà®µà®¯à®¨":6204,"Ġwhat":6205,"Tube":6206,"Ġlove":6207,"ðŁĳ":6208,"Ġà®µà®²à®¯":6209,"iter":6210,"anniOnline":6211,"LE":6212,"status":6213,"Ġsl":6214,"cription":6215,"à¯į.......":6216,"ament":6217,"à®ªà®±à®ķ":6218,"Ġà®ļà®ķà®²à®¤":6219,"Ġcons":6220,"ĠRich":6221,"ĠDigital":6222,"ĠMag":6223,"ĠSystem":6224,"à¶":6225,"à®¯à®²à®µ":6226,"à¯ĢâĢĻ":6227,"ones":6228,"style":6229,"empl":6230,"Ġap":6231,"à®īà®²à®ķà®³à®µ":6232,"Ġmountain":6233,"ĠBr":6234,"ï¿½ï¿½ï¿½ï¿½ï¿½ï¿½ï¿½ï¿½":6235,"à®¯à®µà®ķ":6236,"Ġ1945":6237,"Ġhapp":6238,"ling":6239,"à¯ģ.,":6240,"Ġà®ĵà®²à®®":6241,"Ġà®®à®±à®µà®°":6242,"Ġ230":6243,"Ġà®¨à®ķà®°à®µ":6244,"________________":6245,"110":6246,"ĠUniversity":6247,"agement":6248,"ĠOffice":6249,"à®İà®®à®ķ":6250,"à®²à®ļà®®à®¯à®®":6251,"Ġà®ĵà®°à®£":6252,"ĠDinamalar":6253,"ĠKathai":6254,"kata":6255,"à®ļà®ľ":6256,"alle":6257,"Ġà®Ķà®µ":6258,"Chennai":6259,"Ġ->":6260,"ĠÐ¸":6261,"ino":6262,"Ġav":6263,"à®ĥà®ĥ":6264,"à®ªà®¤à®°":6265,"Ġà®ħà®´à®ķà®©":6266,"ĠKamal":6267,"oftware":6268,"ific":6269,"à®²à®¯à®©":6270,"Ġà®Ĳà®¯à®¤":6271,"amiz":6272,"ĠFeat":6273,"ĠService":6274,"Ġhim":6275,"à®ªà®°à®ļà®©":6276,"Ġà®µà®Łà®®à®¤":6277,"ĠHyderabad":6278,"))))":6279,"à®£à®µà®®":6280,"Ġthose":6281,"Ġà®¨à®Łà®©à®Ļ":6282,"ĠSP":6283,"urity":6284,"ees":6285,"Ġà®ªà®°à®ķ":6286,"à®ħà®²à®Ļ":6287,"1960":6288,"Ġ1973":6289,"Ġà®µà®¤à®±":6290,"Ġ190":6291,"ĠLive":6292,"Boss":6293,"heeran":6294,"à®µà®ļà®©à®®":6295,"ĠKathiravan":6296,"à®©à®®à®²":6297,"Ġ1940":6298,"Ġthan":6299,"aur":6300,"à®ªà®®à®¯à®®":6301,"ĠKitchen":6302,"user":6303,"Ġclass":6304,"mark":6305,"ĠNE":6306,"Ġinc":6307,"Ġà®ħà®¹à®®à®Ł":6308,"Ġà®ħà®´à®µ":6309,"ĠMarket":6310,"ĠPan":6311,"ĠSouth":6312,"ollow":6313,"à®¨à®ķà®°à®ª":6314,"ĠWed":6315,"ategory":6316,"Ġà®īà®¤à®¯à®ļ":6317,"Ġà®¨à®ķà®¤":6318,"à®ķà®©à®©":6319,"à®ļà®®à®°":6320,"Ġ320":6321,"Ġpo":6322,"à¯į||":6323,"à®ĩà®¤à®¯":6324,"ĠProf":6325,"ists":6326,"par":6327,"bar":6328,"Ġthr":6329,"Ġtemple":6330,"Ġ136":6331,"à®ļà®²à®Ł":6332,"Ġà®®à®ķà®°à®¨":6333,"CM":6334,"Ġ133":6335,"Ġviews":6336,"à®ļà®£à®¤":6337,"à¯ģ_":6338,"Ġà®Īà®´à®®à®ķ":6339,"Ġà®ªà®µà®³":6340,"pons":6341,"à®®à®¤à®ķ":6342,"ovt":6343,"Ġjust":6344,"Ġà®®à®³à®®à®³à®µ":6345,"Ġà®µà®²à®¯à®ķ":6346,"itizen":6347,"soft":6348,"à®ĩà®¤à®´":6349,"Ġnakk":6350,"Ġwoman":6351,"eylon":6352,"Ġà®Īà®£":6353,"aste":6354,"anda":6355,"âĢĿ.":6356,"Ġend":6357,"âĢĺâĢĻ":6358,"Ġ121":6359,"ule":6360,"Ġold":6361,"Ġ210":6362,"inews":6363,"UTC":6364,"ĠOptions":6365,"à®²à®°à®Ļ":6366,"à®Ĳà®ı":6367,"ĠPa":6368,"Ġ225":6369,"Ġmonth":6370,"ĠHead":6371,"ĠJai":6372,"Ġ=>":6373,"Ġel":6374,"à®¤à®³à®°":6375,"ĠWith":6376,"à®¾?!":6377,"à®¨à®°à®®":6378,"Ġà¯ª":6379,"SE":6380,"Ġà®ħà®©à®ķ":6381,"Ġà®ªà®°à®µà®ļ":6382,"Ġà®ľà®¯à®¤":6383,"Ġà®Ĩà®²à®©":6384,"avel":6385,"ask":6386,"à®¿''":6387,"ero":6388,"set":6389,"================":6390,"ĠPri":6391,"Ġà®ħà®ĥà®ª":6392,"à®µà®ªà®ķ":6393,"Am":6394,"à®¯à®ĩà®©":6395,"à®®à®£à®ļ":6396,"gan":6397,"ĠDh":6398,"Ġsk":6399,"Ġraj":6400,"à®Īà®´":6401,"ĠĠĠĠĠĠĠĠĠĠĠĠĠĠĠĠĠĠĠ":6402,"ause":6403,"à®´à®°à®ļà®©":6404,"ipp":6405,"¦Ļæ¸¯":6406,"orry":6407,"ãģ®":6408,"ĠSamayam":6409,"ĠDoctor":6410,"rd":6411,"Ġà®īà®³à®°":6412,"Ġà®®à®°à®ļ":6413,"Ġ|--":6414,"Ġposted":6415,"Ġmany":6416,"ðŁĺĤ":6417,"à®Łà®µà®¤":6418,"à®¨à®¯à®®":6419,"Ġà®¯à®·":6420,"ĠCanada":6421,"omb":6422,"à¯į...?":6423,"350":6424,"Ġà®īà®µà®°":6425,"Ġà®Ĩà®ļà®©":6426,"à®¹à®ķ":6427,"Ġ944":6428,")]":6429,"atform":6430,"ĠFriend":6431,"ures":6432,"ĠAhmed":6433,"ream":6434,"à®ªà®ļà®Ļ":6435,"Ġ139":6436,"ĠBL":6437,"ids":6438,"1986":6439,"arge":6440,"udio":6441,"à®¯à®£à®ª":6442,"ĠFM":6443,"à®ļà®¯à®ª":6444,"Ġtagged":6445,"à®¨à®°à®ļ":6446,"à®ļà®®à®¤":6447,"ĠUK":6448,"Ġ1964":6449,"ĠStreet":6450,"Ġpm":6451,"Ġvir":6452,"ĠðŁĻĤ":6453,"à®ħà®ķà®®à®¤":6454,",.":6455,"Ġà®ļà®©à®Ļ":6456,"ĠKolkata":6457,"à®ķà®°à®±":6458,"Ġà®Ĩà®ķà®¤":6459,"ince":6460,"Ġà®Ĭà®Łà®ķà®ķ":6461,"à®ħà®©à®¨":6462,"ross":6463,"Ġlong":6464,"Ġà®¤à®©à®²à®Ł":6465,"à®ľà®¹":6466,"pos":6467,"Ġà®¸à®ª":6468,"ĠRel":6469,"à®¤à®²à®ķ":6470,"Ġattack":6471,"Ġà®Ĭà®³":6472,"à®´à®ķà®ķ":6473,"ĠDep":6474,"ole":6475,"à®ļà®¤à®µ":6476,"à®ĩà®ĵ":6477,"Ġà®ªà®Łà®²à®¤":6478,"ĠHouse":6479,"à®¾âĢĻ.":6480,"ng":6481,"à®¾?...":6482,"aga":6483,"ĠÃĹ":6484,"Ġ365":6485,"ĠVall":6486,"ŀäº":6487,"Ġperson":6488,"à®µà®Łà®ļ":6489,"ÐµÑĢ":6490,"hp":6491,"ĠSk":6492,"à®ķà®¤à®ķ":6493,"=\"":6494,"Ġà®ħà®²à®ª":6495,"Ġform":6496,"Ġpres":6497,"iyar":6498,"à®®à®©à®ª":6499,"à®İà®µà®©":6500,"Ġ127":6501,"Ġinto":6502,"uz":6503,"clusive":6504,"à¯į:)":6505,"à®²à®µà®³":6506,"Ġ161":6507,"à®©à®°à®ŀ":6508,"à®ļà®®à®²":6509,"Ġcomments":6510,"Ġé¦Ļæ¸¯":6511,"åĿĽ":6512,"Ġà®ķà®®à®´":6513,"Ġà®ļà®µà®ª":6514,"wp":6515,"Ġà®®à®¹à®°":6516,"à®ļà®µà®°à®®":6517,"Ġå¤©":6518,"Ġà®ħà®ªà®¯":6519,"eech":6520,"ĠÙĪ":6521,"Ġserv":6522,"à®Łà®®à®²":6523,"Ġ132":6524,"ourn":6525,"à®ħà®µà®°à®µà®°":6526,"ĠCeylon":6527,"ĠMal":6528,"views":6529,"à®ķà®°à®£à®®":6530,"eter":6531,"ĠViews":6532,"à®ªà®£à®®à®¤":6533,"Ġà®¨à®³à®©":6534,"ĠRah":6535,"101":6536,"--------------------------------":6537,"Ġà®¨à®µà®¤":6538,"à®Łà®ķà®²":6539,"à®¤à®ļà®·":6540,"Ġ1949":6541,"áº":6542,"Ġà®®à®ª":6543,"Ġprice":6544,"à®±à®µà®´":6545,"à®²à®®à®Ł":6546,"Ġà®ļà®®à®ª":6547,"Ġà®®à®°à®µ":6548,"Ġà®ĩà®³à®ļ":6549,"Ġbank":6550,"à¯Ī.\"":6551,"ĠSund":6552,"à®¯à®ļà®ķ":6553,"à®³à®°à®¤":6554,"Ġà®¤à®Łà®¯à®µ":6555,"èµ":6556,"à®Ĳà®ľ":6557,"pm":6558,"mar":6559,"uri":6560,"à®ķà®®à®ķ":6561,"ĠReg":6562,"Ð¿":6563,"ĠPune":6564,"ĠTest":6565,"ĠOpen":6566,"åį":6567,"Ġkilled":6568,"Ġ1952":6569,"ified":6570,"MP":6571,"Ġà®Ĭà®Łà®²":6572,"Ġ1961":6573,"Ġà®ªà®¤à®©":6574,"Mar":6575,"RC":6576,"ved":6577,"Ġbeen":6578,"130":6579,"Ġà®ĩà®Łà®µà®ļà®¤":6580,"à®Łà®µà®Ļ":6581,"Ġ145":6582,"Ġdeath":6583,"content":6584,"Ġ356":6585,"à¤¤":6586,"à®ļà®ļà®©":6587,"UL":6588,"Ùĳ":6589,"ĠMobile":6590,"âĢĮ.":6591,"Views":6592,"1988":6593,"Ġnakkheeran":6594,"à®ĩà®µà®Ļ":6595,"Ġdep":6596,"è®º":6597,"1950":6598,"åº":6599,"à®°à®ķà®³":6600,"Ġ168":6601,"Ġhouse":6602,"à®µà®°à®Ł":6603,"Ġcinema":6604,"'t":6605,"Ġlatest":6606,"à®ķà®ķà®®":6607,"ĠLife":6608,"elcome":6609,"à®¾!\"":6610,"Nov":6611,"Ġà®ħà®´à®¤":6612,"ered":6613,"160":6614,"1985":6615,"kathiravan":6616,"à®ľà®¯à®¨":6617,"Ġ155":6618,"ĠWhats":6619,"Ġhow":6620,"ches":6621,"à®¯à®²à®®à®°":6622,"Ġadd":6623,"odel":6624,"Ġà®īà®´à®²":6625,"ĠPower":6626,"Ele":6627,"à®¹à®¨":6628,"ĠCurrent":6629,"Ġà®¿":6630,"ç»":6631,"uesday":6632,"à®¿âĢĵ":6633,"à®ķà®±à®µà®Ļ":6634,"EP":6635,"à®©à®®à®©":6636,"Ġmin":6637,"à®ľà®¯à®¤à®ļà®®":6638,"Ġà®ħà®ķà®£":6639,"ĠÐ¾":6640,"à®²à®ķà®ķ":6641,"à®ıà®ľ":6642,"Ġà®¨à®µà®°à®¤":6643,"à®ªà®¯à®£à®Ļ":6644,"Ġà®¯à®²":6645,"à®ļà®®à®£":6646,"Ġlist":6647,"raining":6648,"æ°":6649,"à®ªà®´à®¨":6650,"Ð°Ð½":6651,"à®ķà®ªà®ª":6652,"Ġà®ļà®ķà®¸":6653,"Fl":6654,"icrosoft":6655,"à®³à®°à®µà®®":6656,"Ġ152":6657,"1977":6658,"Ġsaid":6659,"ĠWater":6660,"MA":6661,"unt":6662,"ĠBedrooms":6663,"à®®à®Łà®²":6664,"Ġwere":6665,"XX":6666,"plication":6667,"nesday":6668,"Vikatan":6669,"plet":6670,"ger":6671,"xy":6672,"à®®à®°à®°":6673,"à®¾''":6674,"Ġà®°à®¤à®¤":6675,"opyright":6676,"Ġ;)":6677,"Ġà®İà®ĥà®ķ":6678,"à®¯à®©à®ķ":6679,"à®¾?,":6680,"à®ĵà®µà®°":6681,"Ġ165":6682,"à¯ĭâĢĮ":6683,"Ġmov":6684,"Ġmur":6685,"à¯ģ...!":6686,"jith":6687,"less":6688,"åĪ":6689,"inc":6690,"ality":6691,"adurai":6692,"Ġà®¤à®ļà®®":6693,"((":6694,"kk":6695,"à®Ĩà®ĥà®ª":6696,"à®Ĭà®Łà®ķ":6697,"...]":6698,"Ġsweet":6699,"emes":6700,"à®©à®®à®±":6701,"à®µà®²à®ķà®ª":6702,"ĠAt":6703,"Ġà®Ĩà®²à®®à®°à®¤":6704,"à®Ĩà®²à®¯à®¤":6705,"ursday":6706,"Ġà®°à®ľà®©":6707,"Ġà®±à®¤":6708,"icles":6709,"achine":6710,"âĸ":6711,"ison":6712,"igal":6713,"stitute":6714,"watch":6715,"à®ħà®¯à®°":6716,"anthan":6717,"Ġperm":6718,"à¯į.]":6719,"à®ĩà®¤à®¯à®¤":6720,"atore":6721,"irect":6722,"à®¾!âĢĿ":6723,"à®ĩà®±à®ª":6724,"123":6725,"ayalal":6726,"ĠNEWS":6727,"elopment":6728,"Ġà®ħà®¯à®²à®µà®°":6729,"Ġà®ļà®®à®¯à®ķ":6730,"aan":6731,"Ġà®ĵà®Łà®ķ":6732,"OP":6733,"oice":6734,"à®¯à®©à®ª":6735,"ĠGod":6736,"igarh":6737,"Ġ×":6738,"ĠPDF":6739,"upload":6740,"azh":6741,"à®ķà®°à®²":6742,"iri":6743,"è¯":6744,"udd":6745,"Ġeng":6746,"Ġà®¤à®®à®¯à®¨":6747,"Ġà®Ĩà®²à®ª":6748,"à®¯à®ªà®°":6749,"ration":6750,"Ġà®ĩà®©à®ļ":6751,"Ġà®Ĩà®ªà®°à®£à®®":6752,"unty":6753,"à®µà®´à®ķà®©":6754,"ĠCH":6755,"Ġactor":6756,"ĠFull":6757,"ï¼Į":6758,"750":6759,"Ġhealth":6760,"ãĢĤ":6761,"Ġinterest":6762,"Ġ550":6763,"ĠCare":6764,"ĠThiruv":6765,"yrics":6766,"ĠGroup":6767,"obs":6768,"à®ħà®°à®ķ":6769,"Ġà®ĵà®®à®©":6770,"Ġà®ķà®²à®¤":6771,"Ġ1958":6772,"Ġà®ĩà®®à®¯à®®":6773,"ĠNCR":6774,"à®¯à®ķà®µ":6775,"Ġà®ĵà®®à®²":6776,"ĠSo":6777,"Ġ1966":6778,"Ġà®īà®¤à®¯à®©":6779,"âĢ²":6780,"Ġà®Ĩà®²à®¨":6781,"à®¤à®£à®©":6782,"ĠSC":6783,"ĠJaipur":6784,"1971":6785,"Ġdif":6786,"ĠFeatured":6787,"eme":6788,"ĠHar":6789,"As":6790,"Ġà®ħà®©à®¸":6791,"à®®à®¤à®ļ":6792,"ĠDist":6793,"Ġ1954":6794,"igation":6795,"lex":6796,"pect":6797,"à®®à®±à®ķ":6798,"Ġà®ķà®¯à®µà®°":6799,"à®ļà®©à®°":6800,"Ġà®ªà®¯à®ªà®ķ":6801,"etails":6802,"à¯Ī:-":6803,"Ġà®ķà®¤à®±à®²":6804,"Ġà®²à®ª":6805,"ĠDi":6806,"Ġreview":6807,"udh":6808,"ĠSrilanka":6809,"elebr":6810,"tam":6811,"Ġà®µà®©à®ļ":6812,"ĠPortal":6813,"avy":6814,"Ġeven":6815,"à®²à®´à®ķà®°":6816,"ĠTAMU":6817,"ĠTwitter":6818,"<<":6819,"à®ıà®±à®¤":6820,"top":6821,"ĠAhmedabad":6822,"à®´à®©à®©":6823,"Ġà®īà®µ":6824,"Ġ1400":6825,"à®ļà®¸à®°":6826,"Ġà®ħà®µà®®à®°":6827,"à®©à®®à®°":6828,"ĠMost":6829,"åľ":6830,"à¯ģ!!!":6831,"à¯ģ\".":6832,"Ġ>>":6833,"é©¬":6834,"Ġbre":6835,"à®¯à®°à®Ł":6836,"à®ķà®²à®µà®°à®®":6837,"IND":6838,"ADMK":6839,"990":6840,"à®īà®²à®ķà®³":6841,"atte":6842,"Ġbeautiful":6843,"1947":6844,"à®¤à®¹":6845,"à®¯à®£à®ķ":6846,"à®µà®¤à®¤":6847,"NA":6848,"à®ªà®¯à®±":6849,"ĠMS":6850,"ĠChandigarh":6851,"ĠPhotos":6852,"acy":6853,"Ġà®Ĵà®°à®³à®µ":6854,"imbatore":6855,"ti":6856,"à®¸à®Ł":6857,"atter":6858,"Ġ10000":6859,"ĠBuy":6860,"ĠAustral":6861,"oods":6862,"à®ĩà®²à®Ł":6863,"aves":6864,"hits":6865,"mm":6866,"Ġà®ķà®±à®¨":6867,"Ġà®İà®´à®²":6868,"reme":6869,"Ø¹":6870,"Ð¾ÑĢ":6871,"Ġmar":6872,"Ġdef":6873,"ware":6874,"icer":6875,"aly":6876,"arthik":6877,"à®ķà®²à®µà®°à®¤":6878,"à®ĩà®³à®¨":6879,"à®¾.,":6880,"ĠKumar":6881,"Ġà®īà®ľ":6882,"Ġ(\"":6883,"ze":6884,"à®µà®¹":6885,"Ġà®²à®ļà®¨":6886,"ĠBigg":6887,"alanis":6888,"Ġà®ļà®°à®ª":6889,"Ġ044":6890,"à®¯à®²à®ķà®Ļ":6891,"à®ķà®´à®²":6892,"Ġyoung":6893,"Ġà®ĩà®°à®µà®²":6894,"ĠWindows":6895,"let":6896,"CW":6897,"ault":6898,"akumar":6899,"Ġà®ĩà®ĥà®ª":6900,"à®Īà®ķ":6901,"icide":6902,"Î±":6903,"Ġ134":6904,"à¹":6905,"Ġà®ļà®²à®©":6906,"Ġflowers":6907,"à®ļà®±à®¤":6908,"à¯į??":6909,"Ġcapt":6910,"à®¯à®¤à®³à®ªà®¤":6911,"à®°à®£à®®à®²":6912,"ĠSpecial":6913,"Ġà®Ĩà®²à®®à®°à®®":6914,"Ġà®Łà®ľà®©":6915,"à®±à®©à®±":6916,"ites":6917,"ĠBro":6918,"à¯į..\"":6919,"Ġimport":6920,"\")":6921,"ĠSl":6922,"Ġhome":6923,"ights":6924,"Image":6925,"uploads":6926,"Ġdi":6927,"images":6928,"à¯ĩ..!":6929,"Ġà®¤à®©à®ļ":6930,"ĪĴ":6931,"Ġthem":6932,"ĠCitizen":6933,"ohn":6934,"à®ļà®®à®±":6935,"Ġà®ķà®²à®ķà®ķ":6936,"Ġnadan":6937,"ization":6938,"à®ªà®°à®µà®²":6939,"richy":6940,"à®¤à®®à®£":6941,"ĠÙħ":6942,"urg":6943,"ĠFriday":6944,"à¯ģ?'":6945,"(\"":6946,"ĠCongress":6947,"ems":6948,"1982":6949,"ender":6950,"ä¸ī":6951,"à¯ģà®¾à¯į":6952,"Ġà®īà®£à®°à®¤":6953,"uring":6954,"à¯ģ...\"":6955,"OD":6956,"à®Łà®©à®ķ":6957,"PC":6958,"Ġref":6959,"Ġà®µà®©à®Ļ":6960,"Ġà®·à®°à®¤":6961,"ait":6962,"AND":6963,"Ġ('":6964,"à®¾?)":6965,"ĠMr":6966,"Ġblog":6967,"Ġgold":6968,"ĠAndroid":6969,"ĠWork":6970,"à®ķà®Łà®ķ":6971,"ĠÃł":6972,"à®ķà®¤à®¤":6973,"à®ļà®²à®ķ":6974,"Ġwrit":6975,"à¯Ī',":6976,"à®¤à®®à®ª":6977,"plements":6978,"à®³à®£":6979,"Ġà®ķà®®à®ķ":6980,"à®¯à®ŀ":6981,"Ġ153":6982,"à®ķà®£à®ª":6983,"Ġ7000":6984,"à¯įâĢ¦âĢĻ":6985,"à®¾',":6986,"Ġà®ļà®©à®µà®°":6987,"Ġà®ľà®©à®°à®ŀ":6988,"iction":6989,"Ġà®Łà®Ł":6990,"à®ļà®®à®¸":6991,"Ġsal":6992,"Ġthought":6993,"ikk":6994,"uru":6995,"358":6996,"à¯į}.":6997,"OV":6998,"ilk":6999,"ĠLa":7000,"Ġ{\\":7001,"à®ļà®²à®µ":7002,"ÂłÂłÂłÂłÂłÂłÂłÂłÂłÂłÂłÂłÂłÂłÂłÂł":7003,"ĠNA":7004,"à®¯à®´à®ķ":7005,"à®ĵà®²":7006,"à®ķà®Łà®ļ":7007,"à¯ģï»¿":7008,"Ġà®īà®¤à®ķ":7009,"ined":7010,"Ġstudents":7011,"Ġà®ļà®°à®Ł":7012,"athu":7013,"pdf":7014,"à®ªà®ķà®µà®¤":7015,"Ġtwo":7016,"..âĢĿ":7017,"Ġà®ķà®¤à®®":7018,"à®¨à®µà®°":7019,"Ġcor":7020,",âĢĿ":7021,"à¯Ĩ,":7022,"Ġ1963":7023,"imag":7024,"ugan":7025,"à®´à®£":7026,"Ġ1924":7027,"Ġlanka":7028,"osc":7029,"Ġorder":7030,"stall":7031,"Ġà®ħà®®à®°à®¤":7032,"Ġsing":7033,"We":7034,"Ġà®°à®®à®£à®©":7035,"hys":7036,"stru":7037,"à¯ĪâĢĻ.":7038,"Ġear":7039,"ĠChild":7040,"ī²":7041,"Ġpet":7042,"'.":7043,"ards":7044,"rowser":7045,"Ġthrough":7046,"Ġright":7047,"ĠÐº":7048,"à®¤à®ªà®¯":7049,"ĠAmer":7050,"ĠNumber":7051,"Ġnanjil":7052,"Ġbody":7053,"ÂłÂłÂłĠ":7054,"æĸĻ":7055,"à®²à®ªà®¤":7056,"à¯¬":7057,"ĠVallalar":7058,"NE":7059,"Ġdon":7060,"Ġlink":7061,"Eng":7062,"ĠScience":7063,"à®ľà®©à®Ļ":7064,"ĠActor":7065,"Ġparty":7066,"ĠElect":7067,"à®¿'.":7068,"ellaw":7069,"Ġnaanjil":7070,"Se":7071,"à¯Īà®¿":7072,"Ġconf":7073,"à®ªà®£à®ª":7074,"ĠPlatform":7075,"Ġtre":7076,"ĠBoss":7077,"Ctrl":7078,"ĠÐ´":7079,"Ġ256":7080,"Ġà®ķà®µà®ļ":7081,"oph":7082,"à®ªà®³à®Ļ":7083,"iving":7084,"scri":7085,"à¯įà¯ĩ":7086,"æĹ":7087,"à®ķà®Łà®°":7088,"à®©à®Łà®°":7089,"Ġà®ķà®²à®µà®°":7090,"ataka":7091,"Ġadmin":7092,"à®Łà®¯à®°":7093,"orrow":7094,"à®¤à®³à®ª":7095,"Ġà®īà®³à®¤":7096,"uild":7097,"athan":7098,"ainment":7099,"à®°à®µà®ķ":7100,"à¤¿":7101,"SA":7102,"ĠStalin":7103,"à¯ģ.âĢĻ":7104,"ĠTHE":7105,"à®¤à®ķà®µ":7106,"Ġtake":7107,"Ġdown":7108,"ankar":7109,"BiggBoss":7110,"Ġà®ķà®±à®µ":7111,"ĠTir":7112,"à®©à®ķà®°à®®":7113,"à®¾âĢ¦?":7114,"Ġà®¯à®±":7115,"ural":7116,"World":7117,"nadan":7118,"Ġir":7119,"Ġinvest":7120,"Ġey":7121,"Ġ143":7122,"ulture":7123,"à®¾..!":7124,"Ġà®ľà®µà®Ł":7125,"Ġ2030":7126,"à®ķà®±à®ª":7127,"ĠPay":7128,"Ġdays":7129,"mk":7130,"Ġà®¸à®¨":7131,"Ġà®ħà®±à®ļ":7132,"ĠØ¨":7133,"Ġ1917":7134,"ĠComputer":7135,"text":7136,"à®¸à®¨":7137,"itics":7138,"à®¤à®ļà®Ļ":7139,"à®µà®©à®µà®±":7140,"Ġà®ķà®²à®ļà®¤":7141,"Ġà®Īà®¯":7142,"ĠIC":7143,"Ġà¯§":7144,"5000":7145,"ĠClass":7146,"Ġcre":7147,"asa":7148,"for":7149,"à®¾!!":7150,"EU":7151,"à®®à®¤à®°":7152,"å¤§":7153,"ĠWill":7154,"Ġ1959":7155,"nic":7156,"ised":7157,"ä½":7158,"à®°à®µà®³":7159,"à®·à®ļ":7160,"DS":7161,"à®ļà®ķà®ª":7162,"à®ķà®´à®ķà®ª":7163,"ĠNot":7164,"Ġ236":7165,"lines":7166,"ney":7167,"Ġà®ļà®®à®¤à®°":7168,"Ġà®īà®¤à®¯à®¤":7169,"Ġ147":7170,",\"":7171,"nap":7172,"Ġà®īà®µà®ª":7173,"UV":7174,"elibrary":7175,"imagelibrary":7176,"irm":7177,"à®®à®©à®¨":7178,"à®®à®°à®µ":7179,"Ġneed":7180,"NEWS":7181,"Dr":7182,"à®Łà®ķà®ļ":7183,"ĠBar":7184,"à®ķà®µà®³":7185,"Ġà®ľà®ªà®®":7186,"à®İà®±":7187,"ries":7188,"Ġà®ĩà®©à®µà®´":7189,"ĠPlay":7190,"ĠPR":7191,"Ġà®ĵà®£à®®":7192,"à®ħà®ķà®®":7193,"Ġsystem":7194,"Ġ):":7195,"à®ķà®©à®®à®´":7196,"ĠLink":7197,"Ġ270":7198,"Ġà®ļà®ķà®Ł":7199,"enef":7200,"ĠNagar":7201,"Ġà®·à®©":7202,"à®¿.)":7203,"Ġlocal":7204,"à®£à®µà®ª":7205,"Ġthir":7206,"FC":7207,"fore":7208,"Ġ137":7209,"ĠChannel":7210,"à®ķà®ªà®¤":7211,"à®¯à®©à®µà®±":7212,"ãģĦ":7213,"VD":7214,"1981":7215,"cent":7216,"Ġà®Łà®¸":7217,"Ġpower":7218,"irthday":7219,"..!!":7220,"ĠMet":7221,"ider":7222,"umari":7223,"akistan":7224,"band":7225,"à®¸à®Ļ":7226,"à®ļà®®à®¯à®Ļ":7227,"ĠTele":7228,"Ġà®®à®°à®£à®ļ":7229,"à®¾.....":7230,"ĠInt":7231,"1948":7232,"Ġà®µà®Łà®ķà®°":7233,"à®ľà®°à®¤":7234,"Ġrele":7235,"harm":7236,"Ġquestion":7237,"EE":7238,"IA":7239,"à®°à®®à®°à®£à®®":7240,"à®ıà®Ļ":7241,"320":7242,"à¯Ĥ'":7243,"ouch":7244,"Ġ138":7245,"ĠAk":7246,"Ġ192":7247,"ĠGo":7248,"TA":7249,"ĠAdd":7250,"vu":7251,"Ġstat":7252,"ĠBal":7253,"Ġà®Ĩà®±à®µ":7254,"ĠNe":7255,"NG":7256,"à¯ĩ(":7257,"Ġà®¤à®ļà®°à®¤à®©":7258,"åĩ":7259,"utiv":7260,"Ġalso":7261,"Ġà®ĵà®ªà®°":7262,"ĠRE":7263,":.":7264,"Ġà®°à®¤à®®":7265,"ises":7266,"ending":7267,"ÐµÑĤ":7268,"Ġmoney":7269,"à®®à®¤à®µ":7270,"ĠTuesday":7271,"ĠThursday":7272,"Ġair":7273,"Ġà®ļà®Łà®ķ":7274,"Pr":7275,"uj":7276,"1972":7277,"Ġgen":7278,"ploy":7279,"Ì³":7280,"à®¾à¯ĩ":7281,"ociation":7282,"ĠBLOG":7283,"off":7284,"à®¸à®ķ":7285,"ĠMi":7286,"Ġà®ķà®Łà®ķà®®":7287,"à®Īà®´à®®":7288,"Ġà®³à®°":7289,"à¯ģâĢ¦..":7290,"ills":7291,"Ġà®īà®°à®²":7292,"1978":7293,"istant":7294,"ellawatte":7295,"à®ķà®µà®Ļ":7296,"udutiv":7297,"ungudutiv":7298,"aturday":7299,"++++":7300,"Ġà®¤à®¹":7301,"armers":7302,"Ġå¤©å¤©":7303,"Ġà®ļà®®à®°à®ļà®¤":7304,"Ð±":7305,"Ġnow":7306,"COME":7307,"GR":7308,"à®¾???":7309,"à¯į?!":7310,"Ġown":7311,"ĠMusic":7312,"ores":7313,"ĠSuper":7314,"atrim":7315,"ohan":7316,"åŃ":7317,"ĠApartment":7318,"UB":7319,"Ġà®ļà®®à®£à®®":7320,"ĠCC":7321,"à®Ĭà®°à®ķ":7322,"Ġest":7323,"Ġà®ļà®¤à®ķ":7324,"à®ĩà®¤à®¯à®®":7325,"Ġdownload":7326,"Ġà®ªà®°à®µà®ļà®ª":7327,"ĠRaja":7328,"Ġ1953":7329,"140":7330,"ĠMa":7331,"opp":7332,"ï¿½.":7333,"Ġminister":7334,"upp":7335,"è®ºåĿĽ":7336,"Ġ149":7337,"ĠKa":7338,"Ġtalk":7339,"Ġbig":7340,"ĠPeople":7341,"à®¯à®²à®ķà®ª":7342,"Ġlaunch":7343,"à®²à®·":7344,"uthu":7345,"Ġà¯¨":7346,"Ġà®°à®²":7347,"à¯Ī.)":7348,"iance":7349,"ground":7350,"Ġà®Ĵà®©à®ķ":7351,"ĠNar":7352,"Ġ177":7353,"ĠSonkar":7354,"Ġà®ªà®³à®ªà®³à®ķ":7355,"à®µà®´à®®":7356,"Ġ8000":7357,"Ġà®µà®ļà®©à®ķà®°":7358,"ĠWelcome":7359,"ĠRooms":7360,"à®®à®µà®©":7361,"à¯ģ.'":7362,"Ġà®µà®²à®¯à®Ļ":7363,"IST":7364,"Ġà®®à®ľà®¤":7365,"à®¹à®³":7366,"edy":7367,"à®¾à¯Ī":7368,"ĠSar":7369,"IY":7370,"Ġtamilnadu":7371,"Ġcrore":7372,"ĠMadurai":7373,"à®¿_":7374,"à®īà®·":7375,"cient":7376,"Ġà®Łà®µà®²":7377,"à®Ĵà®ļ":7378,"å¿ĥ":7379,"ĠEl":7380,"à¯ģ.!":7381,"Ġà®ĥà®ªà®µ":7382,"ham":7383,"avid":7384,"Ġlive":7385,"displaystyle":7386,"Ġ131":7387,"ĠOfficial":7388,"æĬ¥":7389,"à®ķà®¤à®²":7390,"che":7391,"à®ªà®´à®ļ":7392,"ĠExpress":7393,"Ð¾Ð»":7394,"home":7395,"ĠCauvery":7396,"à®¯à®®à®£":7397,"ley":7398,"à®¨à®Łà®©à®®":7399,"à®ľà®®à®µ":7400,"ATH":7401,"à²":7402,"à¯Ģ...":7403,"Ġà®īà®´à®©":7404,"phone":7405,"Ġhelp":7406,"ĠUpd":7407,"Ġ280":7408,"Notes":7409,"Î¿":7410,"à¯į!âĢĻâĢĻ":7411,"Ġà®·à®µ":7412,"Des":7413,"1967":7414,"144":7415,"Ġà®®à®ķà®°à®®":7416,"Ġà®·à®£":7417,"ĠĠĠĠĠĠĠ":7418,"Ġ?âĢĿ":7419,"Ġob":7420,"ĠKarunanidhi":7421,"New":7422,"à®ĩà®¯à®¨":7423,"vert":7424,"thy":7425,"Aug":7426,"raz":7427,"WEL":7428,"box":7429,"Ġbeh":7430,"ĠPosted":7431,"Ġà®¤à®µà®ķ":7432,"Ġdid":7433,"à®¹à®®à®¤":7434,"raw":7435,"à®¯à®¤à®®":7436,"à®¤à®°à®ķà®Ļ":7437,"à¯į,...":7438,"à®²à®µà®ķ":7439,"è§":7440,"Ġ1955":7441,"avar":7442,"ĠAC":7443,"ious":7444,"Ġ260":7445,"~~":7446,"æľº":7447,"acher":7448,"à®ħà®Łà®ª":7449,"à®ķà®ļà®ķ":7450,"Ġmag":7451,"utch":7452,"Ð°ÑĤ":7453,"Ġà®ªà®¤à®°":7454,"ican":7455,"Phone":7456,"Ġà®ļà®°à®µà®£à®ªà®µà®©":7457,"adoss":7458,"olar":7459,"à®ħà®²à®°":7460,"Ġà®ķà®²à®ļ":7461,"RL":7462,"æ³":7463,"Ġà®ķà®µà®ļà®¤":7464,"ĠPur":7465,"Ġmarri":7466,"ases":7467,"Ġà®ħà®µà®¨":7468,"à®¤à®µà®°à®®":7469,"lobal":7470,"ĠÂ£":7471,"®Ĥ":7472,"à®Ĥ":7473,"Indian":7474,"ĠNa":7475,"Ġnext":7476,"ĠResearch":7477,"à®°à®¹à®®":7478,"ces":7479,"emale":7480,"Ġà®ķà®²à®ļà®Ļ":7481,"à®¹à®Ļ":7482,"à®īà®©à®¤":7483,"à®ĩà®³à®µà®°à®ļà®°":7484,"rishnan":7485,"ĠRem":7486,"Ġ162":7487,"ula":7488,"à®¨à®µà®ķ":7489,"ĠBusiness":7490,"Ġà®®à®ĩà®ķ":7491,"Ġà®ĩà®²à®ļ":7492,"à®Ĩà®°à®ŀ":7493,"ĠDirector":7494,"Copyright":7495,"ald":7496,"Ġfull":7497,"angam":7498,"128":7499,"OAD":7500,"ĠPhone":7501,"ĠFrom":7502,"à¯ģ'.":7503,"ĠWednesday":7504,"à®³à®®à®¯à®®":7505,"à®¾.?":7506,"cat":7507,"Ġà®¨à®Łà®©à®ª":7508,"ĠCenter":7509,"Ġà®İà®´à®¤":7510,"à¯į.?":7511,"Ġà®ĩà®Łà®±":7512,"Ġbro":7513,"æĿ":7514,"à®ķà®¤à®©":7515,"CD":7516,"à®°à®¤à®Ł":7517,"Ġà®ļà®©à®ļà®®":7518,"Ġmen":7519,"Ġlo":7520,".......":7521,"à®²à®®à®²":7522,"Ġins":7523,"Ġà®¹à®¯":7524,"BO":7525,"ĠPet":7526,"Ġhead":7527,"Ġeleph":7528,"à®ĩà®©à®®":7529,"df":7530,"Ġmade":7531,"ahoo":7532,"âĢĶâĢĶâĢĶâĢĶâĢĶâĢĶâĢĶâĢĶ":7533,"sy":7534,"Ġprof":7535,"ĠSMS":7536,"ĠINDI":7537,"ĠFOR":7538,"Ġdirector":7539,"à®ĵà®İà®¸":7540,"Ġà®ĩà®¹":7541,"ĠGandhi":7542,"ĠChristian":7543,"RS":7544,"ĠFin":7545,"TNPSC":7546,"?'":7547,"osit":7548,"à¯Ģ'":7549,"scribe":7550,"Ġà®¤à®°à®®à®£":7551,"104":7552,"«ĺ":7553,"SK":7554,"Ġ850":7555,"Ġà®Ĵà®°à®¤":7556,"Ġ129":7557,"à®ĩà®·":7558,"Ġevery":7559,"Ġà®ªà®°à®®à®©":7560,"Ġà®µà®³à®¨":7561,"à®®à®¹à®¤":7562,"Ġà®ķà®±à®ķ":7563,"à®¯à®²à®Ļ":7564,"à®ķà®©à®²":7565,"WELCOME":7566,"à®Łà®´":7567,"Ġmatch":7568,"ography":7569,"ĠMot":7570,"102":7571,"Ġbus":7572,"à®©à®Łà®ķ":7573,"Ġ1300":7574,"à®¹à®¹":7575,"ĠID":7576,"à®£à®¨à®²à®©":7577,"quest":7578,"Ġrain":7579,"à®µà®¯à®®":7580,"Ġà®ĩà®¤à®¯à®¨":7581,"ĠInstitute":7582,"à®¿à®¾":7583,"à®³à®´à®ķà®°":7584,"ĠLtd":7585,"vel":7586,"à®ķà®¯à®®":7587,"à¯ĩâĢĻâĢĻ":7588,"Ġlakh":7589,"ĠStart":7590,"Ġfile":7591,"emy":7592,"ĠCook":7593,"Ġ176":7594,"Ġspecial":7595,"ÑĪ":7596,"Ġ1951":7597,"ĠEnter":7598,"à®°à®ļà®°":7599,"Ġset":7600,".........":7601,"TO":7602,"à®³à®®à®©":7603,"à®ħà®¯à®²":7604,"ĠDaily":7605,"arya":7606,"aasan":7607,"à¦":7608,"ĠKoh":7609,"Ġext":7610,"ĠActress":7611,"ocument":7612,"Ġinformation":7613,"105":7614,"anks":7615,"Ġvijay":7616,"Ġmet":7617,"Ġà®ĩà®ļà®Ł":7618,"ĠMin":7619,"ĠEvent":7620,"à®¤à®°à®ķà®£":7621,"ences":7622,"ĠMonday":7623,"Ġà®īà®³à®ª":7624,"ten":7625,"Ġà®Ĩà®ªà®°à®£à®¤":7626,"à®ħà®µà®ķ":7627,"1500":7628,"ĠId":7629,"Ġà®®à®©à®īà®³":7630,"upee":7631,"endra":7632,"inking":7633,"ĠAdv":7634,"atrimony":7635,"bot":7636,"1956":7637,"Ú©":7638,"ĠÄ":7639,"Ġ1946":7640,"Ġpay":7641,"à®¾âĢĻâĢĻ":7642,"à®¿âĢ¦!":7643,"appadi":7644,"Ñĸ":7645,"à®²à®®à®°":7646,"nam":7647,"Ġà®īà®£à®°à®ķ":7648,"Ġ,,":7649,"lean":7650,"Ġfine":7651,"ray":7652,"erry":7653,"ĠKathaigal":7654,"à®ľà®ľ":7655,"iva":7656,"Ġview":7657,"à®ĩà®¤à®°":7658,"ĠTime":7659,"à®ľà®¯à®¨à®ķà®°":7660,"à®ªà®©à®°à®²":7661,"à®µà®ķà®µ":7662,"ĠIP":7663,"à®©à®²à®®à®±":7664,"tal":7665,"à¯į.âĢľ":7666,"à®Ĩà®·":7667,"engal":7668,"Ġelection":7669,"à®µà®£à®®":7670,"ĠCup":7671,"tntam":7672,"Ġà®İà®Łà®¤":7673,"Ġu":7674,"à®¤à®©à®ļ":7675,"à¯ģ!âĢĻ":7676,"à®¯à®²à®¤":7677,"à¯į?''":7678,"ĠSH":7679,"Ġtest":7680,"Ġ148":7681,"outu":7682,"à¥ĩ":7683,"bit":7684,"osition":7685,"ĠTeachers":7686,"à®Ĳà®¯à®ª":7687,"Ġ164":7688,"à®īà®¤à®¯à®¨":7689,"Ġà®ķà®µà®ļà®Ļ":7690,"ĠBoy":7691,"yp":7692,"Ð¾Ð¼":7693,"ĠView":7694,"Ġtips":7695,"akshmi":7696,"à®¤à®ļà®°à®¸":7697,"etter":7698,"æĪ":7699,"ĠLane":7700,"ĠWomen":7701,"onom":7702,"Ġ151":7703,"ĠGTN":7704,"å®":7705,"à®¿]":7706,"Ġhar":7707,"Ġwar":7708,"à®ļà®¯à®®à®±":7709,"à®²à®µà®¤":7710,"à®ªà®¯à®ª":7711,"ĠFile":7712,"ways":7713,"Ġes":7714,"à®ªà®Łà®²à®®":7715,"à®µà®ľà®©":7716,"à¯Ī!âĢĿ":7717,"à®Īà®´à®ª":7718,"clud":7719,"Ġfood":7720,"8888":7721,"Ð¾Ð´":7722,"Ġ(âĢĺ":7723,"ĠPER":7724,"à®Łà®±à®ķ":7725,"Ġà®¤à®Łà®ª":7726,"à®ªà®Łà®°":7727,"Ġ215":7728,"Ġà®ıà®±à®µ":7729,"ells":7730,"à¯įà¯Īà®¿":7731,"à®īà®¤à®Ł":7732,"amizh":7733,"à®¾âĢ¦âĢĿ":7734,"ĠNF":7735,"hai":7736,"à®·à®£à®©":7737,"var":7738,"Ġï¿½ï¿½ï¿½":7739,"alap":7740,"Ġ154":7741,"à®ħà®Łà®Ļ":7742,"à¯®":7743,"ball":7744,"à¯ĩ''":7745,"Ġvid":7746,"à®¯à®®à®¯à®®":7747,"ĠHistory":7748,"ully":7749,"ĠCentre":7750,"Ġannounc":7751,"adio":7752,"Ġbest":7753,"ĠSer":7754,"450":7755,"à®ıà®±à®ķ":7756,"à®±à®°à®ļà®°":7757,"oid":7758,"Ġmake":7759,"ollywood":7760,"pert":7761,"Full":7762,"aja":7763,"ĠExam":7764,"Ġtax":7765,"1975":7766,"ila":7767,"à®°à®µà®²à®°":7768,"Ġ304":7769,"à¯įâĢĶ":7770,"à¯ģ//":7771,"Ġlook":7772,"ains":7773,"Ġà®Ĵà®¯à®°":7774,"Ġà®īà®²à®Ļ":7775,"ĠBathrooms":7776,"1979":7777,"Ġtn":7778,"à®·à®¯à®®à®²":7779,"BN":7780,"Ġboy":7781,"Ġ3500":7782,"Ġà®¨à®¯à®©à®¤":7783,"Ġ1939":7784,"Ġ182":7785,"à®Łà®°à®ķ":7786,"ĠJay":7787,"à®²à®µà®Ł":7788,"à®©à®°à®ļ":7789,"ĠDOW":7790,"ashing":7791,"à¯Ń":7792,"etween":7793,"Â¡Â¢":7794,"æĺ":7795,"à®°à®¯à®Ļ":7796,"à®ķà®´à®¤":7797,"ĠSL":7798,"Ġà®ľà®µà®ķà®°":7799,"Ġà®ĩà®¯à®®":7800,"à®ĩà®Łà®Ļ":7801,"Ġhot":7802,"Man":7803,"Ġ..!":7804,"Too":7805,"ĠCommission":7806,"à®©à®®à®¯à®®":7807,"à®°à®ªà®²à®¤":7808,"ĠRev":7809,"akam":7810,"Ġà®ªà®°à®®à®¤":7811,"Â¬":7812,"Ġkaanthan":7813,"Ġà®Ĭà®ķà®Ļ":7814,"ĠIns":7815,"Ġwife":7816,"aji":7817,"public":7818,"Ġà®ħà®µà®²à®¨":7819,"ĠIPL":7820,"ĠLED":7821,"Ġroad":7822,"sm":7823,"antha":7824,"Ġuse":7825,"ergy":7826,"Ġ1600":7827,"à®ķà®ķà®¤":7828,"Ġà®ķà®ªà®³":7829,"ĠSy":7830,"-)":7831,"ĠEX":7832,"Ġà®ħà®ķà®²à®ª":7833,"date":7834,"google":7835,"Ġà®ķà®ľà®©":7836,"Ġà®®à®°à®µà®³":7837,"Ġà®¤à®ķà®µà®®":7838,"Ġà®Ĩà®³à®µà®¨":7839,"Ġid":7840,"127":7841,"Ġà®®à®©à®©à®®":7842,"And":7843,"à®ħà®µà®ļà®°à®®":7844,"Ġmight":7845,"Ġgive":7846,"à¯ģ,.":7847,"ĠÂłĠ":7848,"ify":7849,"rin":7850,"ference":7851,"wiss":7852,"à®£à®¯à®ļ":7853,"ÑĨ":7854,"Ġà®µà®Łà®²":7855,"Ġcricket":7856,"uf":7857,"à¯Ģà¥°":7858,"Ġmother":7859,"Ġà®Ĩà®£à®µà®ķ":7860,"Ġstate":7861,"à®ħà®±à®¨":7862,"Ġgu":7863,"à¤¨":7864,"oscope":7865,"Ġà®°à®£à®®":7866,"ĠYour":7867,"ĠAf":7868,"Ġbec":7869,"Ġexpl":7870,"360":7871,"Â¨":7872,"Ġmarket":7873,"TJ":7874,"Î¹":7875,"ĠState":7876,"Ġà®ªà®©à®®":7877,"Ġà®Ĩà®ķà®®à®Ļ":7878,"son":7879,"Ġcalled":7880,"Ġà®ħà®µà®©à®µà®©":7881,"Ġà®ľà®©à®ķ":7882,"wh":7883,"à¯ĭ....":7884,"Ġ999":7885,"Ġland":7886,"raj":7887,"ĠUnc":7888,"ĠVanniOnline":7889,"à¯ģ\",":7890,"youtu":7891,"à¯ģâĢľ":7892,"Ġà®īà®£à®°à®ļ":7893,"Ġ158":7894,"ĠChief":7895,"à¯ĩâĢ¦âĢĿ":7896,"Ġ185":7897,"Ġshow":7898,"à®£à®µà®°à®£":7899,"à®ħà®Łà®°":7900,"à®ļà®²à®©à®®":7901,"ĠPrab":7902,"Ġli":7903,"adesh":7904,"ape":7905,"ĠAustralia":7906,"Ġï»¿":7907,".-":7908,"cel":7909,"ondon":7910,"ÑģÐº":7911,"ita":7912,"utton":7913,"eyan":7914,"aterial":7915,"à®¤à®µà®´":7916,"à¯ĩà®¾.":7917,"Ġtop":7918,"ternational":7919,"NLOAD":7920,"Fi":7921,"ÏĦ":7922,"?!":7923,"à®®à®ķà®®":7924,"ĠHindu":7925,"Tagged":7926,"trans":7927,"Ġà®¨à®®à®¹":7928,"];":7929,"Ġ157":7930,"æ°´":7931,"à®ıà®²":7932,"AMIL":7933,"Â¸":7934,"Ġ{{":7935,"à¯¯":7936,"leep":7937,"asy":7938,"Ġfamily":7939,"Ġà®ĩà®²à®µà®ļà®ķ":7940,"à®ħà®©à®²":7941,"240":7942,"Ġà®¤à®°à®µà®²":7943,"ĠCentral":7944,"Ġ420":7945,"æĢ":7946,"enk":7947,"Â£":7948,"à®®à®²à®ļ":7949,"Ġ1100":7950,"ccess":7951,"asik":7952,"à®Ĭà®±":7953,"ategor":7954,"Ñİ":7955,"Ġà®ªà®ķà®±":7956,"Col":7957,"âĻ":7958,"raft":7959,"ugg":7960,"à¯ĭ;":7961,"Ġrest":7962,"anna":7963,"Ġà®ĵà®µà®²":7964,"ĠSun":7965,"Ġ1008":7966,"Ġà®ķà®²à®ķà®¤":7967,"à®Ĩà®°à®£":7968,"Ġà®ªà®°à®µà®¤":7969,"Ġà®ķà®®à®£":7970,"Ġimportant":7971,"à®Ĭà®ķ":7972,"ler":7973,"Ġà®¤à®ĥà®µ":7974,"cripts":7975,"UC":7976,"à®Ĩà®Łà®®":7977,"à®ªà®²à®ļ":7978,"103":7979,"ĠSupport":7980,"à®¯à®°à®ķ":7981,"ĠAuto":7982,"à®®à®£à®µ":7983,"Ġbright":7984,"Ġ166":7985,"à®ķà®ĩà®°":7986,"Ġrelease":7987,"Ġà®°à®£à®ļ":7988,"UD":7989,"Ġ480":7990,"ãģĹ":7991,"ĠLove":7992,"tion":7993,"Ġhair":7994,"à®Łà®²à®ķ":7995,"ĠTemple":7996,"Ġ205":7997,"à¯Ī!\"":7998,"ired":7999,"Ġspe":8000,"à¯ĪâĢĵ":8001,"rivate":8002,"Ġboss":8003,"ĠRajinikanth":8004,"ba":8005,"Ġà®ķà®³à®ķ":8006,"erman":8007,"Ġ1925":8008,"Ġlanguage":8009,"De":8010,"à®ķà®²à®ļ":8011,"Ġ[...]":8012,"Ġà®Ĭà®Łà®±":8013,"facebook":8014,"ĠEngland":8015,"ĠThiru":8016,"black":8017,"Ġà®µà®³à®ļà®°à®µ":8018,"BSNL":8019,"à®Ĳà®µ":8020,"Ġà®ħà®ķà®ļ":8021,"à®°à®®à®³":8022,"à®®à®©à®ķ":8023,"etting":8024,"Ġdisc":8025,"rome":8026,"ĠNorth":8027,"Ġprotect":8028,"TER":8029,"à®Ĩà®ªà®°":8030,"Ġà®¤à®°à®¨":8031,"Ġmust":8032,"itz":8033,"fr":8034,"èī²":8035,"Ġpa":8036,"Ġ???":8037,"ifest":8038,"à®Łà®°à®®":8039,"Ġà®°à®ļà®¤":8040,"ĠGe":8041,"112":8042,"ĠMachine":8043,"adha":8044,"Ġne":8045,"ĠâĤ¬":8046,"Ġà®¤à®´à®²":8047,"107":8048,"ðŁĴ":8049,"Ġ222":8050,"utes":8051,"Ġwhere":8052,"Ġweekly":8053,"CO":8054,"Ġà®ķà®®à®²à®ķ":8055,"ĠTraining":8056,"ĠFire":8057,"Ġ159":8058,"ĠLaw":8059,"ruit":8060,"Village":8061,"head":8062,"Ġ(âĢľ":8063,"Ġfish":8064,"earing":8065,"ĠKalv":8066,"tures":8067,"Jul":8068,"à®²à®®à®±":8069,"ĠDiv":8070,"ĠDOWNLOAD":8071,"Ġant":8072,"à®ķà®³à®ķà®°à®®":8073,"Ġà®ļà®©à®²":8074,"ĠBlack":8075,"Ġ1942":8076,"Ġà®Ĳà®İà®©":8077,"ĠShare":8078,"Ġà®ĩà®¤à®¯à®ª":8079,",,,,,,,,":8080,"uff":8081,":))":8082,"à®ªà®·":8083,"ĠDef":8084,"ç«":8085,"ĠPRO":8086,"Ġway":8087,"Ġ146":8088,"bi":8089,"Ð¹":8090,"...!":8091,"à¯į?,":8092,"106":8093,"Ġkur":8094,"à®°à®°à®ļà®©":8095,"Ġà®Ĩà®ªà®°à®£":8096,"Ġwin":8097,"ner":8098,"sub":8099,"Ġà®ķà®³à®°":8100,"strology":8101,"legal":8102,"à®¿&":8103,"à®³à®µà®Ļ":8104,"Ġà®Īà®¨":8105,"error":8106,"iver":8107,"peri":8108,"amakkal":8109,"uel":8110,"à®ļà®¹":8111,"ekho":8112,"à¯į,âĢ¦":8113,"arl":8114,"ĠSaturday":8115,"Ġoffice":8116,"augh":8117,"ris":8118,"à®ļà®²à®©":8119,"Ġwell":8120,"1965":8121,"Ġfire":8122,"ivo":8123,"oroscope":8124,"Ġplace":8125,"Ġsmall":8126,"One":8127,"Ã§":8128,"unctions":8129,"Dekho":8130,"ges":8131,"alt":8132,"Ġson":8133,"met":8134,"åĬ":8135,"ĠSa":8136,"Ġ189":8137,"Ġkama":8138,"ĠRa":8139,"olid":8140,"à®Īà®ļà®©":8141,"à¯Ĥà®¾à¯į:":8142,"à¯ĭ(":8143,"1974":8144,"Ð¸ÑĤ":8145,"Ùģ":8146,"âĢ¦âĢ¦.":8147,"Ð·":8148,"à®¤à®²à®Ł":8149,"Ġà®µà®ļà®µ":8150,"Ġcompl":8151,"Ġà®¹à®£":8152,"ĠADMK":8153,"new":8154,"à®Ĳà®¤":8155,"Ġstudent":8156,"Ġà®²à®¸":8157,"thu":8158,"Ġ167":8159,"Ġheart":8160,"è´":8161,"vey":8162,"icip":8163,"alls":8164,"Ġà®ļà®°à®µà®£à®ķ":8165,"illed":8166,"à®Łà®ŀ":8167,"à®°à®ļà®²":8168,"à®³à®¹à®¸":8169,"Ġ141":8170,"ÂłÂłÂłÂłÂł":8171,"ĠGirl":8172,"elling":8173,"MB":8174,"Ġà®ļà®¯à®¨":8175,"Ġà®Łà®¯à®¸":8176,"àµį":8177,"çº":8178,"Ġà®ħà®°à®®":8179,"à®Ĳà®İà®®":8180,"ĠMp":8181,"Ġsuicide":8182,"Ġà®¨à®°à®ªà®²":8183,"Ġà®ļà®ķà®ľ":8184,"udget":8185,"à®µà®ļà®©à®¤":8186,"Ġà®ķà®°à®£à®®":8187,"Ġ340":8188,"ĠPH":8189,"à®²à®ķà®µà®¤":8190,"ĠAP":8191,"à¯įâĢ¦?":8192,"å¯":8193,"Ġ(?)":8194,"à®°à®®à®ķ":8195,"UK":8196,"Ġetc":8197,"gen":8198,"è¿":8199,"à¯ĩ!âĢĻ":8200,"Ð½Ñĭ":8201,"More":8202,"à®²à®µà®Ļ":8203,"illa":8204,"TP":8205,"ption":8206,"It":8207,"ĠEmail":8208,"à®ľà®ªà®Ł":8209,"ĠPriceDekho":8210,"Ø©":8211,"Ġ::":8212,"ĠNat":8213,"ĠmAh":8214,"ĠVish":8215,"à®¾?âĢĻâĢĻ":8216,"ĠALL":8217,"Ġthese":8218,"ategorized":8219,"ĠVs":8220,"à®ĥà®ªà®¤":8221,"éĢ":8222,"Ġà®ļà®µà®°":8223,"à¯ĭà®¾à¯į.":8224,"Ġ330":8225,"ĠÐ¼":8226,"Ġdead":8227,"ĠYouTube":8228,"ïģ":8229,"à®°à®©à®®":8230,"Ġà®ĵà®·":8231,"Ġbefore":8232,"Ġà®ªà®¯à®¸":8233,"anet":8234,"à®ªà®µà®ļ":8235,"ĠTool":8236,"à®µà®Łà®®à®°":8237,"111":8238,"organ":8239,"Ġà®µà®ª":8240,"Ġà®ħà®ķà®Ł":8241,"à®¤à®µà®ļ":8242,"ï¿½ï¿½ï¿½ï¿½ï¿½ï¿½ï¿½":8243,"arning":8244,"ridge":8245,"à®¤à®īà®°":8246,"iler":8247,"ociety":8248,"399":8249,"ĠCD":8250,"Ġà®µà®©à®ķ":8251,"embly":8252,"use":8253,"Ġà®¸à®Ļ":8254,"à¯ĪâĢ¦!":8255,"ĠINDIA":8256,"ĠNav":8257,"Ġsch":8258,"ĠRSS":8259,"eedsam":8260,"icy":8261,"Ġword":8262,"à®Ĭà®©":8263,"IE":8264,"Ġà®īà®´à®µà®©":8265,"ĠManager":8266,"à®İà®¤à®©":8267,"ĠDon":8268,"à¯Įà¯į":8269,"asamy":8270,"à®ļà®²à®ªà®¤":8271,"Ġseries":8272,"Ġofficial":8273,"Ġèĭ":8274,"gl":8275,"rip":8276,"Ġà®ªà®²à®©à®Ł":8277,"ĠArch":8278,"Ġà®Īà®´à®¨":8279,"Ġago":8280,"ĠPass":8281,"à®ĩà®³à®ŀ":8282,"kalvi":8283,"kart":8284,"à®¿âĢĻâĢĻ":8285,"ĠCollege":8286,"à®ļà®©à®©":8287,"ĠWest":8288,"ĠSupeedsam":8289,"ĠBookmark":8290,"Ġà®®à®©à®µà®²":8291,"ĠNetwork":8292,"Ġà®®à®°à®£à®ª":8293,"à¤¯":8294,"à®ľà®£":8295,"Ġ1918":8296,"Google":8297,"à®¤à®µà®©à®®":8298,"à®ªà®°à®ļà®°":8299,"puter":8300,"ĠCons":8301,"Ġrun":8302,"arajan":8303,"Con":8304,"Ġ203":8305,"Ġdata":8306,"à¯ĪâĢĭ":8307,"aps":8308,"à¯ĭ?âĢĿ":8309,"Ġà®ªà®£à®ļ":8310,"Ġ1919":8311,"à®©à®´à®ķ":8312,"Ġà®ħà®ĥ":8313,"à®ªà®°à®°":8314,"Ġwhite":8315,"Ġ377":8316,"MC":8317,"Ġà®µà®²à®ļ":8318,"Ġà®µà®³à®°à®¤":8319,"cy":8320,"1957":8321,"ĠPat":8322,"Ġcountry":8323,"Ġfestival":8324,"ister":8325,"Ġsupplements":8326,"à®¤à®µà®©à®¤":8327,"118":8328,"ournal":8329,"Ġà®ķà®´à®²":8330,"à®¯à®®à®¤":8331,"Ġ187":8332,"iesel":8333,"ettai":8334,"argin":8335,"à®¯à®ķà®Ł":8336,"Ġ1900":8337,"ĠIllegal":8338,"à®¨à®²à®ª":8339,"Ġà®¨à®²à®Ļ":8340,"Ġwords":8341,"255":8342,"3000":8343,"à®¾'.":8344,"ension":8345,"à®¿`":8346,"ental":8347,"ĠIAS":8348,"Ġï¿½ï¿½ï¿½ï¿½ï¿½ï¿½":8349,"Ġ720":8350,"499":8351,"we":8352,"Ġà®ķà®µà®£":8353,"ĠSpace":8354,"ĠShe":8355,"oul":8356,"Ġ156":8357,"à¯ĪâĢĿ,":8358,"à®¾âĢĵ":8359,"Ġà®ķà®²à®ļà®®":8360,"Ġcare":8361,"Ġà®ħà®©à®©":8362,"isation":8363,"Ġbetween":8364,"aker":8365,"ĠBooks":8366,"ĠÐ¿ÑĢ":8367,"ĠBathroom":8368,"å¼Ģ":8369,"ĠShow":8370,"Ġadv":8371,"İį":8372,"Ġ((":8373,"Ġ2025":8374,"1962":8375,"oe":8376,"à®©à®ªà®Ļ":8377,"à®ļà®®à®©":8378,"ĠVol":8379,"alanisamy":8380,"à®®à®²à®®":8381,"ki":8382,"à®µà®¯à®ļ":8383,"Ġà®Ĩà®µà®£à®ķ":8384,"border":8385,"Ġà®Ĳà®ļà®ķ":8386,"ĠSunday":8387,"Ġà®ĩà®²à®¨":8388,"Ġ1835":8389,"ira":8390,"usband":8391,"ĠGST":8392,"uxury":8393,"Part":8394,"Ġcaption":8395,"à®ħà®ªà®°":8396,"anch":8397,"Ġque":8398,"ØŃ":8399,"Ġ310":8400,"ãģ«":8401,"à®ĵà®°à®³à®µ":8402,"ÐµÐ»":8403,"à®®à®¯à®Ļ":8404,"à¯Ī[":8405,"Ġà®ªà®£à®µà®°à®¤":8406,"à®ħà®ķà®°":8407,"Ġà®®à®°à®ķà®¤à®®":8408,"attle":8409,"Ġdistrict":8410,"ĠDistrict":8411,"za":8412,"conom":8413,"Ġà®ķà®°à®ķà®°à®ª":8414,"Ġà®īà®°à®ļà®²":8415,"Ð°Ð»":8416,",,,":8417,"ological":8418,"Ġà®¤à®Łà®ķà®³à®ª":8419,"ĠMas":8420,"ĠCOM":8421,"Ġaway":8422,"BE":8423,"à®ķà®®à®µ":8424,"elle":8425,"ĠHere":8426,"à®īà®¯à®°à®®":8427,"common":8428,"ced":8429,"à®ĩà®´à®ª":8430,"Ġà®¨à®ķà®°à®ķ":8431,"ĠCinem":8432,"à¯Ī......":8433,"eph":8434,"Nadu":8435,"hanush":8436,"ĠAward":8437,"Ġpri":8438,"à®¿?âĢĿ":8439,"isha":8440,"ugal":8441,"-%":8442,"erd":8443,"oni":8444,"ipkart":8445,"anga":8446,"ĠKalvinews":8447,"à®¤à®²à®µ":8448,"Ġchildren":8449,"May":8450,"yal":8451,"Įæīĭ":8452,"thup":8453,"ĠKhan":8454,"arden":8455,"Ġ078":8456,"Ġà®ħà®°à®±":8457,"à®īà®¸":8458,"Ġ163":8459,"Ġà®ľà®²à®®":8460,"Ġvideos":8461,"Ġstring":8462,"ıå·":8463,"Ġà®¨à®¹":8464,"Ġ224":8465,"PF":8466,"ĠSim":8467,"Ġblack":8468,"ĠDevelopment":8469,"Ġà®ªà®¤à®Ļ":8470,"ĠUncategorized":8471,"Ġà®¯à®¯":8472,"à®²à®ķà®ļ":8473,"Ġà®Ĩà®³à®£":8474,"à®µà®²à®°à®£":8475,"DA":8476,"à®Łà®ķà®³":8477,"Ġà®ľà®¤":8478,"ĠPorn":8479,"ading":8480,"uper":8481,"à®²à®µà®¨":8482,"azon":8483,"Exclusive":8484,"ĠDip":8485,"ĠFund":8486,"ĠKh":8487,"aces":8488,"ferent":8489,"ä¸Ńå½©ç¥¨":8490,"lite":8491,"Ġhad":8492,"ban":8493,"à¯Ģ?":8494,"à®ªà®©à®ķ":8495,"ĠJayalal":8496,"à¯į!,":8497,"à¯ģ!'":8498,"akkal":8499,"idth":8500,"ĠInterview":8501,"pungudutiv":8502,"ainews":8503,"board":8504,"ĠSK":8505,"à®±à®µà®±à®®":8506,"à¯Ĩ.,":8507,"à®ħà®°à®ļà®®":8508,"à¯Īà®¾":8509,"Ġà®¤à®²à®ª":8510,"ura":8511,"umm":8512,"Ġà®ıà®Ĩà®°":8513,"ĠDate":8514,"à¯į:))":8515,"Ġaccount":8516,"ĠQuestion":8517,"Ġà®ķà®ļà®¨":8518,"ĠRAM":8519,"Ġ174":8520,"370":8521,"à¯į...âĢĻâĢĻ":8522,"Ġexplet":8523,"ĠFrance":8524,"Ġà®ħà®Łà®ª":8525,"psc":8526,"Ġgoing":8527,"à®İà®²à®ķ":8528,"SW":8529,"actor":8530,"1969":8531,"Ġkm":8532,"Ġval":8533,"åĵ":8534,"à¯Ģ..":8535,"oney":8536,"urch":8537,"à®¯à®ħà®°à®ļ":8538,"à®ĩà®ħà®¤":8539,"îİį":8540,"Ġà®ļà®ķà®²à®®":8541,"Ġfore":8542,"ĠMark":8543,"124":8544,"à¯ģ?.":8545,"uswiss":8546,"loor":8547,"ults":8548,"pungudutivuswiss":8549,"Ġà®ķà®©à®ķà®ļà®ª":8550,"abar":8551,"Qu":8552,"Ġà®ħà®³à®µà®³":8553,"650":8554,"ĠDem":8555,"à®ĩà®²à®µà®ļà®®":8556,"1968":8557,"Ġsay":8558,"ished":8559,"ACK":8560,"à¯ĭ/":8561,"ume":8562,"Ġbuy":8563,"rack":8564,"ĠOrgan":8565,"Ġexpletive":8566,"à¯Ī,âĢĿ":8567,"kan":8568,"vision":8569,"à®¤à®´à®²":8570,"à®ĩà®±à®Ļ":8571,"Ġaccident":8572,"à¯ģ&":8573,"plit":8574,"}.":8575,"à®ķà®¤à®ª":8576,"Ġser":8577,"Ġcelebr":8578,"ivil":8579,"ıå·ŀäº":8580,"My":8581,"Ġpe":8582,"à®°à®£à®©":8583,"Ġ1938":8584,"ĠData":8585,"VI":8586,"Ġà®°à®³":8587,"Ġà®ħà®µà®©à®°":8588,"ivity":8589,"Ġà®Ĩà®Łà®ª":8590,"atural":8591,"Gr":8592,"à®īà®²à®°":8593,"info":8594,"ĠManagement":8595,"ĠAIADMK":8596,"ĠGiz":8597,"Ġkamak":8598,"aser":8599,"ÃĹ":8600,"Ġà®ľà®©à®®":8601,"ıå·ŀäºĮæīĭ":8602,"Ġsocial":8603,"ides":8604,"Ġloc":8605,"realm":8606,"à®°à®Łà®°":8607,"Ġà®®à®¤à®°à®¸":8608,"ĠFriendly":8609,"à®¯à®µà®²":8610,"Ġà®ĵà®İà®©":8611,"Ġ195":8612,"ĠKarn":8613,"Ġtechn":8614,"********************************":8615,"Ġà®µà®°à®¤à®©":8616,"à®ħà®¤à®°":8617,"oli":8618,"Ġà®ªà®°à®®à®¹à®®":8619,"ternet":8620,"Ġà¯Ĩà®¾":8621,"à®Ĩà®ŀ":8622,"ãģ§":8623,"ĠAND":8624,"\":":8625,"inakaran":8626,"Ġbeing":8627,"ĠÑĢ":8628,"à®Łà®ĥà®ª":8629,"1976":8630,"Ġmurder":8631,"TAMIL":8632,"aman":8633,"ĠMK":8634,"ĠCricket":8635,"ĠShar":8636,"duction":8637,"isc":8638,"go":8639,"à®¯à®¨à®®":8640,"à®µà®¤à®¨":8641,"alink":8642,"$$":8643,"thers":8644,"ji":8645,"Ð³":8646,"ĠÑĤ":8647,"Ġhospital":8648,"Ġbusiness":8649,"à®¨à®ŀ":8650,"Ġà®ļà®²à®Ļ":8651,"Ġnon":8652,"Ġà®¾":8653,"ĠSil":8654,"ĠGl":8655,"à®£à®°à®ª":8656,"Ġà®¸à®¹à®¸":8657,"à¯ĪâĢĿ.":8658,"test":8659,"à®ķà®³à®µà®©":8660,"Ġpoint":8661,"ALL":8662,"Labels":8663,"é«ĺ":8664,"à®®à®³à®®":8665,"ĠAPP":8666,"ĠProgram":8667,"rike":8668,"]:":8669,"ĠBhar":8670,"115":8671,"Ġà®ªà®²à®µà®°":8672,"113":8673,"ĠInternet":8674,"à®Łà®¤à®Ļ":8675,"ĠWi":8676,"Ġà®ªà®´à®ķà®µ":8677,"à®ªà®±à®¤":8678,"à¯įâĢĻ-":8679,"Ġpath":8680,"ĠØ¹":8681,"Ġà®ĵà®³":8682,"ĠMen":8683,"jay":8684,"à®°à®³à®¯à®®":8685,"à®¿à¯ĩ":8686,"à®ķà®µà®©à®¤":8687,"ĠWhy":8688,"ĠForum":8689,"realmatrimony":8690,"1930":8691,"Ġwatch":8692,"Ġeyes":8693,"à®ħà®ļà®²":8694,"ering":8695,"themes":8696,"eni":8697,"à®¨à®°à®ķ":8698,"akumari":8699,"ella":8700,"ĠRajini":8701,"à®ªà®³à®ķ":8702,"ĠâĢº":8703,"ĠMov":8704,"à¯ģ||":8705,"à¯į,(":8706,"à®ħà®²à®ķ":8707,"à®¯à®ķà®ļ":8708,"ĠCustom":8709,"149":8710,"GK":8711,"âĤ":8712,"uts":8713,"à®ķà®®à®¯à®®":8714,"Ġèĭıå·ŀäºĮæīĭ":8715,"à®Ĩà®´à®®":8716,"Ġà®ªà®´à®µ":8717,"Ġ1929":8718,"Ġcard":8719,"Ġfin":8720,"otal":8721,"ĠPrint":8722,"à®¤à®ľ":8723,"à¯į.âĢ¦":8724,"à¯Ī?âĢĿ":8725,"ĠPolitical":8726,"enefits":8727,"à®¤à®°à®µà®°":8728,"Ġà®īà®£à®µà®ķ":8729,"Ġ1931":8730,"Ġsound":8731,"ĠRupee":8732,"airs":8733,"ĠâĢŀ":8734,"aiv":8735,"aughter":8736,"menu":8737,"Ġà®ıà®µà®²à®°":8738,"à®Ĩà®¤à®°":8739,"Ġsand":8740,"ĠDinamani":8741,"Ġhand":8742,"Ùĥ":8743,"à®²à®¤à®®":8744,"Ġà®¨à®¯à®¤":8745,"Ġà®ĵà®¤à®ª":8746,"à¯ĢâĢĿ":8747,"ouncil":8748,"ä¼ļ":8749,"à®ļà®ķà®µ":8750,"ĠCal":8751,"rs":8752,"Ġà®¹à®¯à®ķ":8753,"109":8754,"Ġtotal":8755,"Ġà¯©":8756,"Ġà®¤à®µà®±à®²":8757,"umer":8758,"234":8759,"Ġ1911":8760,"1949":8761,"à¯Ī.....":8762,"ãģ¦":8763,"ĠContact":8764,"Ġ1926":8765,"Ġproble":8766,"Ġmeeting":8767,"ĠSu":8768,"Ġaction":8769,"Ġ169":8770,"Ġreleased":8771,"ĠBi":8772,"allen":8773,"ĠSmart":8774,"('":8775,"win":8776,"used":8777,"ippu":8778,"à®´à®ķà®ļ":8779,"ĠLab":8780,"à®ķà®ļà®¤":8781,"à¯Īà¯Ĭ":8782,"Ġà®ķà®ļà®Ł":8783,"Ġà®ªà®°à®°":8784,"ĠBack":8785,"Ġoffset":8786,"left":8787,"ĠHard":8788,"ried":8789,"Ġà®ħà®ľà®¨":8790,"PA":8791,"SI":8792,"Ġà®µà®³à®µà®©":8793,"ength":8794,"ĠGizbot":8795,"Ġà®ªà®°à®µà®ķ":8796,"scripts":8797,"à®¾à®¾à®¿":8798,"à®ªà®¤à®Ł":8799,"Ġà®¯à®¸":8800,"ĠCount":8801,"Ġà®ķà®Łà®²à®Ł":8802,"à®ķà®³à®ļ":8803,"à®µà®Łà®¤":8804,"amav":8805,"à®©à®µà®ª":8806,"ĠAv":8807,"akarthik":8808,"à®°à®ķà®£":8809,"Ġà®ªà®°à®ªà®°":8810,"Ġkey":8811,"ĠTechnology":8812,"170":8813,"à®®à®°à®ªà®£":8814,"ĠSeith":8815,"à®ªà®©à®ª":8816,"Ġà®ĩà®¤à®¯à®ķ":8817,"ĠWellawatte":8818,"Ð¾Ð³":8819,"ĠPresident":8820,"Oct":8821,"ĠKey":8822,"Sri":8823,"bl":8824,"Ġec":8825,"Ġà®¤à®¯à®°":8826,"ĠâĢ¦..":8827,"All":8828,"ĠRet":8829,"akash":8830,"utpa":8831,"ãĥ¼":8832,"CL":8833,"onn":8834,"ĠMicrosoft":8835,"Ġsim":8836,"Ġ188":8837,"National":8838,"à¯į?)":8839,"Ġmiss":8840,"à¤®":8841,"functions":8842,"à¯ģ.''":8843,"Key":8844,"à®©à®ļà®ª":8845,"à®´à®µà®¨":8846,"Ġà®¤à®µà®©":8847,"ians":8848,"tnkalvi":8849,"HI":8850,"Ġ1905":8851,"araja":8852,"à®µà®²à®ķà®ķ":8853,"à®Ĳà®Ļ":8854,"ffic":8855,"overnor":8856,"ĠDrive":8857,"Ġ275":8858,"Ġà®Ĭà®Łà®ķà®ļ":8859,"220":8860,"Ġcategory":8861,"fect":8862,"ĠMic":8863,"words":8864,"Ġwant":8865,"ophy":8866,"à¯ĭ?\"":8867,"à®Łà®ķà®µ":8868,"à®¸à®µà®®":8869,"eve":8870,"à¯ĩ.....":8871,"Ġà¯Ń":8872,"Ġ/>":8873,"ĠJava":8874,"Ġà®¹à®°à®ª":8875,"à¯ĩ.âĢĿ":8876,"Ġopp":8877,"Ð°ÑĢ":8878,"oom":8879,"à®²à®ªà®²":8880,"irc":8881,"âĢĮ,":8882,"Sur":8883,"oin":8884,"tel":8885,"una":8886,"ifestyle":8887,"eration":8888,"Sw":8889,"Ġà®ķà®£à®ª":8890,"Ġà®ĩà®µà®³à®¤":8891,"ĠCard":8892,"Ġà®ļà®®à®¯à®ļ":8893,"Ġreport":8894,"uge":8895,"wa":8896,"MeToo":8897,"ĠKarnataka":8898,"à®Ĩà®²à®Ļ":8899,"Ġvict":8900,"Ġpermalink":8901,"PU":8902,"à®©à®Łà®ª":8903,"Ġfunction":8904,"à¥Ģ":8905,"Ġà®Ĩà®¤à®©":8906,"à®ħà®®à®®":8907,"ĠBoard":8908,"Ġà®ķà®ļà®ķà®ļ":8909,"poration":8910,"ĠMess":8911,"Ġpage":8912,"Ġbel":8913,"Ġà®©à®¤":8914,"Ġfield":8915,"ĠUl":8916,"rown":8917,"ittle":8918,"Ġà®ĩà®°à®¨":8919,"Ġul":8920,"à®³à®°à®®":8921,"Ġport":8922,"ĠStr":8923,"ĠAdmin":8924,"ÙĤ":8925,"à®Łà®²à®ª":8926,"ĠSoftware":8927,"indi":8928,"Ġpdf":8929,"à¯ģâĢĺ":8930,"Ġà®ķà®ľà®ķ":8931,"Ġ512":8932,"alaxy":8933,"Ġà®µà®Łà®ĩà®¨":8934,"ora":8935,"à®īà®¤à®¯":8936,"tainment":8937,"ĠIM":8938,"ĠStar":8939,"à®±à®®à®²":8940,"à®µà®ļà®©à®Ļ":8941,"Ġà®Ĩà®Łà®¤":8942,"Ġà®ħà®µà®ļà®°à®¨":8943,"Ġà®ĥà®ªà®ķ":8944,"åĮ":8945,"à®ªà®¯à®µ":8946,"Ġmot":8947,"ĠFlash":8948,"EG":8949,"à®µà®¯à®ª":8950,"Ġ178":8951,"ĠUp":8952,"ĠSettings":8953,"190":8954,"1973":8955,"ĠFront":8956,"ĠTips":8957,"ĠNan":8958,"å¹´":8959,"à¯į???":8960,"135":8961,"Ø§ÙĨ":8962,"ĠAssistant":8963,"Ġ172":8964,"à®ıà®®à®©":8965,"Ġlast":8966,"Ġprogram":8967,"ĠServices":8968,"Ġ1944":8969,"ĠPhil":8970,"ĠLev":8971,"Ø§ÙĦ":8972,"ĠUSB":8973,"ei":8974,"Ġà®ħà®¤à®²":8975,"Ġà®ĩà®©à®ħà®´":8976,"Ġà®²à®µà®Ļ":8977,"ĠAre":8978,"?.":8979,"Ġà®°à®®à®£à®°":8980,"Ġà®ļà®®à®£à®¤":8981,"ĠNamakkal":8982,"Ġdam":8983,"Ġà®ļà®£à®²":8984,"aving":8985,"Ġà®¤à®ľ":8986,"ĠCtrl":8987,"à¯ģ..âĢĿ":8988,"Ġshort":8989,"HD":8990,"Ġà®Īà®´à®µ":8991,"ĠSarkar":8992,"Ġ?.":8993,"Ġà®¤à®Łà®¯à®®":8994,"ĠCity":8995,"ecut":8996,"TY":8997,"à¯įà®¾":8998,"à®Łà®µà®²":8999,"Ġleader":9000,"à®ķà®´à®Ł":9001,"ĠTET":9002,"Ġà®Ĩà®±à®°":9003,"ref":9004,"à¯įà¯į":9005,"Ġà®ķà®ħà®ª":9006,"304":9007,"136":9008,"apan":9009,"For":9010,"Ġà®·à®¹":9011,"Ġ1936":9012,"Ġà®¤à®ªà®ļ":9013,"380":9014,"rup":9015,"Ġà®®à®ļà®ķ":9016,"à®¯à®®à®®":9017,"1964":9018,"à®¹à®£":9019,"à¯į'-":9020,"ĠLead":9021,"ukudi":9022,"bps":9023,"aith":9024,"ĠDVD":9025,"Ġà®ķà®µà®°à®µ":9026,"ĠAssociation":9027,"%.":9028,"%;":9029,"à®©à®¤à®¯":9030,"ising":9031,"epend":9032,"ales":9033,"ĠCL":9034,"wali":9035,"à®±à®°à®¤":9036,"Ġà®ľà®ķà®©":9037,"Ġà®ĩà®²à®µà®ļà®ª":9038,"ĠSocial":9039,"à®Īà®ļ":9040,"````":9041,"Ġà®ĵà®°à®ķ":9042,"ĠPC":9043,"Ġlaw":9044,"ĠUnd":9045,"Ê²":9046,"à®¤à®®à®©à®®":9047,"à®İà®©à®ª":9048,"Ġ1910":9049,"Ġ239":9050,"Ġtrees":9051,"aar":9052,"Ġà®ĵà®£":9053,"Ġmod":9054,"à®¤à®ļà®°":9055,"Ġ1937":9056,"estions":9057,"à¯Ī.(":9058,"Ò»Ð¤":9059,"ĠCareer":9060,"æľĪ":9061,"225":9062,"pad":9063,"ermalar":9064,"à®ĩà®´à®¨":9065,"à®¯à®®à®©à®ķ":9066,"ops":9067,"Ġproject":9068,"Ġà®ĩà®±à®µ":9069,"ĠComputermalar":9070,"ĠAbout":9071,"à®Ĳà®©":9072,"à®ħà®®à®°à®°":9073,"!âĢĻ":9074,"à®īà®®à®°":9075,"ĠLondon":9076,"146":9077,"Pol":9078,"Ġà®Īà®Łà®©":9079,"ĠCR":9080,"à®Łà®£à®ķ":9081,"ellig":9082,"rant":9083,"Ġà®Ĳà®Ĩà®°":9084,"ĠFood":9085,"Ġà®ķà®ļà®Ļ":9086,"à®Ĩà®²à®¯":9087,"Ġà®ªà®²à®¤à®Łà®µ":9088,"ĠCommunity":9089,"126":9090,"Ġrece":9091,"à®¤à®ķà®³":9092,"ĠPo":9093,"Ġmost":9094,"ãģ¨":9095,"Ġåħ":9096,"ĠBSNLEU":9097,"Ġà®ħà®¤à®©à®¤":9098,"Ġinv":9099,"Ġvisit":9100,"ĠIf":9101,"à®Īà®ª":9102,"Ġsomething":9103,"XT":9104,"Ġmusic":9105,"Ġà®®à®²à®Ļ":9106,"ĠCO":9107,"ĠÂ°":9108,"Ġsongs":9109,"Kar":9110,"à®ļà®£à®Ļ":9111,"Ġà®ĵà®¸":9112,"éľ":9113,"à¯į</":9114,"Ġà®ªà®°à®µà®µ":9115,"unk":9116,"Ġappear":9117,"ĠKollywood":9118,"à¯Ĺ":9119,"Ġà®ħà®´à®ķà®®":9120,"Par":9121,"Ġà®®à®Łà®ª":9122,"Ġ1921":9123,"âĹ":9124,"ĠATM":9125,"ĠVar":9126,"ancer":9127,"ECT":9128,"35801":9129,"Ġheroine":9130,"Îµ":9131,"à¯Ī_":9132,"rem":9133,"à¯ĩ!!!":9134,"Ġà®ĵà®Łà®®":9135,"Ġà®ķà®©à®©":9136,"à®ªà®°à®®à®ķ":9137,"à®Łà®¯à®®à®²":9138,"di":9139,"asam":9140,"chan":9141,"Ġnumber":9142,"Ġreal":9143,"ĠWashing":9144,"::":9145,"Ham":9146,"NC":9147,"Ġà®®à®µà®©":9148,"Ġà®²à®¹":9149,"Ġà®ķà®©à®ķà®ļ":9150,"Ø²":9151,"à®ªà®±à®¨":9152,"à®Ĳà®Ĩà®°":9153,"Ã½":9154,"137":9155,"Ð¸Ñı":9156,"Script":9157,"ĠTimes":9158,"Ġmm":9159,"ithaa":9160,"ĠCoimbatore":9161,"Ġpublic":9162,"aigal":9163,"119":9164,"Ġà®ķà®£à®¨":9165,"eness":9166,"ĠGB":9167,"Ġforest":9168,"ðŁĺĤðŁĺĤ":9169,"yl":9170,"ĠPakistan":9171,"asikala":9172,"à®ªà®¯à®¤":9173,"Ġà®ªà®¤à®¨":9174,"ĠDCW":9175,"à®Ĭà®µ":9176,"Ġpaper":9177,"Ġdark":9178,"168":9179,"ulam":9180,"Ġsecond":9181,"âĸ¬":9182,"KAR":9183,"×Ļ":9184,"à¯ģ.âĢ¦":9185,"à®ķà®Łà®¹à®°":9186,"Ġà®Ĭà®´à®²à®±":9187,"minist":9188,"Ġà®¯à®ľ":9189,"à®±à®°à®ļ":9190,"Ġà®ªà®Łà®ªà®Łà®µ":9191,"à¯į...âĢĻ":9192,"1945":9193,"Ġwr":9194,"ĠPublic":9195,"à®ļà®µà®²":9196,"à®¨à®¸":9197,"à®¨à®ľ":9198,"Ġpad":9199,"Ġchar":9200,"å¸":9201,"à®ĥà®°":9202,"Ġà®©à®®":9203,"çİĭ":9204,"Ê²Ã´":9205,"Ġà®Ĵà®Łà®®":9206,"à¯ģ,,":9207,"ĠQual":9208,"ĠDisc":9209,"akarthikeyan":9210,"UE":9211,"Ġà®ļà®ķà®²à®µ":9212,"Ġà®Ĩà®·à®¸":9213,"III":9214,"Ġà®ķà®ªà®Łà®®":9215,"ĠCr":9216,"Ġaut":9217,"122":9218,"Ġ?\"":9219,"Ġà®İà®ľ":9220,"ca":9221,"à®¾).":9222,"Ġfollow":9223,"Ġkamakathai":9224,"IFA":9225,"ĠSingh":9226,"oothukudi":9227,"Ġwon":9228,"ĠEconom":9229,"ply":9230,"ĠPundai":9231,"Ġprom":9232,"stand":9233,"Ġinterview":9234,"Ġà®ħà®°à®³":9235,"ily":9236,"Ġtree":9237,"ĠDesign":9238,"Ġà®ľà®¯à®°à®¤":9239,"Ġ245":9240,"à¯ĩ..?":9241,"ĠSubscribe":9242,"mir":9243,"world":9244,"agh":9245,"andh":9246,"ycle":9247,"nb":9248,"ĠWar":9249,"à®¾à¯Ĩ":9250,"Ġà®İà®´à®ķ":9251,"Ġà®īà®¯à®°à®µ":9252,"à¯ĩ?âĢĻ":9253,"ĠSecurity":9254,"Ġà®®à®¯à®©":9255,"Ġspread":9256,"ULL":9257,"nav":9258,"tu":9259,"Ġà®īà®³à®±à®²":9260,"ãģŁ":9261,"ĠWhatsApp":9262,"coil":9263,"ĠBSc":9264,"ĠMedical":9265,"Ġà®ªà®£à®Ļ":9266,"Ġtown":9267,"Ġ216":9268,"1940":9269,"ĠBas":9270,"Ġ184":9271,"ĠJust":9272,"ĠÂ´":9273,"138":9274,"Ġà®īà®¯à®°à®Ļ":9275,"à®¿!âĢĿ":9276,"176":9277,"key":9278,"à®ĩà®°à®ļ":9279,"apore":9280,"à®ŀà®®":9281,"Ġà®Ĩà®±à®Ł":9282,"ikram":9283,"Res":9284,"ïĥ":9285,"Ġà®ªà®ĥà®ª":9286,"Ġ737":9287,"ĠTamilar":9288,"imal":9289,"////////":9290,"ĠRespons":9291,"à¯į.</":9292,"Ġ173":9293,"117":9294,"à®©à®¤à®¤":9295,"à®³à®ŀ":9296,"Ġkn":9297,"116":9298,"ä¸Ńçī¹":9299,"Ġà®īà®¤à®¯à®£à®©":9300,"ĠLank":9301,"iger":9302,"Ġà®ıà®µà®²à®©":9303,"ĠKal":9304,"ulthan":9305,"Ġur":9306,"Ġà®®à®ķà®µ":9307,"Ġà®ħà®°à®ļà®ª":9308,"ĠCEO":9309,"ĠLuxury":9310,"256":9311,"Ġep":9312,"à®£à®³à®µ":9313,"rel":9314,"Ġà®ħà®ķà®²à®µ":9315,"MI":9316,"à¯įâĢ":9317,"Ġà®ķà®¤à®ķà®³":9318,"114":9319,"anyakumari":9320,"bed":9321,"æķ":9322,"ola":9323,"Ġ.......":9324,"à¯ĪâĢ¦âĢĿ":9325,"atory":9326,"à®¾,''":9327,"Ġ1934":9328,"Ġ2050":9329,"ĠâĪĴ":9330,"Ð½Ð¾":9331,"à®©à®´":9332,"Ġà®Ĩà®Ĩà®Ĩ":9333,"à®µà®©à®ļ":9334,"thod":9335,"ĠChina":9336,"à®¯à®¨à®ķà®°":9337,"ayanth":9338,"Ġà®ķà®´à®ķà®ļ":9339,"ancy":9340,"à®°à®µà®Ł":9341,"à®Ĩà®µà®£":9342,"à®ªà®¯à®¨":9343,"cean":9344,"Ġà®ķà®¹":9345,"à®¯à®µà®£":9346,"Ġretur":9347,"Ġà¨":9348,"ĠSem":9349,"IVE":9350,"ĠWeek":9351,"à®¿..!!":9352,"ĠMod":9353,"uty":9354,"=>":9355,"Ð¶":9356,"Ġmess":9357,"ourse":9358,"Ġbecome":9359,"ERS":9360,"Ġlett":9361,"åıĳ":9362,"Sep":9363,"Ġà®Ĵà®®à®°":9364,"Ġjaffna":9365,"pic":9366,"à¯Ī.//":9367,"à®³à®µà®³":9368,"à¯į..,":9369,"Ġà®ĥà®ªà®¤":9370,"à®ļà®°à®Ł":9371,"Ġ375":9372,"è¡":9373,"à®ļà®¤à®¤":9374,"à®ķà®³à®¯":9375,"Ġcamp":9376,"agiri":9377,"acter":9378,"ouble":9379,"VikatanExclusive":9380,"à®ļà®°à®°":9381,"ategories":9382,"Download":9383,"çľ":9384,"à®ļà®µà®ª":9385,"à®ļà®°à®Ļ":9386,"à®°à®ķà®¸":9387,"à¯į...........":9388,"Ġking":9389,"ĠCompany":9390,"Ġà®Ĳà®µ":9391,"/=,":9392,"ville":9393,"Hz":9394,"yan":9395,"Ġ978":9396,"ĠRC":9397,"ĠONL":9398,"ootball":9399,"à¯į!-":9400,"Ġvi":9401,"Ġà®īà®ªà®ķà®°à®£à®®":9402,"auty":9403,"SD":9404,"Ġà®Ĭà®ķà®®":9405,"Ġsuper":9406,"etic":9407,"à¯į);":9408,"Ġdue":9409,"Ġà®ħà®ĩà®ħà®¤":9410,"ĠAjith":9411,"Ġsis":9412,"Ġà®ķà®¯à®¨":9413,"à®¾!!!":9414,"okes":9415,"ĠiPhone":9416,"Ġbrowser":9417,"à®ļà®Łà®²à®®":9418,"çīĩ":9419,"Ġer":9420,"à®¯à®°à®ª":9421,"Ġà®¤à®°à®©":9422,"ĠNow":9423,"à®®à®²à®©":9424,"Ġ290":9425,"ssue":9426,"à°¿":9427,"link":9428,"ĠMA":9429,"Ġwould":9430,"ĠUnion":9431,"à®īà®¨":9432,"à¯ģ!)":9433,"Ġcap":9434,"1952":9435,"azine":9436,"ĠSupreme":9437,"Video":9438,"Ġà®ĩà®¤à®ª":9439,"iff":9440,"Ġchange":9441,",;":9442,"ĠOut":9443,"Ġà®µà®¸à®¨":9444,"ĠPaul":9445,"Î½":9446,"asing":9447,"Ġà®ľà®¯à®®":9448,"oop":9449,"Ġrequest":9450,"222":9451,"à®°à®·à®©":9452,"Ġ208":9453,"à®¿}":9454,"ĠJunior":9455,"JU":9456,"145":9457,"FF":9458,"Gu":9459,"à®µà®£à®¤":9460,"ĠPaper":9461,"He":9462,"ĠUr":9463,"ĠÃ£":9464,"Ġclick":9465,"cer":9466,"ĠISBN":9467,"Ġà®ķà®¯à®®":9468,"berg":9469,"à°¾":9470,"ĠParty":9471,"à¯į;,":9472,"à¯Į;":9473,"add":9474,"Ġshar":9475,"à®¤à®ļà®ķ":9476,"Is":9477,"à®°à®£à®ķà®°":9478,"Ġ1928":9479,"1920":9480,"Ġface":9481,"à®¿!!!":9482,"anger":9483,"ĠEngineering":9484,"Ġincre":9485,"perience":9486,"à®ķà®µà®®":9487,"175":9488,"à®°à®¹à®¤":9489,"Ġgroup":9490,"éĩ":9491,"à®Łà®°à®¤":9492,"à¯ģ??":9493,"thik":9494,"Ġà®¤à®µà®ª":9495,"Ġmem":9496,"agercoil":9497,"âĢľâĢĿ":9498,"ĠCap":9499,"165":9500,"ession":9501,"à¤Ĥ":9502,"Ġà®ıà®ľà®©":9503,"Cinema":9504,"Ġà®ĩà®°à®ª":9505,"oma":9506,"ĠCall":9507,"à®©à®²à®Ł":9508,"atti":9509,"Off":9510,"margin":9511,"ĠInf":9512,"afe":9513,"Ġà®ħà®ķà®ķ":9514,"Ġarticleà®ķ":9515,"Ġà®ħà®¤à®ķà®³à®®":9516,"Ġwind":9517,"à®Ĭà®ļ":9518,"Ġjew":9519,"Ġ206":9520,"ĠVal":9521,"à®ªà®Łà®©":9522,"à®ıà®²à®ķ":9523,"Cont":9524,"Ġ202":9525,"à®¨à®Łà®®":9526,"ĠPress":9527,"ĠWrit":9528,"ducts":9529,"thupathi":9530,"à¯Ĩà¯Ĺ":9531,"à¯ģ+":9532,"à®ĩà®°à®ķ":9533,"à¯ĩâĢĻ,":9534,"ection":9535,"Ġ1935":9536,"Ġsisulthan":9537,"à®²à®ķà®£à®Ļ":9538,"129":9539,"uclear":9540,"à®ľà®©à®©":9541,"Gen":9542,"Ïģ":9543,"Ġà®¤à®©à®°":9544,"ends":9545,"Ġinteresting":9546,"Ġà®Ĩà®®à®£à®ķ":9547,"Ġ303":9548,"Ġstand":9549,"Ġelect":9550,"ĠReport":9551,"GM":9552,"ni":9553,"à¯Ī,''":9554,"ĠElection":9555,"à®°à®©à®¤":9556,"à®¾Â¢":9557,"ĠâĢĺ,":9558,"ulation":9559,"åºĵ":9560,"âĸ¬âĸ¬":9561,"à®®à®ļà®°":9562,"ĠPlus":9563,"à®ĩà®³à®µ":9564,"Ġtrain":9565,"1966":9566,"Space":9567,"å§":9568,"ĠTax":9569,"></":9570,"\")[":9571,"iod":9572,"à®©à®µà®ķ":9573,"Jan":9574,"ilit":9575,"Ġ194":9576,"à¯ģ...?":9577,"Ġ%>":9578,"Ġà®Ĩà®ķà®°":9579,"à®°à®ķà®Ł":9580,"ĠTrichy":9581,"ĠLim":9582,"apettai":9583,"Ġà®²à®©":9584,"ĠUs":9585,"iyam":9586,"lams":9587,"à®¯à®²à®©":9588,"Ġ301":9589,"Ġ<%":9590,"Ġmarriage":9591,"Hamster":9592,"Ã¢":9593,"à®®à®®à®ķ":9594,"à®ļà®ķà®ļ":9595,"Ġà®µà®²à®Ļ":9596,"ĠAy":9597,"RA":9598,"Ġbaby":9599,"ules":9600,"à®°à®®à®¯à®®":9601,"anm":9602,"hiw":9603,"ĠClick":9604,"à®ªà®£à®µ":9605,"Ġà®ľà®ļ":9606,"Ġà®¤à®©à®Ļ":9607,"Ġ183":9608,"ãģª":9609,"ĠYar":9610,"Ġarticleà®ª":9611,"å°ı":9612,"IPL":9613,"SH":9614,"ĠPal":9615,"Vivo":9616,"à®²à®©à®±":9617,"Ġ272":9618,"lands":9619,"Ġà®ĩà®¤à®©à®Ł":9620,"ags":9621,"éĽ":9622,"Ġ1913":9623,"Ġï¿½ï¿½ï¿½ï¿½ï¿½":9624,"utcham":9625,"à®ħà®¯à®©":9626,"ersion":9627,"à®£à®°à®ļ":9628,"ademy":9629,"Sub":9630,"Ġà®ªà®°à®¤à®®":9631,"à®ªà®©à®©":9632,"arb":9633,"ĠVa":9634,"ambaram":9635,"ĠÂłĠÂłĠÂłĠÂłĠÂłĠÂłĠÂłĠÂłĠÂłĠÂłĠÂłĠÂłĠÂłĠÂłĠÂłĠÂłĠÂłĠÂłĠÂłĠÂłĠÂłĠÂłĠÂłĠÂłĠÂłĠÂłĠÂłĠÂłĠÂłĠÂłĠÂłĠÂł":9636,"ĠHeadlines":9637,"Ġ***":9638,"ened":9639,"Ġfather":9640,"rial":9641,"perties":9642,"à®ķà®¯à®²":9643,"à®£à®±à®Ł":9644,"ĠOfficer":9645,"Ġîİį":9646,"Ġà®ĩà®´à®µ":9647,"ĠBaby":9648,"Ġlog":9649,"139":9650,"Ð¾ÑĤ":9651,"à¯Ī,\"":9652,"ĠYoutube":9653,"orge":9654,"ĠxHamster":9655,"Ø¬":9656,"à®¯à®¨à®²à®µ":9657,"Ð½Ð¸":9658,"Ġå¤§":9659,"gar":9660,"ĠFound":9661,"æĥ":9662,"à®ķà®²à®µà®°à®Ļ":9663,"uration":9664,"Ġà®ĵà®µà®©":9665,"ĠNon":9666,"Ġà®īà®ªà®¤à®²":9667,"awatha":9668,"ĠTeam":9669,"à®¤à®ķà®®à®±":9670,"ãĤĴ":9671,"Dec":9672,"ĠMath":9673,"Ġcustom":9674,"ĠHospital":9675,"35800":9676,"Ġsince":9677,"Ġkalv":9678,"Ġrev":9679,"Ġservice":9680,"dh":9681,"vt":9682,"à®¤à®¯à®ª":9683,"Ġà®®à®±à®µà®©":9684,"âĢ¦!":9685,"Ġbigg":9686,"ĠUP":9687,"Ġru":9688,"ç®":9689,"à®¯à®°à®©":9690,"à®ķà®©à®ķà®°":9691,"ĠâĢĽ":9692,"abu":9693,"anced":9694,"gy":9695,"à¯Ĥ:":9696,"oru":9697,"Ġà®ĥà®ªà®¯à®°":9698,"ĠParking":9699,"SR":9700,"Ġà®Ĩà®¯à®©à®°":9701,"Ġemploy":9702,"Ġ193":9703,"à¯ĩ!'":9704,"Ġ179":9705,"153":9706,"Or":9707,"à®µà®ķà®²":9708,"Ġà®ĩà®©à®°":9709,"Ġ1700":9710,"Ġamma":9711,"action":9712,"à®Łà®ļà®¨":9713,"alf":9714,"ĠPe":9715,"2021":9716,"ĠLabels":9717,"Ġpolitical":9718,"ià®¯":9719,"à®²à®¹":9720,"quot":9721,"à®²à®ħà®µà®ķ":9722,"Ġnight":9723,"ÐµÐ¼":9724,"GC":9725,"ĠNET":9726,"Ġ186":9727,"urance":9728,"EY":9729,"VP":9730,"Ġ1932":9731,"Ġtall":9732,"Ġà®ªà®µà®³à®ª":9733,"ĠSecret":9734,"ayanthara":9735,"Ġ380":9736,"ĠBig":9737,"Ġ181":9738,"Ġ1908":9739,"ĠSen":9740,"irit":9741,"isease":9742,"Ġphone":9743,"152":9744,"à®¾à®¾":9745,"Ġà®µà®°à®µà®°":9746,".;":9747,"ĠLog":9748,"Ġgets":9749,"å¿ĥæ°´":9750,"Ġà®ķà®ªà®®":9751,"à®¤à®°à®¨":9752,"ollar":9753,"à®£à®°à®Ł":9754,"Ġhistory":9755,"Ġlight":9756,"ima":9757,"pol":9758,"à®¯à®°à®²":9759,"ĠMoh":9760,"ĠWatch":9761,"wiki":9762,"à®µà®°à®ļà®©":9763,"Ġà®īà®Łà®²à®³à®µ":9764,"ĠMeet":9765,"ĠPuth":9766,"235":9767,"WOR":9768,"Ġà®ªà®°à®Ł":9769,"Ġà®Ĩà®²à®¯à®ª":9770,"ãģĻ":9771,"ĠSave":9772,"Ġspeech":9773,"à¯į.--":9774,"à®·à®¨":9775,"ĠNagercoil":9776,"Ġstyle":9777,"à¤µ":9778,"ĠONLINE":9779,"à®Łà®®à®¤":9780,"Ġfram":9781,"ãģĮ":9782,"Ġbeauty":9783,"ĠCareerindia":9784,"Ġà®ĥà®ªà®©":9785,"Ġà®ħà®²à®ļà®ª":9786,"Ġtoo":9787,"ĠWord":9788,"237":9789,"%),":9790,"Ġà®ķà®²à®ķà®²à®µ":9791,"Ġà®¤à®ķà®®":9792,"...âĢĿ":9793,"Â§":9794,"Ġ325":9795,"Ġ4380":9796,"Ġ232":9797,"åħ¬":9798,"GO":9799,"à®ªà®³à®°":9800,"à®©à®°à®Ļ":9801,"ĠSnap":9802,"iti":9803,"ĠOper":9804,"Ġbecause":9805,"Ġgovt":9806,"Ġà®ļà®°à®µà®£à®®":9807,"à¯Ģà®¾à¯į,":9808,"148":9809,"ĠCinemapettai":9810,"299":9811,"ĠSat":9812,"Ġà®Ĭà®°à®±":9813,"Ġaunty":9814,"Ġà®ĵà®®à®®":9815,"ĠMac":9816,"Ġop":9817,"ÏĤ":9818,"ugu":9819,"Ġfrag":9820,"Ġà®ªà®ļà®ª":9821,"liament":9822,"erk":9823,"Ġ1943":9824,"Ġgl":9825,"à¯Ī'.":9826,"ĠÐ±":9827,"Hub":9828,"ĠStudy":9829,"ĠRahul":9830,"Bl":9831,"å¥ĸ":9832,"reed":9833,"unelv":9834,"Ġbeg":9835,"à¯Ī.[":9836,"ĠPerches":9837,"Ġ171":9838,"nect":9839,"Ġ4500":9840,"yahoo":9841,"eman":9842,"Ġà®®à®²à®ļà®²à®ķ":9843,"Ġà®ķà®´à®ķà®ķ":9844,"Vir":9845,"à¯Ī..!!":9846,"ĠÐ·":9847,"rypt":9848,"Ġå¤©å¤©ä¸Ńå½©ç¥¨":9849,"ĠChar":9850,"Ġplan":9851,"Ġ243":9852,"eepam":9853,"%-":9854,"à®ļà®²à®Ļ":9855,"à®¨à®°à®ķà®®":9856,"inga":9857,"CI":9858,"å®¶":9859,"à®ªà®µà®ķ":9860,"à®īà®®à®¤":9861,"Ġsep":9862,"Ġupdated":9863,"!'":9864,"Ġà®ļà®ĥà®ª":9865,"dr":9866,"à®°à®ļà®¤":9867,"Ġ1914":9868,"Ġ213":9869,"Ġ218":9870,"à®ĩà®°à®ŀ":9871,"ĠBBC":9872,"ĠGreat":9873,"ĠTwo":9874,"ĠMc":9875,"Ġcur":9876,"icken":9877,"à°°":9878,"embers":9879,"à®ķà®£à®©":9880,"ona":9881,"ĠLo":9882,"unelveli":9883,"à®¾`":9884,"Ġå½":9885,"LC":9886,"à¯į#":9887,"Ġà®ļà®ķà®ª":9888,"ili":9889,"ooting":9890,"ĠJavaScript":9891,"Ġà®¨à®¯à®¨":9892,"Ġà®¯à®®à®¹":9893,"1958":9894,"Ġaward":9895,"heal":9896,"Ġà®¤à®Łà®ķ":9897,"ĠCode":9898,")))":9899,"bb":9900,"asar":9901,"ayer":9902,"ĠAng":9903,"emplate":9904,"Ġfeel":9905,"avu":9906,"ĠJohn":9907,"550":9908,"GE":9909,"ye":9910,"Ġà¯Ģ":9911,"atri":9912,"Ġà®ķà®¤à®ķà®¤à®ª":9913,"à®¾..âĢĿ":9914,"GP":9915,"inter":9916,"Ġà®ļà®¤à®¯à®®":9917,"ĠSir":9918,"à¯Ī::":9919,"206":9920,"ĠPhoto":9921,"mon":9922,"çĽ":9923,"ĠYarld":9924,"Ġà®ħà®®à®°à®ķ":9925,"OST":9926,"à¯įâĢ¦âĢ¦.":9927,"Ġduring":9928,"Id":9929,"Ð¡":9930,"ĠPlace":9931,"Ġà¯ģ":9932,"à®ļà®¯à®°":9933,"Ġban":9934,"November":9935,"How":9936,"à®¿......":9937,"ĠIII":9938,"ipe":9939,"à®¿.....":9940,"à®ľà®²à®ªà®¤":9941,"Ġstrong":9942,"à®µà®®à®¯à®®":9943,"ori":9944,"EB":9945,"page":9946,"à¯ģ*":9947,"Ġcode":9948,"agan":9949,"Ġà®ĩà®Łà®²":9950,"Ġà®ħà®°à®ļà®²":9951,"ĠInc":9952,"uct":9953,"à®³à®ªà®¤":9954,"Ġà®Īà®´à®ķ":9955,"earn":9956,"mun":9957,"ixed":9958,"ĠCBI":9959,"ishw":9960,"????????":9961,"Ê½":9962,"à®Łà®µà®ª":9963,"ĠSR":9964,"rows":9965,"reatment":9966,"cast":9967,"à®°à®³à®ª":9968,"Ġà®ķà®¯à®¤":9969,"à®¤à®µà®¨":9970,"159":9971,"à®®à®©à®©":9972,"ĠURL":9973,"ãĤĭ":9974,"Â¯":9975,"Ġ1941":9976,"edic":9977,"Ġweb":9978,"ĠEN":9979,"133":9980,"iat":9981,"Ġorgan":9982,"Ġà®ļà®°à®¯":9983,"à®ĩà®²à®£":9984,"Ġlyrics":9985,"hael":9986,"tamilnews":9987,"ottai":9988,"à®¿âĢĺ":9989,"à®ļà®·":9990,"Ġà®ªà®Łà®ªà®Łà®¤":9991,"ĠFully":9992,"acts":9993,"à®ķà®µà®¤à®®":9994,"FA":9995,"ÑĦ":9996,"Ġà®ħà®ªà®¯à®®":9997,"isk":9998,"Ġbehind":9999,"à®Łà®ªà®°":10000,"à®±à®µà®¯à®®":10001,"1954":10002,"ĠEast":10003,"English":10004,"è½":10005,"Ġà®°à®ļà®²":10006,"245":10007,"888":10008,"appy":10009,"à®µà®²à®ļ":10010,"ĠSelect":10011,"à®ľà®©à®ª":10012,"tection":10013,"UDI":10014,"amera":10015,"ĠVas":10016,"ĠEv":10017,"142":10018,"illi":10019,"Ġflood":10020,"sych":10021,"1961":10022,"ĠHer":10023,"à®¨à®·":10024,"à®²à®®à®¤":10025,"ota":10026,"ELL":10027,"èµĦ":10028,"ench":10029,"à®ıà®´à®°":10030,"Ġ950":10031,"Ġfacebook":10032,"ycl":10033,"à®£à®ªà®Ł":10034,"Ġà®ªà®²à®ļà®°à®ķ":10035,"isai":10036,"Ġfund":10037,"ä¸ĭ":10038,"field":10039,"wer":10040,"Ġà®¤à®©à®²":10041,"à®¹à®ļ":10042,"inay":10043,"uma":10044,"Ġsearch":10045,"rishna":10046,"ĠNEET":10047,"éľ¸":10048,"280":10049,"ĠTamilNadu":10050,"Author":10051,"Ġà®ħà®ªà®ķ":10052,"Ø´":10053,"Ġ25000":10054,"istry":10055,"Ħæľº":10056,"ĠMaster":10057,"Ġma":10058,"à¯ģ...'":10059,"ached":10060,"uation":10061,"à¯ĭà®¾à¯į,":10062,"à®´à®µà®°à®®":10063,"ĠLand":10064,"å¦":10065,"æŀ":10066,"à®µà®ķà®Ł":10067,"Ġà®ĵà®Łà®²":10068,"BD":10069,"Facebook":10070,"189":10071,"ertific":10072,"æľŁ":10073,"REE":10074,"Ġ......[":10075,"lab":10076,"ĠProfile":10077,"Ġgk":10078,"à¯įâĢ¦.âĢĿ":10079,"à®Łà®®à®±":10080,"Ġà®ªà®Łà®ªà®Łà®ķ":10081,"à®ļà®²à®°":10082,"Ġà®ķà®®à®²à®®":10083,"Ġà®²à®ľ":10084,"143":10085,"Ġà®µà®¯à®±":10086,"à®ļà®¯à®ķ":10087,"Ġà®ħà®¤à®©à®¤à®©":10088,"ĠTRB":10089,"Ġà®Ĩà®ķà®©":10090,"...?":10091,"Ġ302":10092,"à®Īà®µ":10093,"FI":10094,"à®¾âĢĭ":10095,"Ġà®¤à®ķà®¤":10096,"Ġà®ħà®£à®Ļ":10097,"Ġthink":10098,"Ġgot":10099,"BiggBossTamil":10100,"Ġà®ªà®µà®³à®®":10101,"156":10102,"Ġ235":10103,"elled":10104,"ittee":10105,"Ġà®īà®³à®¨":10106,"ĠShort":10107,"à®ļà®¤à®¨":10108,"even":10109,"Ġask":10110,"What":10111,"à¯ģ.âĢĻâĢĻ":10112,"Ġ212":10113,"Ġbox":10114,"amaveri":10115,"Porn":10116,"rum":10117,"Ġmedia":10118,"osh":10119,"Ġà®®à®·":10120,"ĠPic":10121,"adai":10122,"asw":10123,"Ġà®ķà®®à®¨à®²":10124,"Ġ1080":10125,"story":10126,"Ġblock":10127,"!,":10128,"à¯Ĥ)":10129,"Ġ20000":10130,"229":10131,"Sarkar":10132,"Ġà®ªà®£à®¯à®ķ":10133,"Ġdiv":10134,"310":10135,"Act":10136,"ãģ¾":10137,"Ð¾Ð½":10138,"gm":10139,"à®ļà®®à®²à®°":10140,"à®İà®©à®¤à®°":10141,"âĺ":10142,"à®¨à®Łà®©":10143,"rovers":10144,"ĠYear":10145,"à¸²":10146,"âĤ¬":10147,"Ġà®ĩà®Łà®¨":10148,"ulai":10149,"à®¾?:":10150,"à¯ģ...âĢĿ":10151,"imbu":10152,"ambi":10153,"Ïĥ":10154,"Ġ324":10155,"Ġsun":10156,"ĠRail":10157,"141":10158,"238":10159,"ĠTrump":10160,"ĠMult":10161,"Ġcut":10162,"unny":10163,"Keywords":10164,"Ġà®Ĭà®°à®£":10165,"Ġ\".":10166,"Ġsil":10167,"ultur":10168,"çīĪ":10169,"values":10170,"Ġmountains":10171,"Ġà®ıà®¸":10172,"Ġpoll":10173,"Ġoper":10174,"à®°à®²à®®":10175,"Ġà®ıà®²à®µ":10176,"ĠMel":10177,"iting":10178,"Thir":10179,"éģ":10180,"Ġà®İà®®à®¤à®°":10181,"ato":10182,"Ġ1922":10183,"ĠIV":10184,"ĠFestival":10185,"ĠKing":10186,"155":10187,"å¥³":10188,"Ġmuch":10189,"ruth":10190,"Ġà®ħà®ļà®®à®¨":10191,"ukku":10192,"Ġdifferent":10193,"ĠÐ½Ð°":10194,"Ġå½©":10195,"à®µà®¤à®ļ":10196,"à®ķà®²à®¯":10197,"Ġ247":10198,"Ġà®ļà®¹à®¸":10199,"ĠFlipkart":10200,"tra":10201,"à®µà®®à®¤":10202,"Ġmind":10203,"Ġok":10204,"astic":10205,"Mon":10206,"PR":10207,"ga":10208,"Ã·":10209,"247":10210,"Ġà®¤à®£à®²":10211,"ĠMem":10212,"icate":10213,"077":10214,"ICE":10215,"Ã¨":10216,"Ġà®¹à®¨":10217,"Ġ\",":10218,"à®¨à®¯à®¤":10219,"Ġà®ĩà®®à®¯à®¤":10220,"à¤ķ":10221,"ãĥ³":10222,"230":10223,"Ġà®ªà®Łà®ļ":10224,"width":10225,"orial":10226,"Ġsa":10227,"attu":10228,"Ġkathaigal":10229,"ĠEntertainment":10230,"à¯Ĩ...":10231,"à¯ģ.*":10232,"Ġtom":10233,"Ġ207":10234,"ĠTamilsex":10235,"Äĵ":10236,"Ġcompany":10237,"hiwela":10238,"à®·à®®à®¤":10239,"Ġà®Ĭà®Łà®Ļ":10240,"Ġà®°à®®à®³":10241,"Ġ1906":10242,"Ġ1933":10243,"Ġà®±à®®":10244,"ä¿":10245,"à¯Īà¯į":10246,"ĠBill":10247,"agal":10248,"ĠLanguage":10249,"akkam":10250,"wal":10251,"asm":10252,"Ġinj":10253,"ĠWW":10254,"à¯ĩ...!":10255,"ç«Ļ":10256,"à®¯à®µà®°à®µ":10257,"ĠCre":10258,"ĠPerch":10259,"Ġà®µà®´à®µ":10260,"à®Ĩà®°à®µ":10261,"Ġboard":10262,"à®¾...\"":10263,"ĠStand":10264,"ĠCTR":10265,"ades":10266,"185":10267,"351":10268,"à®ħà®´à®ķà®°":10269,"ðŁĻ":10270,"uvan":10271,"Ġ246":10272,"vijay":10273,"à®°à®¹à®Ļ":10274,"Ġà®¸à®ľ":10275,"Ġdaughter":10276,"Ġà®¤à®Łà®µà®µ":10277,"456":10278,"ĠControl":10279,"ITY":10280,"à®¨à®ķà®²":10281,"à®ħà®ķà®¨":10282,"à®µà®©à®²":10283,"uture":10284,"Ġ9000":10285,"Ġ214":10286,"Ġà®ľà®©à®ķà®°":10287,"ĠMawatha":10288,"ĠØ³":10289,"à¯į?âĢĻâĢĻ":10290,"Ġ274":10291,"Ð¾Ð¹":10292,"Ġinf":10293,"BJP":10294,"alys":10295,"à®ıà®ŀ":10296,"Ġ1915":10297,"Ġmp":10298,"à®µà®°à®¤à®Ł":10299,"à®Łà®®à®Ļ":10300,"à®ªà®°à®Ł":10301,"ĠPerson":10302,"enger":10303,"split":10304,"à¯Ī.!":10305,"à¯į?...":10306,"ĠSeries":10307,"Ġside":10308,"Ġà®ķà®ķà®©":10309,"Ġwide":10310,"DPI":10311,"ĠAff":10312,"à®¿!\"":10313,"åĽ¾åºĵ":10314,"dro":10315,"à¯Ĩà®¾à¯į":10316,"1953":10317,"Ġpolitics":10318,"Ġsuch":10319,"ç¾":10320,"Ġà®ļà®®à®²":10321,"à®Īà®®":10322,"oda":10323,"ailable":10324,"ç»ı":10325,"à®¤à®·":10326,"à®ªà®ļà®²":10327,"idence":10328,"Ġ284":10329,"à®£à®µà®ļ":10330,"à®ªà®Łà®£":10331,"à®Łà®®à®ļ":10332,"Ġplease":10333,"hitsCtrl":10334,"850":10335,"ÏĢ":10336,"adam":10337,"Ġmobile":10338,"ĠUSA":10339,"224":10340,"à®£à®ķà®¤":10341,"Ġà®īà®¯à®°à®ķ":10342,"Ġ1912":10343,"Kerala":10344,"à®ļà®°à®ª":10345,"Ġ430":10346,"Ġ15000":10347,"Ġbuild":10348,"Ġgar":10349,"ĠInformation":10350,"Ġà®ħà®ķà®®à®ķ":10351,"qft":10352,"ajor":10353,"Ab":10354,"Air":10355,"ĠGreen":10356,"ĠOS":10357,"à®¿.âĢĿ":10358,"à®ļà®®à®Ļ":10359,"Ġà®Ĩà®£à®µ":10360,"inger":10361,"Ġà®±à®ķ":10362,"ãģ¯":10363,"ozhi":10364,"Ġlocated":10365,"6000":10366,"kumar":10367,"eta":10368,"acc":10369,"Ġeffect":10370,"Ġ................":10371,"ĠPand":10372,"Ġhuge":10373,"ĠGalle":10374,"4000":10375,"à®ķà®ªà®Łà®µ":10376,"à¯Ĭà¯Ī":10377,"arat":10378,"Ġsens":10379,"1959":10380,"121":10381,"ived":10382,"assan":10383,"301":10384,"like":10385,"ĠGovt":10386,"och":10387,"Ġà®Ĳà®ĵà®İà®¸":10388,"ledge":10389,"HO":10390,"Ġà®ªà®¹à®¤":10391,"Ġà®īà®ªà®©":10392,"ĠSociety":10393,"Ġlord":10394,"Ġ1923":10395,"ĠCamp":10396,"Ġdn":10397,"election":10398,"á¸":10399,"åĨ":10400,"à®°à®®à®¨":10401,"icon":10402,"à¤²":10403,">>>":10404,"ecutive":10405,"Ġà®ĩà®³à®µà®Ł":10406,".!":10407,"ique":10408,"à®ļà®®à®ļ":10409,"ĠNULL":10410,"1963":10411,"à®ħà®µà®®":10412,"ĠJe":10413,"ounter":10414,"Ġeduc":10415,"Ġà®ķà®²à®Ł":10416,"Ġpundai":10417,"ĠBel":10418,"Â»]":10419,"ĠÄĳ":10420,"Dinamalar":10421,"NS":10422,"à®¤à®°à®µà®¤":10423,"à¯į..Â»]":10424,"Ġà®īà®ªà®¯à®¤":10425,"Ġ217":10426,"older":10427,"Ġprocess":10428,"itorial":10429,"ĠSales":10430,"Ġà®ħà®¤à®ª":10431,"Ġà®ħà®´à®ķà®²":10432,"1200":10433,"Â¥":10434,"ÅŁ":10435,"Ë®":10436,"Ġà®Ĩà®²à®¤":10437,"ĠBus":10438,"].(":10439,"à®¿âĢ¦âĢĿ":10440,"ĠKohli":10441,"Ġslams":10442,"ĠCCTV":10443,"ĠTamils":10444,"Ġinclud":10445,"ĠProject":10446,"Ġà®Ĩà®Łà®µà®©":10447,"à®Ĳà®İà®©":10448,"Ġsent":10449,"Ġ2023":10450,"à¯įâĢ¦âĢ¦âĢ¦":10451,"ĠLord":10452,"Ġimage":10453,"Ġbirthday":10454,"ĠMoney":10455,"Ġ4380900":10456,"ishwarya":10457,"fox":10458,"à®ĵà®¤":10459,"à®ªà®°à®®à®ļ":10460,"Ġsmart":10461,"È«":10462,"Ġà®ħà®°à®ļà®ļ":10463,"à¯į)-":10464,"ĠAudio":10465,"Ġ288":10466,"atsapp":10467,"å½±":10468,".//":10469,"reg":10470,"Ġaff":10471,"Ġ278":10472,"aina":10473,"rying":10474,"à®¾.âĢĿ":10475,"Ġtype":10476,"Ġhusband":10477,"ĠChe":10478,"EX":10479,"ander":10480,"ĠGames":10481,"Ġstock":10482,"International":10483,"arget":10484,"bum":10485,"Ġà®ľà®²à®¨":10486,"ĠBible":10487,"ĠAbd":10488,"/?":10489,"MD":10490,"hip":10491,"Ùī":10492,"à®Łà®°à®£":10493,"à®°à®ļà®£":10494,"ĠSite":10495,"Ġpers":10496,"Ġfinal":10497,"ĠReal":10498,"Ġà®µà®°à®²à®ķ":10499,"à®ħà®ķà®²":10500,"ĠHuman":10501,"aval":10502,"×Ļ×":10503,"HA":10504,"Ġà®Īà®¯à®®":10505,"333":10506,"MW":10507,"à®µà®±à®£":10508,"ĠMGR":10509,"Ġ;-)":10510,"365":10511,"à¯į........":10512,"!!!!!!!!":10513,"ĠYarldeepam":10514,"Ġfast":10515,"Ġarea":10516,"Kh":10517,"Ġ1907":10518,"à®ĩà®®à®¯à®®à®²":10519,")(":10520,"Ġà®ħà®ķà®®à®Ł":10521,"ĠJobs":10522,"à®°à®Łà®ķ":10523,"à®īà®±à®Ļ":10524,"ĠCas":10525,"Ġ204":10526,"Ġwor":10527,"terlite":10528,"Ġà¯¬":10529,"tv":10530,"Ġà®®à®ķà®¤à®¤":10531,"208":10532,"iab":10533,"ĠHaasan":10534,"umn":10535,"Ð°Ð²":10536,"Red":10537,"à¯Ĭ)":10538,"à®ħà®ļà®¤":10539,"à®®à®²à®¨":10540,"Ġ1927":10541,"Series":10542,"à®ķà®ļà®©":10543,"ĠText":10544,"ĠRest":10545,"ICK":10546,"Ġremov":10547,"ublished":10548,"Ġà®ªà®ķà®²à®µà®©":10549,"Ġà¤ķ":10550,"Ġà®Ĵà®µà®°":10551,"amed":10552,"à®¯à®µà®°à®®":10553,"ĠVi":10554,"ained":10555,"ĠEnt":10556,"Ġtwitter":10557,"0000000000000000":10558,"ĠïĤ":10559,"à®²à®ķà®³":10560,"à®³à®³à®¤":10561,"Ġà®ħà®ļà®Ļ":10562,"Ġ255":10563,"ĠElectric":10564,"keel":10565,"å±":10566,"å¾":10567,"Ġà®ħà®´à®²":10568,"ils":10569,"ĠNad":10570,"Left":10571,"Per":10572,"ored":10573,"Ġpur":10574,"ĠVel":10575,"ros":10576,"à¯Ī\".":10577,"elvam":10578,"Ġ226":10579,"ermen":10580,"Ġpra":10581,"Ġthings":10582,"à®ĵà®¹":10583,"Ġsite":10584,"Ġfind":10585,"ĠAli":10586,"anning":10587,"à®Īà®Īà®Īà®Ī":10588,"Ġà®İà®Łà®®":10589,"Ġsit":10590,"Ġgod":10591,"Ġà®±à®©":10592,"alla":10593,"ĠApple":10594,"Ġelephant":10595,"248":10596,"BF":10597,"TF":10598,"à®µà®©à®ªà®¤":10599,"1955":10600,"Ġ227":10601,"à®¨à®´":10602,"Ġdie":10603,"Ġdied":10604,"2500":10605,"134":10606,"AME":10607,"elligence":10608,"icine":10609,"Ġcaus":10610,"avith":10611,"Ø§Ø±":10612,"urrency":10613,"Dt":10614,"147":10615,"iseithi":10616,"Ġrecord":10617,"á¹Ń":10618,"à®ªà®®à®£":10619,"1946":10620,"à®Ĭà®®":10621,"ĠGarden":10622,"icture":10623,"à®ªà®®à®©":10624,"à®ªà®¤à®Ļ":10625,"Ġà®ıà®³à®©":10626,"à¯į,âĢĻâĢĻ":10627,"Ġà®ıà®ķà®²":10628,"Ġà®īà®³à®ļ":10629,"Ġà®īà®¯à®°à®ª":10630,"ĠPL":10631,"iki":10632,"Ġà®µà®´à®µà®´à®ª":10633,"Go":10634,"Ġà®¹à®·":10635,"Ġà®·à®ľà®°":10636,"ĠKanyakumari":10637,"ANJU":10638,"/.":10639,"men":10640,"ĠSports":10641,"itation":10642,"Ġriver":10643,"à®®à®ļà®ª":10644,"ĠKnow":10645,"ÐµÐ´":10646,"ĠAPPU":10647,"ĠTamilarul":10648,"à®µà®¨à®¤":10649,"Ġsave":10650,"goo":10651,"à®¤à®®à®©à®¤":10652,"urns":10653,"Ġver":10654,"ĠTha":10655,"Blog":10656,"Ġà®Ĩà®ķà®®à®®":10657,"ĠMW":10658,"Ġà®İà®µà®³":10659,"Ġak":10660,"ouns":10661,"Mah":10662,"Ġà®ħà®®à®°à®ª":10663,"Ġà®µà®³à®°à®ļ":10664,"agram":10665,"ĠLyrics":10666,"Ġtoge":10667,"à¸£":10668,"ĠCorporation":10669,"Ġwent":10670,"158":10671,"ĠShop":10672,"Ġà®ļà®®à®°à®ļà®Ļ":10673,"ĠGoldTamil":10674,"your":10675,"çĪ":10676,"à®ĵà®Ļ":10677,"à®Łà®Łà®ª":10678,"Ġà®ļà®µà®ķ":10679,"à¯į\"\"":10680,"Ġà®ĥà®ªà®Ł":10681,"ĠISIS":10682,"Ġil":10683,"à®°à®®à®µ":10684,"ivu":10685,"po":10686,"ĠVid":10687,"virutcham":10688,"dom":10689,"à®Ĩà®²à®®":10690,"ĠAsh":10691,"Ġthree":10692,"Ġequ":10693,"ĠTeacher":10694,"ĠUnder":10695,"CS":10696,"à¯ģ.......":10697,"Ġà®ļà®®à®±":10698,"ĠHu":10699,"ĠPlan":10700,"Ġtogether":10701,"à®®à®¯à®ª":10702,"à®°à®£à®ļ":10703,"Ġ251":10704,"Ġà®ªà®²à®®à®Ł":10705,"osa":10706,"ĠNavigation":10707,"Ġà®ªà®±à®®":10708,"à¯ĭâĢ¦.":10709,"Ġ636":10710,"Ġshare":10711,"çİĦæľº":10712,"944":10713,"pay":10714,"vs":10715,"à®µà®ªà®Ł":10716,"à®£à®²à®¤":10717,"Ġà®ļà®µà®Ł":10718,"à¯ĩà®¾à¯į,":10719,"rime":10720,"EA":10721,"FT":10722,"à®¾à¥°":10723,"Ġà®Ĭà®£":10724,"ĠCase":10725,"Ġcame":10726,"ĠBlock":10727,"ĠDNA":10728,"çĶµ":10729,"gg":10730,"à®Łà®µà®ķ":10731,"ĠFamily":10732,"ĠIndust":10733,"à¯į..âĢĻ":10734,"à¯Ĥà®¾à¯į-":10735,"Ġnanjilnadan":10736,"Ġà®ļà®ªà®¤à®¤":10737,"à®ļà®°à®µà®£":10738,"Ġà®Ĩà®°à®ª":10739,"Ġpan":10740,"Ġwhy":10741,"ances":10742,"lin":10743,"à®¾?//":10744,"à¯į!//":10745,"Ġà®Ĭà®°à®ķà®ª":10746,"ĠNet":10747,"Ð°Ðº":10748,"Back":10749,"à®µà®ļà®©":10750,"ĠBrit":10751,"ĠDeep":10752,"ĠExpl":10753,"CA":10754,"à®¸à®¹":10755,"agu":10756,"ĠEnd":10757,"Ġfall":10758,"Ġrate":10759,"ĠAmerican":10760,"Ġà®Ĩà®Ĩ":10761,"Ġdetails":10762,"à®¾..!!":10763,"ĠInvest":10764,"ĠNFTE":10765,"é«ĺæīĭ":10766,"size":10767,"à®¯à®®à®°à®¤":10768,"à®·à®Ł":10769,"Ġ\"(":10770,"ĠUth":10771,"Ġchief":10772,"andid":10773,"ANG":10774,"Ġphotos":10775,"ĠEdappadi":10776,"side":10777,"à®Ļà®ķ":10778,"à®µà®²à®ķà®°":10779,"à®Ĳà®¯à®°":10780,"à®Ĳà®Ĳà®Ł":10781,"aim":10782,"TET":10783,"Ð°Ð¼":10784,";-":10785,"à¯į,âĢĭâĢĭ":10786,"à®ķà®±à®µà®©":10787,"Ġ209":10788,"ĠReviews":10789,"ĠNETWOR":10790,"Tw":10791,"Ġfail":10792,"ç¥ŀ":10793,"Ġà®°à®¨":10794,"Ġà®²à®°":10795,"oles":10796,"Ġ///":10797,"ancial":10798,"cious":10799,"ï¼Ī":10800,"cture":10801,"allery":10802,"à¯į....!":10803,"Fr":10804,"à®µà®³à®Ļ":10805,"à®ķà®µà®Ł":10806,"à®®à®²à®Ł":10807,"roll":10808,"Ġ219":10809,"ĠCON":10810,"Ġcook":10811,"ĠAccountant":10812,"itted":10813,"ertificate":10814,".âĢĻ":10815,"no":10816,"à®¯à®īà®¤à®µ":10817,"ĠMuth":10818,"Ġ984":10819,"ï¼ī":10820,"keelainews":10821,"ĠWho":10822,"Apr":10823,"Ġà®Ĳà®ļà®°":10824,"à®¾?-":10825,"Ġfarmers":10826,"ester":10827,"ugar":10828,"ART":10829,"à®īà®²à®ķà®®à®¯à®®":10830,"Ġpostdate":10831,"èµĦæĸĻ":10832,"Ġ191":10833,"iven":10834,"itional":10835,"ĠMadras":10836,"Day":10837,"Modi":10838,"sung":10839,"Ġà®ħà®°à®ļà®®à®°à®¤":10840,"edi":10841,"ĠABO":10842,"Ġ285":10843,"Ġhappy":10844,"Ġnaanjilnadan":10845,"à®µà®°à®²à®Ł":10846,"à®¤à®²à®³":10847,"Ġcondem":10848,"Ġupdate":10849,"-\")[":10850,"IK":10851,"bol":10852,"ny":10853,"à®ķà®Łà®µà®©":10854,"à®ķà®´à®ļ":10855,"à®µà®ķà®±":10856,"ilt":10857,"132":10858,"ðŁĮ":10859,"(\"-\")[":10860,"à®¯à®µà®ļ":10861,"Ġà®µà®Łà®µ":10862,"eva":10863,"Ġä¸":10864,"à®Łà®¤à®¤":10865,"Ġgrow":10866,"ĠMiss":10867,"184":10868,"ulf":10869,"icket":10870,"Ġtimes":10871,"ĠBatt":10872,"Ġ223":10873,"ĠThere":10874,"oke":10875,"ÙĳÙİ":10876,"à¯įï¿½":10877,"Ġà´":10878,"à®®à®°à®ļ":10879,"Ġà®¸à®©":10880,"205":10881,"aiva":10882,"ĠOld":10883,"249":10884,"à¯ģ!.":10885,"Ġcool":10886,"bert":10887,"233":10888,"à®ªà®©à®¨":10889,"omas":10890,"Ġpress":10891,"ĠBox":10892,"ĠGan":10893,"ĠGalaxy":10894,"131":10895,"Do":10896,"à®®à®£à®°à®²":10897,"Ġsign":10898,"spir":10899,"297":10900,"LD":10901,"ĠAuthor":10902,"Ġcollege":10903,"..\"":10904,"Ġà®ħà®²à®µ":10905,"arch":10906,"AVAI":10907,"æŃ":10908,"Ġà®ħà®°à®©":10909,"ĠCollector":10910,"ĠBoys":10911,"Sm":10912,"To":10913,"Ġà®īà®µà®¨":10914,"à¯į,,,":10915,"Ġden":10916,"ĠAcademy":10917,"åĵģ":10918,"At":10919,"à®¾_":10920,"Ġfight":10921,"Ġtext":10922,"1942":10923,"303":10924,"igion":10925,"Ġ390":10926,"ĠMotor":10927,"ued":10928,"Ġà®µà®³à®ķ":10929,"à®ħà®©à®°":10930,"idambaram":10931,"anner":10932,"ette":10933,"Ġminutes":10934,"à®©à®µà®²":10935,"à®°à®®à®°à®¤":10936,"à®ªà®¯à®©à®°":10937,"Ġjob":10938,"Ġà®ļà®®à®°à®ļà®ª":10939,"Ġ322":10940,"ĠSand":10941,"ĠPhys":10942,"Ġfemale":10943,"é¢":10944,"Ġ1Â½":10945,"à¯į'!":10946,"Ġsn":10947,"ĠUnited":10948,"ĠPERAVAI":10949,"Ġkalviseithi":10950,"Ġ50000":10951,"ocuments":10952,"ĠABOUT":10953,"à®¯à®®à®ķ":10954,"Ġà®Łà®£":10955,"omi":10956,"opping":10957,"à¯ĢâĢ¦":10958,"à®®à®²à®ķ":10959,"ema":10960,"utter":10961,"Ġcontrol":10962,"ao":10963,"à®µà®°à®ŀ":10964,"Ġ1909":10965,"ĠBad":10966,"urt":10967,"179":10968,"Book":10969,"ĠÂłÂłĠ":10970,"Ġà®ħà®©à®¤":10971,"ĠFurn":10972,"157":10973,"®Ķ":10974,"à®Ķ":10975,"ĠÐ¡":10976,"ibility":10977,"Ġperform":10978,"Ġà®ķà®ľà®ķà®¸":10979,"her":10980,"à¯ĤâĢĮ":10981,"Ġà®Ĩà®¯à®ķ":10982,"ĠTable":10983,"à®µà®®à®ķà®³":10984,"ĠType":10985,"ĠStat":10986,"Ð¸Ð½":10987,"Ġà®İà®±à®Ļ":10988,"Ġret":10989,"Ġroom":10990,"ĠÑĥ":10991,"ĠÚ©":10992,"Ġ(-":10993,"Ġ440":10994,"à®£à®°à®®":10995,"à®¤à®®à®µ":10996,"uti":10997,"alysis":10998,"Ãº":10999,"à®¯à®µà®°à®²":11000,"appa":11001,"Ġaround":11002,"Ġà®ĩà®²à®µà®ļà®¤":11003,"à¯į,[":11004,"æľī":11005,"à®Ĳà®¯à®©":11006,"BA":11007,"239":11008,"anges":11009,"Ġà®ħà®°à®ļà®¤":11010,"à®¤à®µà®°à®²":11011,"ĠHom":11012,"Ġsuccess":11013,"à®¯à®µà®Ł":11014,"ĠTTV":11015,"Ġà¯«":11016,"Ġphoto":11017,"ĠTools":11018,"Ġ777":11019,"à¯ģ!''":11020,"à¯ĩ!.":11021,"166":11022,"169":11023,"ĠCommun":11024,"à®ªà®²à®¨":11025,"ĠCouncil":11026,"ķ×":11027,"à®®à®ķà®ª":11028,"aning":11029,"...'":11030,"ĠAnt":11031,"ĠAnna":11032,"à¸Ļ":11033,"à®ľà®ķà®Ļ":11034,"ĠVive":11035,"airav":11036,"DR":11037,"joy":11038,"²¾":11039,"agon":11040,"ARY":11041,"Ġï¿½ï¿½ï¿½ï¿½ï¿½ï¿½ï¿½ï¿½":11042,"à¯ģ`":11043,"à¯ĢâĢĮ":11044,"à¯Ĥ!":11045,"ĠSorry":11046,"asht":11047,"ĠâĢ¦âĢ¦âĢ¦":11048,"mAh":11049,"self":11050,"à®®à®¯à®¤":11051,"Ġalle":11052,"ĠTNTJ":11053,"å§Ĳ":11054,"Ġà®¸à®µ":11055,"à®Ĳà®¯à®®":11056,"ĠRadio":11057,"Ġfans":11058,"à®¿âĢĿ,":11059,"Ġlearn":11060,"Ġ.\"":11061,"à®°à®³à®¯à®¤":11062,"Ġmark":11063,"askar":11064,"Trans":11065,"Ġà®Ĩà®ļà®©à®µ":11066,"Ge":11067,"à®¤à®ļà®®":11068,"à¯ĪÂ»":11069,"à¯ģ,'":11070,"1917":11071,"ĠKann":11072,"avai":11073,"ĠBeauty":11074,"ĠSuresh":11075,"Ġbooks":11076,"Ġ1904":11077,"iran":11078,"osis":11079,"à¯į....\"":11080,"ENG":11081,"ïĺ":11082,"ability":11083,"uh":11084,"ĠSearch":11085,"Ġnad":11086,"ttext":11087,"à¯ĩ?'":11088,"Ġgoogle":11089,"177":11090,"endof":11091,"à®³à®¨à®°":11092,"à®µà®Łà®¨":11093,"Ġà®Ĩà®®à®¤":11094,"Ġà®Ĩà®²à®ķ":11095,"à®Łà®¤à®®":11096,"Ġder":11097,"ĠKan":11098,"starttext":11099,"Ġrespons":11100,"endofvid":11101,"à¯ĩ,''":11102,"à®ªà®¨à®²":11103,"atives":11104,"ĠSab":11105,"Ġsleep":11106,"195":11107,"Ġstudy":11108,"720":11109,"à®ħà®±à®¤":11110,"istic":11111,"275":11112,"uthi":11113,"iterature":11114,"à®®à®´à®²":11115,"à®¯à®ķà®±":11116,"Ġsir":11117,"à®¨à®ķà®°à®ķ":11118,"1951":11119,"ended":11120,"Ġapplication":11121,"Ġprotected":11122,"atham":11123,"________________________________":11124,"à®ľà®¯à®µà®°":11125,"à®ķà®¤à®±":11126,"ĠAfter":11127,"raud":11128,"iyal":11129,"à®¿[":11130,"à®®à®©à®°":11131,"Ġà®Īà®°à®ķ":11132,"à®īà®®à®ķ":11133,"ĠSan":11134,"isode":11135,"ehicle":11136,"Ġà®®à®¤à®¨":11137,"Ġà®Ĳà®ĥà®ª":11138,"awei":11139,"à±ģ":11140,"à®¯à®ªà®ª":11141,"Ġsoon":11142,"Ġ273":11143,"īéľ¸":11144,"Ġà®ķà®Łà®µà®¤":11145,"ĠDriv":11146,"à®¾...'":11147,"Ð¾Ñģ":11148,"Ġused":11149,"AAS":11150,"Å«":11151,"Ġà®¨à®µà®ª":11152,"ummer":11153,"ocus":11154,"High":11155,"çĭ":11156,"ĠMs":11157,"ĠPrime":11158,"Ġsol":11159,"Ġà®ļà®ķà®²à®ķà®²":11160,"Ġjud":11161,"ultural":11162,"LED":11163,"sec":11164,"ĠWin":11165,"ruitment":11166,"TTE":11167,"à®¯à®³à®°":11168,"Ġà®ħà®ļà®©":11169,"Ġspamb":11170,"330":11171,"Ġide":11172,"à®µà®ķà®³":11173,"à®ıà®ķà®ª":11174,"à¯į''.":11175,"nbsp":11176,"kn":11177,"ria":11178,"Æ½":11179,"à®ķd":11180,"à®ķà®ľà®®":11181,"Ġà®ªà®£à®ªà®°":11182,"Ġ328":11183,"à®±à®ķà®°à®®":11184,"1931":11185,"roph":11186,"ooter":11187,"aterials":11188,"Ġspambots":11189,"à®ĩà®©à®¤":11190,"Ġ640":11191,"isu":11192,"207":11193,"ĠOP":11194,"akthi":11195,"Ġreason":11196,"ĠØª":11197,"DMK":11198,"GA":11199,"sl":11200,"Ġà®ķà®Łà®ļ":11201,"à®¨à®°à®ķà®¤":11202,"Ġ233":11203,"Ġarray":11204,"eleb":11205,"inner":11206,"FL":11207,"à®īà®´à®µ":11208,"uvar":11209,"xxx":11210,"jun":11211,"à¯įà®¿":11212,"Ġà®ħà®¤à®©à®°":11213,"itive":11214,"ention":11215,"Thenn":11216,"Stalin":11217,"ĠDaw":11218,"umal":11219,"ANK":11220,"VanniOnline":11221,"paper":11222,"Ġ211":11223,"ĠSidd":11224,"ĠAunty":11225,"ĠBOO":11226,"eyar":11227,"Met":11228,"à®®à®ªà®¤":11229,"à®¹à®¯":11230,"riya":11231,"Ġsecret":11232,"Ġ1901":11233,"à®¿\".":11234,"Ġfriends":11235,"Thennakam":11236,"Ram":11237,"ĠSol":11238,"ĠBut":11239,"151":11240,"apuram":11241,"åĽ½":11242,"abarim":11243,"lation":11244,"ĠNO":11245,"Ġsame":11246,"1944":11247,"Ġstrike":11248,"Ġdocument":11249,"BBC":11250,"Ġleg":11251,"Ã¥":11252,"à¯ĩ).":11253,"à®µà®²à®Ł":11254,"à®¾?..":11255,"ĠFloor":11256,"à®ħà®µà®ļà®°à®ķ":11257,"Ġà®Ĩà®´à®Ļ":11258,"otion":11259,"abh":11260,"Ġdoctor":11261,"ĠAmerica":11262,"face":11263,"Ġà®ķà®®à®²à®¨":11264,"ĠHC":11265,"istance":11266,"Ġà®ķà®²à®ķà®²":11267,"ĠDE":11268,"ikal":11269,"stitution":11270,"âĢ³":11271,"Ġ425":11272,"online":11273,"Ġbh":11274,"ega":11275,"Ġmedical":11276,"Ġà®ľà®ķà®¨":11277,"Ġmillion":11278,"Ġathir":11279,"urope":11280,"avin":11281,"------":11282,"à¯ĩà®¾?":11283,"ĠAval":11284,"ado":11285,"quir":11286,"Ġads":11287,"PDF":11288,"Ġà®ĩà®²à®µà®Ļ":11289,"ici":11290,"164":11291,"Ġram":11292,"ĠSpeech":11293,"à®¤à®®à®¤à®¤":11294,"Ġà®ķà®³à®¨":11295,"Ġà®ĩà®®à®¯":11296,"à¯ģ;.":11297,"ĠXXX":11298,"à®¾......":11299,"aig":11300,"Ġdu":11301,"Ġvari":11302,"Ġé©¬":11303,"Ġ:)))":11304,"background":11305,"Post":11306,"à®ĩà®©à®Ļ":11307,"Ġcould":11308,"Ġdate":11309,"187":11310,"ISH":11311,"SO":11312,"ŀäºīéľ¸":11313,"Acc":11314,"onment":11315,"ĠVishal":11316,"){":11317,"Ġà®ķà®µà®©à®ļ":11318,"ĠVanni":11319,"Ġ0112":11320,"Leftin":11321,"à®ļà®¤à®°":11322,"irty":11323,"ĠShah":11324,"Be":11325,"à®©à®ķà®µ":11326,"Ġ335":11327,"Ġ435":11328,"Ġà®ķà®´à®£":11329,"Ġbeat":11330,"Ġleft":11331,"ĠðŁĺĤ":11332,"Ġself":11333,"Ġheld":11334,"à®ħà®°à®µà®ķ":11335,"Ġlov":11336,"260":11337,"Hy":11338,"âŀ":11339,"à®ķà®°à®¯":11340,"Ġà®ķà®©à®ķà®¤":11341,"apers":11342,"çĶŁ":11343,"ĠPornHub":11344,"MENT":11345,"[[":11346,"ĠNH":11347,"ĠVer":11348,"ĠYO":11349,"Ġplant":11350,"Ð°Ð·":11351,"Ġreturn":11352,"vis":11353,"Ġà®¯à®µà®©":11354,"ĠPoo":11355,"oose":11356,"Ġstay":11357,"BSE":11358,"à¯Ģ(":11359,"ĠDriver":11360,"Ġhands":11361,"race":11362,"Ġà®ħà®ķà®µà®²":11363,"itude":11364,"Ġda":11365,"Ġothers":11366,"aba":11367,"Ġstar":11368,"wan":11369,"Ñī":11370,"rec":11371,"chennai":11372,"çīĮ":11373,"source":11374,"Ġà®ļà®²à®®":11375,"à®Łà®²à®©":11376,"PI":11377,"2022":11378,"ĠFed":11379,"illai":11380,"Ġsus":11381,"ĠJournal":11382,"ARD":11383,"Ġappro":11384,"ĠResponses":11385,"ford":11386,"pan":11387,"æĮ":11388,"à®¿},":11389,"ening":11390,"Ġlost":11391,"éĻ":11392,"Ġà®īà®ªà®ª":11393,"à®¤à®®à®¯à®®":11394,"Ġthreat":11395,"Ġkeep":11396,"246":11397,"Ġà®ļà®µà®°à®®":11398,"à®Ĵà®Ļ":11399,"Ġcover":11400,"210":11401,"à®¤à®³à®©":11402,"à¯ĪâĢĺ":11403,"Ġ238":11404,"167":11405,"apuri":11406,"IFTY":11407,"à¯Ī.,":11408,"ĠAL":11409,"Ġhours":11410,"174":11411,"339":11412,"Ne":11413,"196":11414,"ida":11415,"ĠAccess":11416,"iqu":11417,"Ġ(?":11418,"Ġà®ªà®±à®Ļ":11419,"Ġ1903":11420,"aged":11421,"ivation":11422,"æľĢ":11423,"Ġproblem":11424,"à®ĩà®¯à®Ļ":11425,"Ġà®®à®©à®µà®³à®°":11426,"Ġà®ĵà®¯à®µ":11427,"Ġmadurai":11428,"ky":11429,"à®¤à®¨à®²":11430,"state":11431,"Ġthen":11432,"Ġ!âĢĿ":11433,"Ġ257":11434,"Ġâĸ":11435,"venue":11436,"Ġà®¯à®µ":11437,"Ġvol":11438,"448":11439,"Ġcoll":11440,"à®ªà®°à®®à®¤":11441,"188":11442,"Ġ221":11443,"ĠLaunch":11444,"æĥħ":11445,"Ġà®Īà®®à®ļ":11446,"ĠMillion":11447,"ĠGlobal":11448,"ĠHoroscope":11449,"Ġloss":11450,"Ġà®±à®ª":11451,"192":11452,"à®ķà®®à®²à®°":11453,"Ġva":11454,"172":11455,"à®¿+":11456,"à®¤à®¤à®®":11457,"à®īà®¤à®ķ":11458,"Ġà®Ĩà®±à®±":11459,"ĠLearn":11460,"æĺ¯":11461,"Ġà®·à®µà®°":11462,"ĠKoo":11463,"288":11464,"Ġà®¨à®ķà®°à®®à®¯à®®":11465,"ĠPostà®ķ":11466,"Ġà®¤à®Łà®µà®²":11467,"777":11468,"Ġà®ªà®£à®ªà®²à®®":11469,"uli":11470,"Ġà®ªà®ķà®µà®©":11471,"à®ļà®ĥà®ª":11472,"Ġfeat":11473,"kur":11474,"lar":11475,"à®£à®µà®ķ":11476,"kh":11477,"à®µà®ªà®¤":11478,"Ġà®ıà®İà®®":11479,"Ġà®ħà®µà®³à®°":11480,"ĠAz":11481,"orders":11482,"ï¼ļ":11483,"ĠBrok":11484,"ellai":11485,"à®¯à®°à®ķà®¤":11486,"ĠSens":11487,"ico":11488,"mit":11489,"à®ķà®µà®ļ":11490,"Ġà®¤à®²à®¯":11491,"à®ªà®®à®°à®¤":11492,"Ġdet":11493,"Ġ244":11494,"Ġ269":11495,"rica":11496,"ĠStudents":11497,"Ġ264":11498,"236":11499,"ogn":11500,"orning":11501,"aiyin":11502,"redit":11503,"à®·à®°à®ª":11504,"à®Ĳà®Ĳ":11505,"ĠEarth":11506,"259":11507,"ples":11508,"assment":11509,"ĠStudent":11510,"ĠÙĦ":11511,"à®£à®®à®Ļ":11512,"à®Ĩà®µà®£à®Ļ":11513,"flu":11514,"Ġannounced":11515,"Ġ660":11516,"Ġhold":11517,"Ġ[]":11518,"232":11519,"à¯į...,":11520,"ĠPud":11521,"Ġ?!":11522,"ĠFish":11523,"ĠThirum":11524,"edu":11525,"à®ĩà®²à®ŀ":11526,"Ġcollector":11527,"GS":11528,"Ġang":11529,"à®©à®°à®°":11530,"Ġ021":11531,"ĠApplication":11532,"ring":11533,"à®²à®®à®Ļ":11534,"Ġà®ªà®²à®Ļ":11535,"à®ļà®®à®µ":11536,"stagram":11537,"alapathy":11538,"ĠTor":11539,"Ġà®ªà®´à®µà®ķ":11540,"223":11541,"ç®Ĺ":11542,"hà®°":11543,"Ġà®ªà®µà®³à®µ":11544,"ATA":11545,")-(":11546,"ĠFoundation":11547,"à®ķà®·à®©":11548,"ĠProm":11549,"Ġ305":11550,"à®¨à®®à®ļ":11551,"Ġobject":11552,"à®ªà®ķà®µà®²":11553,"Ġà®Łà®ĥà®ª":11554,"Ġleave":11555,"rities":11556,"ĠMagazine":11557,"IYAR":11558,";;":11559,"Ġ.(":11560,"amalai":11561,"Ġà®ĵà®Łà®ļ":11562,"ĠEqu":11563,"igns":11564,"226":11565,"à¤¦":11566,"ĠSingapore":11567,"ĠThiruvar":11568,"ĠJayalalithaa":11569,"ĠPictures":11570,"Ġathirvu":11571,"Å¡":11572,"Ġbar":11573,"ache":11574,"Ġgoes":11575,"Ġcheck":11576,"rew":11577,"vironment":11578,"Teacher":11579,"PH":11580,"ĠKarthik":11581,"itting":11582,"health":11583,"à®¤à®²à®ª":11584,"icode":11585,"Ġhard":11586,"Ġ258":11587,"Ġcomple":11588,"ÐºÐ¸":11589,"Co":11590,"à®¿||":11591,"adhal":11592,"uan":11593,"à®©à®µà®¤":11594,"à®¿.!":11595,"omet":11596,"Ġterm":11597,"à¯Ī!!!":11598,"ĠâĢ¦âĢ¦":11599,"à¤¸":11600,"Ġà®ĩà®³à®µà®²":11601,"Ã¯":11602,"Ġ399":11603,"================================":11604,"à§":11605,"à®¤à®¯à®°":11606,"à®¯à®®à®¨":11607,"Ġtamilsex":11608,"Ġparticip":11609,"ĠUpdates":11610,"ĠâĢĺ.":11611,"Ġhuman":11612,"ĠScheme":11613,"Ġà®ĩà®¤à®¯à®ļ":11614,"ĠOver":11615,"ä¹Ī":11616,"ĠDepartment":11617,"Ag":11618,"Ġ2024":11619,"Ġclear":11620,"ĠRavi":11621,"ĠVI":11622,"290":11623,"Ġaccept":11624,"elebrities":11625,"Ġà®ħà®¤à®µ":11626,"à®¾âĢ¦..":11627,"à¤ª":11628,"ARE":11629,"à¥ģ":11630,"Ġusing":11631,"åħŃ":11632,"ĠHotel":11633,"à¯ģ,âĢĻ":11634,"à®²à®®à®ķà®³":11635,"ĠMor":11636,"Ġcup":11637,"à¯į,âĢľ":11638,"Ġà®®à®°à®¨":11639,"Ġ1916":11640,"ĠKm":11641,"osophy":11642,"Ġà®ķà®²à®µà®°à®ķ":11643,"Ġ570":11644,"ste":11645,"Ġbudget":11646,"Ġ252":11647,"254":11648,"Ġprov":11649,"Ġpresident":11650,"æµ":11651,"à¯ģ.........":11652,"001":11653,"à¯į!...":11654,"oken":11655,"ĠSTAR":11656,"October":11657,"hra":11658,"ĠSDPI":11659,"ĠMain":11660,"Ġà®ķà®µà®°à®ķ":11661,"ĠOb":11662,"anta":11663,"à¯Ī\",":11664,"can":11665,"Ġ**":11666,"âĢĻ-":11667,"Ġfiled":11668,"Ġnov":11669,"186":11670,"à®¿âĢĿ.":11671,"Ġscreen":11672,"Ġtalks":11673,"Nm":11674,"Ġà®īà®¤à®µà®ª":11675,"esan":11676,"Ġfac":11677,"ĠFast":11678,"Ġtv":11679,"Ġ1857":11680,"Ġbased":11681,"ĠLinked":11682,"'-":11683,"deal":11684,"Ġ326":11685,"asc":11686,"inder":11687,"Ġleaves":11688,"Ġà®£à®®":11689,"Ġà®Ķà®°à®Ļ":11690,"Ġà®®à®Łà®¨":11691,"ĠBang":11692,"Ġlevel":11693,"à¯Ģ:":11694,"à®·à®¸":11695,"Ġà®ķà®°à®ļ":11696,"Ġfeet":11697,"203":11698,"ĠØ±":11699,"ĠMBBS":11700,"sw":11701,"iram":11702,"Ġ242":11703,"akrishnan":11704,"Ġgiven":11705,"Ġ294":11706,"ĠDeath":11707,"Em":11708,"stamil":11709,"ĠND":11710,"Ġhor":11711,"1800":11712,"Ġcomplaint":11713,"rat":11714,"ually":11715,"à®İà®®à®©":11716,"à®ļà®¤à®Ļ":11717,"empt":11718,"ĠLast":11719,"iddle":11720,"à¯ĩ),":11721,"Ġà®¯à®¹":11722,"Ġ295":11723,"achin":11724,"à®²à®©à®®":11725,"atu":11726,"Ġpen":11727,"oly":11728,"Ġ298":11729,"åħ¨":11730,"ĠSamsung":11731,"ĠØ§ÙĦÙĦ":11732,"ç½ĳç«Ļ":11733,"ĠMichael":11734,"Ġans":11735,"à®ķà®¯à®¤":11736,"Ġà®ªà®µà®¤":11737,"ĠRuss":11738,"178":11739,"ME":11740,"à®®à®£à®¨":11741,"ĠMicro":11742,"ĠOK":11743,"ersal":11744,"à®¿\",":11745,"ĠReading":11746,"à°²":11747,"Ġletter":11748,"Ġappoint":11749,"Ġà®İà®ķà®¤":11750,"à®ľà®¯à®²":11751,"ĠâĢį":11752,"Ġwealth":11753,"ague":11754,"Ġnar":11755,"Inter":11756,"æľ¬":11757,"ĠVirat":11758,"/%":11759,"à®ķà®¯à®±":11760,"Ġ,\"":11761,"204":11762,"ĠPradesh":11763,"à®ªà®£à®©":11764,"TEACHER":11765,"raman":11766,"Ġeconom":11767,"ĠGet":11768,"perty":11769,"Ġclose":11770,"ĠPrabh":11771,"!.":11772,"kia":11773,"Ġà®¹à®±":11774,"alee":11775,"à¯į?:":11776,"Ġoil":11777,"Ġà®®à®¹à®²":11778,"555":11779,"may":11780,"mission":11781,"à®¯à®ªà®ķ":11782,"Ġà®·à®°à®ª":11783,"Ġ306":11784,"andy":11785,"ĠLight":11786,"incip":11787,"ĠWeekly":11788,"gi":11789,"åİ":11790,"à®¨à®µà®¨":11791,"à®ķà®²à®ķà®²à®ª":11792,"Ġ540":11793,"ĠPen":11794,"à¯ģ..\"":11795,"163":11796,"ĠÙģ":11797,"Sing":11798,"ĠBan":11799,"ĠDom":11800,"ĠDub":11801,"173":11802,"alaim":11803,"Ġoffer":11804,"âĪĴ":11805,"Ġà®ħà®®à®©":11806,"à®¾à¯į-":11807,"Ġà®ªà®³à®ªà®³à®µ":11808,"ĠSource":11809,"à¯į...''":11810,"1939":11811,"ĠTamilNews":11812,"change":11813,"ĠKore":11814,"ĠSeithigal":11815,")\"":11816,"oj":11817,"à®·à®µà®°":11818,"à®ķà®£à®µ":11819,"idn":11820,"ĠJack":11821,"èĢ":11822,"éĥ":11823,"Ġà®ļà®ķà®°":11824,"amin":11825,"Ġkamal":11826,"vention":11827,"à®¤à®°à®ļà®®":11828,"Ġà®ħà®ªà®ļ":11829,"thumb":11830,"ĠAsp":11831,"Ġ229":11832,"270":11833,"da":11834,"van":11835,"à®Ĩà®µà®Ł":11836,"Ġ323":11837,"iling":11838,"ĠBR":11839,"Story":11840,"OGY":11841,"aivam":11842,"Ġà®ħà®ªà®²":11843,"Ġà®ķà®©à®ķà®°à®¤":11844,"under":11845,"AW":11846,"Pet":11847,"Ġà®®à®²à®°à®ŀ":11848,"===":11849,"æĸ°":11850,"à¯įï»¿:":11851,"à¯ĪâĢľ":11852,"adav":11853,"ĠGR":11854,"Ġ265":11855,"Ġyouth":11856,"à®īà®´à®µà®°":11857,"à®ļà®µà®Ł":11858,"à¯Ĥ...":11859,"Ġhel":11860,"ĠAmb":11861,"Ġå½©ç¥":11862,"Ġà®ķà®©à®ķà®ª":11863,"Ġmal":11864,"overy":11865,"rap":11866,"à¯ģâĢĶ":11867,"à®£à®¯à®°":11868,"ĠSound":11869,"ĠWoman":11870,"à¯ģâĢ¦âĢĻ":11871,"Ġstop":11872,"engue":11873,"ĠðŁĳ":11874,"struction":11875,"harmapuri":11876,"Ġ228":11877,"286":11878,"utham":11879,"Sec":11880,"à¯ĩ.!":11881,"Ã»":11882,"Ġà®¹à®°à®®":11883,"ĠĠĠĠĠĠ":11884,"1938":11885,"osed":11886,"à®£à®µà®±":11887,"ĠMax":11888,"Ġmah":11889,"ĠFollow":11890,"Ġnational":11891,"å¿«":11892,"Ġmovies":11893,"åŃĲ":11894,"Â¾":11895,"à¯Īï»¿":11896,"Ġà®°à®¤à®Ļ":11897,"ĠEnergy":11898,"ĠProcess":11899,"ĠiOS":11900,"reedom":11901,"à¯Ī&":11902,"Ġà®ļà®²à®©à®¤":11903,"aken":11904,"à®¤à®°à®®à®£":11905,"Ġarticleà®¤":11906,"161":11907,"355":11908,"ugam":11909,"AGE":11910,"allenge":11911,"à®²à®ļà®®":11912,"orin":11913,"Ġ630":11914,"ĠSU":11915,"Ġbal":11916,"à®·à®®à®Ł":11917,"à®ķà®¨à®¨":11918,"ĠEp":11919,"åĩĨ":11920,"ĠEXAM":11921,"Rep":11922,"lication":11923,"à®¤à®µà®¤à®±":11924,"Ġdirect":11925,"angai":11926,"1937":11927,"Ġposs":11928,"366":11929,"ĠViral":11930,"avam":11931,"ĠØ¯":11932,"Ġactiv":11933,"à®·à®¯à®°":11934,"ĠRights":11935,"ribution":11936,"Free":11937,"oa":11938,"à®Ĩà®²à®¯à®®":11939,"Ġà®®à®©à®īà®±":11940,"Ġà®ħà®²à®¸":11941,"Ġà®Ĩà®°à®ķ":11942,"ĠIssue":11943,"Ġbattle":11944,"490":11945,"ellow":11946,"riculture":11947,"ĠShankar":11948,"ÙĪØ±":11949,"Feb":11950,"pet":11951,"ĠMass":11952,"ĠNeg":11953,"Ġpop":11954,"154":11955,"227":11956,"à®¿?\"":11957,"à¯ĩ...'":11958,"480":11959,"VM":11960,"fig":11961,"aikal":11962,"257":11963,"ialog":11964,"UPD":11965,"abarimala":11966,"Braz":11967,"Ãª":11968,"à¯ĤâĢĿ":11969,"Ġpain":11970,"à¯į....âĢĿ":11971,"Ġspace":11972,"erve":11973,"ampion":11974,"AKK":11975,"Ġvisited":11976,"340":11977,"à®ªà®£à®Ļ":11978,"Ġaffect":11979,"ĠInstall":11980,"ĠYog":11981,"ERT":11982,"ĠPanch":11983,"à¯ģ=":11984,"à®ķà®µà®ļà®¤":11985,"ĠPlease":11986,"Ġmale":11987,"ables":11988,"ĠStore":11989,"ĠNokia":11990,"åľ¨":11991,"Ġtomorrow":11992,"à®ķà®ķà®ª":11993,"à®³à®ķà®¤":11994,"ĠCond":11995,"ements":11996,"otional":11997,"uggle":11998,"Ġà®ªà®°à®¤à®µà®°":11999,"Â¼":12000,"Ġ348":12001,"ĠDuration":12002,"ĠVan":12003,"228":12004,"Ġarticleà®ļ":12005,"Ġà®ĵà®°à®Ł":12006,"Ġsad":12007,"Ġvan":12008,"ashion":12009,"tual":12010,"Ã¸":12011,"à¯ģ>":12012,"à¯ģ.]":12013,"Ġlet":12014,"MR":12015,"Cent":12016,"Ġà®ļà®°à®£à®¤":12017,"Ġtir":12018,"Ġ299":12019,"model":12020,"Ġà®ħà®°à®µà®®":12021,"Ġà®ķà®°à®ķà®®":12022,"ĠSet":12023,"ĠMall":12024,"Ġà®ªà®´à®ķà®ķ":12025,"ĠFREE":12026,"ĠViber":12027,"usion":12028,"El":12029,"à®µà®¯à®°":12030,"Ġà®ªà®°à®ªà®°à®µ":12031,"à¯ģ?!":12032,"ĠEr":12033,"Ġaddress":12034,"à®¤à®®à®³à®µ":12035,"Ġà®ĩà®²à®µ":12036,"à®Ĩà®¯à®°":12037,"194":12038,"Ġdisease":12039,"à¯ģ--":12040,"Ġ1902":12041,"ĠPad":12042,"Ġcu":12043,"375":12044,"Ġjobs":12045,"Ġà®¤à®µà®®à®£":12046,"itions":12047,"Ġanother":12048,"Ġrap":12049,"IRIYAR":12050,"rect":12051,"ivery":12052,"à®Ĭà®Łà®ķà®¤":12053,"span":12054,"eals":12055,")âĢĿ":12056,"ĠRob":12057,"à®¤à®°à®®à®±":12058,"à®ħà®ķà®¸":12059,"Ġà®¨à®ķà®°à®®à®©":12060,"Ð¸Ðµ":12061,"si":12062,"à®īà®ªà®¯":12063,"AGAAS":12064,"Ġcentral":12065,"à®¯à®ļà®¤":12066,"Ġà®ĩà®°à®ŀ":12067,"à®ªà®¤à®ŀ":12068,"à®ķà®®à®ª":12069,"Ġcost":12070,"ĠRoll":12071,"Ġà®°à®ķà®¸":12072,"à¯Ī?\"":12073,"eeth":12074,"Ġcontin":12075,"AGAASIRIYAR":12076,"pass":12077,"à®Łà®¨à®Łà®µà®Ł":12078,"à¯įâĢĻ!":12079,"Ġmaking":12080,"ĠFan":12081,"Ġaudio":12082,"Ġ367":12083,"Dh":12084,"à®®à®¯à®µ":12085,"inary":12086,"à®¯à®¤à®¤":12087,"à®¯à®²à®¯":12088,"à¯ģ?''":12089,"à®Īà®°à®®":12090,"âĨĲ":12091,"ception":12092,"ĠFinance":12093,"TAMILAGAASIRIYAR":12094,"à®°à®µà®²à®¤":12095,"à¯įâĢĿ-":12096,"Ġnetwork":12097,"istor":12098,"à®ķà®°à®¸":12099,"Ġà®ļà®®à®£à®ķ":12100,"Ġà®²à®¯à®¤":12101,"à®¾!âĢĻ":12102,"Ġ..?":12103,"Ġemail":12104,"à¯¦à¯¦à¯¦":12105,"Of":12106,"Ġà®ªà®°à®ªà®°à®ķ":12107,"airam":12108,"ĠTrail":12109,"Ġstarted":12110,"ĠFormat":12111,"Ġà®®à®®à®ķ":12112,"ĠAlex":12113,"à¯ĭ?âĢĻ":12114,"Ð»Ñı":12115,"ĠLimited":12116,"à®£à®´à®ķ":12117,"Ġà®Ĩà®ļà®®":12118,"Ġ'''":12119,"Ġà®·à®ĥà®ª":12120,"ĠRK":12121,"asp":12122,"Ġlab":12123,"Ġà®ªà®°à®®à®ªà®¤":12124,"Rah":12125,"Ġà®ļà®®à®ļà®®":12126,"Ġà®ªà®ļà®³":12127,"Ġwish":12128,"Ġ307":12129,"Ġgives":12130,"Ġpat":12131,"Ġ248":12132,"BM":12133,"Ġà®Ĩà®Łà®ķ":12134,"Ġ625":12135,"Ġsat":12136,"ĠNewsAug":12137,"ĠJio":12138,"Ġvillage":12139,"Ġà®¹à®ĥà®ª":12140,"Ġà®Ĳà®İà®®":12141,"esw":12142,"Ġ259":12143,"ĠOR":12144,"ITC":12145,"Ġofficer":12146,"Ġà®ķà®²à®µà®©":12147,"Ġpark":12148,"ĠIr":12149,"comes":12150,"Ġ282":12151,"abled":12152,"ãĢĢ":12153,"ĠSEKAR":12154,"Ġà®ħà®ĥà®±":12155,"font":12156,"Ãĺ":12157,"à®®à®ľà®¯à®¨":12158,"Ġà®İà®ķà®©":12159,"à®¹à®ļà®©":12160,"Ġ276":12161,"Ġà®±à®µ":12162,"268":12163,"Black":12164,"anned":12165,"Ġbreak":12166,"Ġelephants":12167,"Ġframes":12168,"JACK":12169,"à®ªà®®à®±":12170,"404":12171,"ĠWhen":12172,"/////":12173,"950":12174,"AST":12175,"this":12176,"Ġà®ħà®´à®ķà®´à®ķ":12177,"Ġcm":12178,"Ġcrit":12179,"tty":12180,"Ġalong":12181,"Ġà®ļà®ķà®®à®©":12182,"à®Ĵà®®":12183,"ĠRos":12184,"Ġbas":12185,"Ġ237":12186,"Ġcommission":12187,"Ãķ":12188,"à®®à®Łà®ķ":12189,"à¯ĩ}":12190,"Ġ277":12191,"Ġallow":12192,"Ġå½©ç¥ŀäºīéľ¸":12193,"/)":12194,"Ġà®¤à®²à®ķ":12195,"Ġ345":12196,"äºĮ":12197,"ĠTech":12198,"ector":12199,"à®³à®®à®¯":12200,"Ġ311":12201,"Ġ412":12202,"Ġà®ĩà®³à®¨à®°":12203,"appu":12204,"Ġflower":12205,"ĠScreen":12206,"Ġà®ħà®ķà®Łà®®":12207,"essional":12208,"Ġexperience":12209,"Ã£o":12210,"emples":12211,"Ġbi":12212,"imate":12213,"utic":12214,"Pad":12215,"à®ĩà®Łà®ª":12216,"à®ıà®İà®ļ":12217,"ĠSays":12218,"488":12219,"477":12220,"Ġà®¤à®°à®¤à®°à®µ":12221,"');":12222,"à®ħà®ķà®µ":12223,"à¯į...)":12224,"ĠâĢ¦!":12225,"ãģĭ":12226,"Äģn":12227,"OSH":12228,"Ġdesign":12229,"Don":12230,"ming":12231,"pre":12232,"Ġseek":12233,"ĠGrand":12234,"Di":12235,"Del":12236,"Kamal":12237,"do":12238,"Ġà®¸à®ĥà®ª":12239,"Ġ292":12240,"à®¿...!":12241,"à¯į.):":12242,"ORT":12243,"Ġindust":12244,"LAY":12245,"Ġavailable":12246,"ïĥĺ":12247,"640":12248,"Gl":12249,"à®ªà®µà®²":12250,"Ġ338":12251,"à¯ĩ.,":12252,"à®ªà®²à®Ł":12253,"à®ļà®°à®£à®Ł":12254,"Ġstrength":12255,"Ġbad":12256,"269":12257,"endtext":12258,"Ġappeared":12259,"nh":12260,"Ġ249":12261,"Ġkam":12262,"ĠArun":12263,"ĠSalem":12264,"216":12265,"×¼":12266,"Ġ!\"":12267,"Ġà®īà®ªà®¯à®®":12268,"ĠÐ³":12269,"attinam":12270,"inistry":12271,"Ð»Ð¸":12272,"ðŁĻı":12273,"Not":12274,"à®°à®®à®²à®°":12275,"Ġà®īà®¯à®°à®Ł":12276,"rey":12277,"à¯ģâĢ¦âĢ¦":12278,"à¯ĩ',":12279,"ĠAsian":12280,"ĠAffairs":12281,"à®ªà®Łà®±à®¤":12282,"à¯ģ.?":12283,"ĠSasikala":12284,"ĠLic":12285,"à°¨":12286,"Ġincluding":12287,"den":12288,"à¯įÂ´":12289,"Ġà®®à®£à®Ļ":12290,"à®°à®²à®Ł":12291,"Ġbetter":12292,"à¯įâĢĻâĢĻ.":12293,"TT":12294,"Î·":12295,"Ġnever":12296,"Ġlot":12297,"à®°à®¤à®¨":12298,"à®ªà®°à®¤à®©":12299,"ĠTim":12300,"oms":12301,"Ġinternet":12302,"à®¿.-":12303,"à®®à®£à®®à®ķà®©":12304,"Ġmass":12305,"Ġà®ªà®°à®ªà®°à®¤":12306,"à®¾..?âĢĿ":12307,"Ġsuff":12308,"JACKIE":12309,"ĠTamizh":12310,"omatic":12311,"itis":12312,"444":12313,"ÂłÂłÂłÂłÂłÂł":12314,"SM":12315,"à¯įÂ·":12316,"à®Ĩà®ķà®®":12317,"Ġ312":12318,"amma":12319,"à¯į(?)":12320,"183":12321,"Ġgave":12322,"ĠThoothukudi":12323,"Ġexp":12324,"Ġà®ħà®ķà®µà®£à®ķ":12325,"Ã³n":12326,"esus":12327,"Ġ2400":12328,"pres":12329,"Ġcloud":12330,"Ġfront":12331,"ymbol":12332,"Ġruns":12333,"Ass":12334,"ds":12335,"Ġill":12336,"Ġà®ķà®Łà®ķà®¤":12337,"Ġà®ªà®²à®µà®´":12338,"010":12339,"amous":12340,"ĠTiles":12341,"ĠGram":12342,"Ġyoutube":12343,"ifi":12344,"elete":12345,"ASH":12346,"Ġissues":12347,"PG":12348,"eth":12349,"à®ļà®Łà®ķ":12350,"à®ķà®®à®²à®®":12351,"Ġà®¤à®µà®Ļ":12352,"Ġcity":12353,"elt":12354,"Ġà®µà®¤à®©":12355,"Ġà®ĩà®ľ":12356,"à®ħà®µà®²":12357,"ilet":12358,"Ġà®ķà®©à®ķà®®":12359,"Ġcopy":12360,"à®ĩà®Łà®Ĵà®¤":12361,"498":12362,"aiyan":12363,"ĠEdit":12364,"Ġà®Ĭà®ķà®¤":12365,"Ġ470":12366,"Ġbo":12367,"Ġ[[":12368,"ĠKn":12369,"ĠRock":12370,"++++++++":12371,"Ġhit":12372,"Ġgame":12373,"à®¾...!":12374,"ĠTrending":12375,"type":12376,"fic":12377,"à®´à®°à®¤":12378,"Ġà®ªà®²à®ķà®²":12379,"à®²à®¤à®£":12380,"ĠPoint":12381,"1924":12382,"ĠBE":12383,"ivid":12384,"afety":12385,"John":12386,"à¯ģ.-":12387,"Ġà®ħà®Łà®µ":12388,"Ġà®īà®¤à®±à®²":12389,"ĠSr":12390,"Ġbhp":12391,"iru":12392,"Ġlooking":12393,"ĠXX":12394,"ronic":12395,"à®ħà®ķà®´":12396,"Ġtitle":12397,"aidu":12398,"Ġindian":12399,"ĠWhatsapp":12400,"Ġà®Ĵà®Łà®©":12401,"Ð°Ñı":12402,"à¥ĭ":12403,"Ġready":12404,"ĠProtest":12405,"wordpress":12406,"?''":12407,"Ġ\\\\":12408,"Ġwalk":12409,"ĠDhanush":12410,"andi":12411,"162":12412,"alli":12413,"Ġstore":12414,"ĠMonth":12415,"ĠRate":12416,"305":12417,"akar":12418,"à°Ĥ":12419,"à®ªà®ķà®³":12420,"cm":12421,"ves":12422,"à®£à®±à®¤":12423,"Ġ460":12424,"ĠAns":12425,"Ġkind":12426,"Ġcomes":12427,"Ġ342":12428,"Ġarticleà®µ":12429,"?,":12430,"VU":12431,"sa":12432,"à®ļà®°à®ļ":12433,"Ġà®ĵà®İà®¸":12434,"à®¯à®¨à®²à®©":12435,"Ġimp":12436,"sur":12437,"æł":12438,"è·":12439,"Ġamb":12440,"à®ļà®¨à®¤":12441,"ðŁı":12442,"ĠAnti":12443,"ĠPostà®ª":12444,"ĠDiwali":12445,"Ġruined":12446,"Ap":12447,"PN":12448,"Ġà®ķà®ļà®®":12449,"à®³à®°à®µà®¤":12450,"onus":12451,"ĠPalanisamy":12452,"icers":12453,"Ġseason":12454,"ÂłÂłÂłĠÂłÂłÂłĠ":12455,"Ġeducation":12456,";.":12457,"à®°à®Łà®©":12458,"à®ħà®ľà®¯":12459,"ĠTalk":12460,"Ġ2100":12461,"ÑģÑı":12462,"Ġå¹":12463,"Äģl":12464,"æĹ¶":12465,"TeacherTN":12466,"aters":12467,"209":12468,"Ġlarge":12469,"ĠAmazon":12470,"wareness":12471,"Non":12472,"mod":12473,"à¯Ĩ-":12474,"à®Īà®²":12475,"à®¾!'":12476,"377":12477,"Ġteacher":12478,"iritual":12479,"ĠRBI":12480,"Ġ268":12481,"ĠStyle":12482,"@@":12483,"UI":12484,"Ġà®ľà®ķà®°":12485,"Ġ313":12486,"Ġcal":12487,"ĠDetails":12488,"Ġ293":12489,"Ġdelicate":12490,"OB":12491,"âĢ¦âĢĻ":12492,"Ġà®°à®ļà®µ":12493,"Ġfarm":12494,"ĠGM":12495,"Ġlow":12496,"Ġpresent":12497,"è£":12498,"itness":12499,"Ġthick":12500,"Ġà®ķà®µà®©à®ª":12501,"à®²à®¨à®±":12502,"endar":12503,"TamilEn":12504,"çĲ":12505,"Ġà®ıà®±à®ª":12506,"erland":12507,"à®Łà®¯à®Ł":12508,"à®©à®°à®ķà®®":12509,"Ġà®ħà®ļà®µ":12510,"Ġà®ķà®©à®ª":12511,"1929":12512,"rac":12513,"Ġrasi":12514,"à¯Ī...!":12515,"ãĤĬ":12516,"Ġperfect":12517,"Ġà®¤à®®à®°":12518,"ĠTom":12519,"à®µà®¨à®²":12520,"ĠKAL":12521,"ums":12522,"ainst":12523,"Ġcomedy":12524,"ashmir":12525,"ronics":12526,"Ġà®ħà®°à®ļà®®à®°à®®":12527,"ĠIPS":12528,"ãģ£":12529,"appan":12530,"Ġà®ıà®ľà®£":12531,"ervation":12532,"ASS":12533,"åĽĽ":12534,"well":12535,"Ġà®ľà®¯à®µ":12536,"214":12537,"Aut":12538,"radi":12539,"uice":12540,"à®µà®°à®¯":12541,"âĢĿ)":12542,"Ġ336":12543,"à¯į!!!!":12544,"à®Ĵà®¸":12545,"ĠÐļ":12546,"å½©åĽ¾":12547,"à¥¤à¥¤":12548,"Ġspeaks":12549,"roversy":12550,"à®ªà®¤à®ª":12551,"à®¤à®ªà®ķ":12552,"à®Ĩà®ķà®ķ":12553,"ĠKur":12554,"Art":12555,"Å¾":12556,"Ġà®Ĩà®¯à®®":12557,"ando":12558,"Ġ231":12559,"allikat":12560,"epl":12561,"Ġwhile":12562,"aysia":12563,"à®°à®®à®£à®©":12564,"Ġà®ħà®±à®©":12565,"inh":12566,"ĠArab":12567,"ouk":12568,"Ġfew":12569,"à®ŀà®¤":12570,"à®ļà®®à®¯à®ª":12571,"Ġà®Ĳà®µà®ķ":12572,"à®¤à®µà®°à®¤":12573,"Ġà®ĥà®ªà®Ļ":12574,"asri":12575,"ikes":12576,"Ġ287":12577,"aught":12578,"padding":12579,"à®ªà®°à®£à®®":12580,"à®ļà®³à®µ":12581,"Ġà®ħà®µà®µ":12582,"à®Īà®·":12583,"ĠÂ¼":12584,"ucherry":12585,"Ġearth":12586,"Ġà®¯à®µà®©à®°":12587,"Ġlim":12588,"Ġarticleà®®":12589,"Ġclassified":12590,"Pa":12591,"function":12592,"ku":12593,"197":12594,"Ġà®ķà®Łà®²à®²":12595,"Ġple":12596,"Ġgossip":12597,"Î¼":12598,"Ġà®ªà®²à®ķà®Ł":12599,"ĠSD":12600,"à®ĥà®ªà®£":12601,"Ġà®ªà®ļà®¯":12602,"Ġdeb":12603,"ãĤĤ":12604,"BR":12605,"Ġenc":12606,"à®ķà®ªà®°":12607,"Ġ321":12608,"ĠMadh":12609,"Ġpor":12610,"ĠRay":12611,"309":12612,"Ġsecurity":12613,"Ġà®ļà®¹à®°":12614,"008":12615,"child":12616,"article":12617,"abs":12618,"Ø§Ø":12619,"................................":12620,"ĠAsia":12621,"ĠChildren":12622,"Åį":12623,"atta":12624,"ĠDam":12625,"ĠFore":12626,"Ġà®ķà®®à®²à®¤":12627,"Ġupdates":12628,"à®²à®ĥ":12629,"à®¨à®Łà®µ":12630,"à®£à®ľ":12631,"Ġ333":12632,"à®ªà®ķà®ļà®ķ":12633,"Ġà®¤à®ªà®¸":12634,"aign":12635,"roc":12636,"OLOGY":12637,"ĠNanayam":12638,"Ġfragrant":12639,"à®¯à®Ĵà®³":12640,"ICS":12641,"Ġrights":12642,"inata":12643,"agap":12644,"ĠGar":12645,"266":12646,"uction":12647,"à®ļà®®à®·":12648,"ĠGovernor":12649,"bery":12650,"anged":12651,"349":12652,"pi":12653,"à¯į@":12654,"Ġà®ªà®ķà®©":12655,"à®īà®µ":12656,"ĠâĢľ(":12657,"à®²à®ªà®ª":12658,"åĲĪ":12659,"uzz":12660,"TamilEnfo":12661,"Ġà®ļà®®à®¯à®²à®±":12662,"à®°à®µà®£":12663,"Ġà®·à®·":12664,"Ġ7500":12665,"368":12666,"ĠExt":12667,"Plus":12668,"TION":12669,"à®¨à®³à®©":12670,"à¯į.âĢĭ":12671,"à®ħà®±à®ķ":12672,"Ġà®ªà®¤à®±à®µ":12673,"Ġdom":12674,"ĠEUR":12675,"35809":12676,"ĠBlue":12677,"á¹ī":12678,"Char":12679,"down":12680,"Ġpetition":12681,"yclone":12682,"ient":12683,"Ġà®İà®ļà®®":12684,"Ġà®¤à®°à®Ł":12685,"ILL":12686,"\\'":12687,"Ġ730":12688,"Ġtable":12689,"1936":12690,"ĠBrah":12691,"Ġstation":12692,"ifty":12693,"Ġrice":12694,"Ġleaders":12695,"mal":12696,"ĠSO":12697,"193":12698,"ĠStation":12699,"ÐµÐº":12700,"ä¸į":12701,"Comments":12702,"à®ĵà®ĵà®ĵà®ĵ":12703,"Ð¾Ð³Ð¾":12704,"Sun":12705,"à¯į,âĢĺ":12706,"Ġà®ĩà®°à®ļà®©":12707,"à®ĩà®°à®ķà®ļ":12708,"ĠBO":12709,"Ġintro":12710,"×ķ×":12711,"Ġmuth":12712,"398":12713,"Ġcolor":12714,"ĠPrescription":12715,"cell":12716,"à©":12717,"Ġ520":12718,"ĠNIFTY":12719,"1934":12720,"Ġmodi":12721,"ential":12722,"Ġ253":12723,"Ġà®ªà®²à®®à®£":12724,"à®īà®²à®ķà®¨":12725,"uddy":12726,":#":12727,"æĶ":12728,"Ġà®ħà®¯à®±":12729,"ĠSign":12730,"ĠCBC":12731,"ĠHER":12732,"459":12733,"heel":12734,"Ġmanagement":12735,"440":12736,"Ġà®ħà®²à®©":12737,"à¯ĩà®¾ÂŃ":12738,"ĠCelebrities":12739,"iable":12740,"ĠHel":12741,"allikattu":12742,"Ġä¹":12743,"à®³à®µà®Ł":12744,"Ġà®ĩà®©à®®à®ķ":12745,"utions":12746,"Ġround":12747,"à®·à®ªà®°":12748,"Ġà®¸à®²à®µ":12749,"ators":12750,"ĠSee":12751,"edit":12752,"ĠCou":12753,"Ġ241":12754,"285":12755,"ĠImages":12756,"âĢ¦âĢ¦âĢ¦âĢ¦âĢ¦âĢ¦âĢ¦âĢ¦":12757,"Ġsorrow":12758,"à¯įà¯Ĩà®¿":12759,"mode":12760,"à¯įÂ¢":12761,"ĠâĢª":12762,"Ġdaily":12763,"171":12764,"359":12765,"à®®à®ļà®ķ":12766,"Ġ499":12767,"ĠFIFA":12768,"unj":12769,"ĠStates":12770,"984":12771,"books":12772,"ĠPetrol":12773,"ç¾İ":12774,"ĠFurnished":12775,"rad":12776,"avas":12777,"ources":12778,"à®¾âĢ¦âĢĻ":12779,")âĢİ":12780,"050":12781,"ging":12782,"à®¸Ã´":12783,"Ġcou":12784,"olic":12785,"à®ĵà®¨":12786,"ĠHand":12787,"264":12788,"à®Ĩà®Ĩà®Ĩ":12789,"ĠKarate":12790,"Ġviral":12791,"ĠAspire":12792,"à®°à®³à®ķ":12793,"à®¾âĢĺ":12794,"Ġà®ħà®ļà®°à®µ":12795,"Ġsem":12796,"Ġfiles":12797,"Ġhike":12798,"agi":12799,"ennis":12800,"à®ĩà®³à®µà®°à®ļà®©":12801,"à®°à®¹à®°":12802,"à®±à®°à®ļà®©":12803,"à®ķà®´à®¨":12804,"Ġà®ķà®¤à®µà®£":12805,"attala":12806,"Photo":12807,"Ġà®Ĩà®¤à®µ":12808,"Ġ410":12809,"ĠMD":12810,"Ġsoftware":12811,"Car":12812,"Ġ560":12813,"ĠPas":12814,"ĠGerman":12815,"ĠJud":12816,"Ġstep":12817,"ĠPrakash":12818,"Vis":12819,"gam":12820,"madurai":12821,"à®¤à®ĥà®ª":12822,"Ġà®İà®¹":12823,"Ġà®ķà®²à®ķà®Ļ":12824,"ĠSUV":12825,"Ġcell":12826,"owing":12827,"à®¾âĢĿ,":12828,"Ġconduct":12829,"ĠDhoni":12830,"à¯ģÂ¡":12831,"à®¿Â¡Â¢":12832,"à¯į.âĢĺ":12833,"à®ħà®ķà®°à®®":12834,"à®·à®ªà®¤":12835,"Ġ329":12836,"à®īà®ªà®°":12837,"Ġ567":12838,"à®¾.!":12839,"ĠTerm":12840,"Ġà®®à®²à®ļà®²":12841,"378":12842,"low":12843,"Ġà®ķà®¤à®ķ":12844,"enz":12845,"Ġlittle":12846,"Ġ2300":12847,"à®°à®¹à®¸":12848,"Ġdemand":12849,"Ļ½":12850,"à®²à®®à®¨":12851,"à®±à®µà®ŀ":12852,"Ġtravel":12853,"Ġblood":12854,"unning":12855,"Ġstatue":12856,"rpm":12857,"à®¿âĢľ":12858,"à®Ĩà®¤à®®":12859,"Ġà®¤à®©à®µà®°à®µ":12860,"ĠDATE":12861,"olf":12862,"ALS":12863,"ãĢĳ":12864,"Ġ.âĢĿ":12865,"ĠRamal":12866,"Ġocean":12867,"ĠOpp":12868,"181":12869,"à¯ĩ...\"":12870,"Ġteach":12871,"å¼ı":12872,"ads":12873,"265":12874,"Ġproduc":12875,"Ġshock":12876,"pal":12877,"Ġà®¤à®µà®²":12878,"Ġà®¤à®©à®µà®¨":12879,"à®īà®°à®®":12880,"Ġà®°à®ļà®ķ":12881,"ĠNRI":12882,"ĠLike":12883,"Ġsexual":12884,"reative":12885,"à¨¿":12886,"####":12887,"uticorin":12888,".]":12889,"ius":12890,"aries":12891,"ĠÙĨ":12892,"Ġà®®à®ĥà®°":12893,"336":12894,"moz":12895,"Ġà®®à®ķà®°à®¤":12896,"à®ķà®´à®ŀ":12897,"ĠKov":12898,"ovo":12899,"ĠThanks":12900,"Ġspec":12901,"KR":12902,"Ġà®°à®¤à®µ":12903,"Ġmembers":12904,"aire":12905,"ĠLeg":12906,"258":12907,"ĠArmy":12908,"ãĢĲ":12909,"Ġworkers":12910,"Ġà®īà®¤à®¯à®Ļ":12911,"Ġ543":12912,"Ġstatement":12913,"à®ķà®°à®£à®Ļ":12914,"Ġà®ªà®²à®¹":12915,"Ġ315":12916,"ĠTree":12917,"ĠMart":12918,"ĠKam":12919,"252":12920,")...":12921,"à¯ĭ!!":12922,"Ġà®®à®¤à®¯":12923,"ĠUm":12924,">>>>":12925,"ĠTelevision":12926,"à®¯à®ļà®Ļ":12927,"à®ªà®Łà®²à®¤":12928,"inet":12929,"à®Łà®µà®¨":12930,"à®ĩà®°à®¯":12931,"Ġà®īà®²à®ķà®®à®ķ":12932,"ĠUnivers":12933,"å©":12934,"åĴ":12935,"Ġä¸Ģ":12936,"à¯į.!!":12937,"à®°à®®à®´":12938,"aru":12939,"ĠMother":12940,"ĠClean":12941,"ĠEffect":12942,"Ġkerala":12943,"Ġjokes":12944,"Ġorig":12945,"å¹³":12946,"adhar":12947,"ĠFlat":12948,"æİ":12949,"à®Łà®©à®©":12950,"à®¤à®°à®µà®²":12951,"ÂłĠÂł":12952,"à®£à®®à®±":12953,"Ġ?)":12954,"ĠED":12955,"ĠJapan":12956,"Ġà®¨à®µà®®à®£":12957,"ternal":12958,"Arutpa":12959,"Ġkathaikal":12960,"Kom":12961,"à®²à®µà®²":12962,"à®¯à®ļà®¨":12963,"Ġà®²à®¯à®®":12964,"Ġà®ªà®°à®µà®ļà®®à®Ł":12965,"ĠThat":12966,"quare":12967,"Sup":12968,"à®¤à®ªà®Łà®®":12969,"à®ħà®²à®Ł":12970,"à®Łà®£à®ļ":12971,"à®°à®³à®¯":12972,"Ġwait":12973,"uran":12974,"Ġheavy":12975,"Ġquestions":12976,"à®Ĭà®Ĭà®Ĭà®Ĭ":12977,"Ġclassifieds":12978,"download":12979,"à®®à®²à®ª":12980,"Ġhits":12981,"Ġ308":12982,"à¯ģâĢ¦?":12983,"405":12984,"387":12985,"Siv":12986,"Ġà®ħà®ªà®ļà®ķ":12987,"ĠGame":12988,"Ġpersons":12989,"kurippu":12990,"ITE":12991,"bh":12992,"yam":12993,"Î²":12994,"à®°à®ļà®µà®Ļ":12995,"ito":12996,"Ġ289":12997,"istics":12998,"ĠChem":12999,"à®¾âĢĿ.":13000,"à¯Ģ\"":13001,"011":13002,"Ġtouch":13003,"oub":13004,"à®ļà®°à®µà®£à®ª":13005,"à¯į}.(":13006,"Ġ490":13007,"Ġà¤¸":13008,"Ġsamayalkurippu":13009,"à®ľà®ľà®ľà®ľ":13010,"Windows":13011,"super":13012,"à®®à®£à®®à®ķà®³":13013,"ĠFont":13014,"ĠGPS":13015,"eget":13016,"eyarchi":13017,"à®ķà®®à®¯":13018,"ĠTirup":13019,"ĠThiruArutpa":13020,"ĠPath":13021,"ĠFB":13022,"Ġtrack":13023,"áĥ":13024,"uls":13025,"ĠÐ°":13026,"ĠPolitics":13027,"Ġmonths":13028,"æĪĲ":13029,"ĠAbdul":13030,"cs":13031,"km":13032,"à®¤à®®à®¤à®®":13033,"Ġpast":13034,"ĠSiva":13035,"88888888":13036,"erdict":13037,"ç§":13038,"à®Łà®°à®ļà®©":13039,"Ġdog":13040,"Ð¾Ð±":13041,"Ġplayer":13042,"æĹ¥":13043,"Ġà®ħà®²à®ļà®µ":13044,"stant":13045,"Ġvoice":13046,"ĠUser":13047,"Ġexpress":13048,"Ġtweet":13049,"à®ħà®µà®ļà®°à®ª":13050,"à®¤à®ķà®¨":13051,"Ġà®ļà®°à®ļà®°à®µ":13052,"Ġà®Ĩà®©à®²":13053,"Ġ498":13054,"Ġà¯Ĩà®¿":13055,"Ġrecipe":13056,"Ġå¤§åıĳ":13057,"body":13058,"à®¿ï»¿":13059,"à®³à®ļà®²":13060,"Ġbow":13061,"Ġ286":13062,"gress":13063,"list":13064,"âľ":13065,"à¯Ī.âĢĻ":13066,"Ġ309":13067,"Ġà®¤à®³à®°à®µ":13068,"ĠYes":13069,"à¯ĭ!\"":13070,"WA":13071,"def":13072,"à®¨à®ķà®Ļ":13073,"Ġà®Łà®²à®¸":13074,"1925":13075,"Ġmoon":13076,"Ġdest":13077,"ĠYoung":13078,"Ø§Øª":13079,"ĠHuawei":13080,"cue":13081,"div":13082,"Ġà®°à®¤à®©":13083,"449":13084,"376":13085,"ĠÃ©":13086,"ictionary":13087,"year":13088,"à®¤à®ªà®°":13089,"Ġ,âĢĿ":13090,"ĠSterlite":13091,"edding":13092,"ĠIE":13093,"Ġfun":13094,"Ġgreen":13095,"à®ªà®ķà®µà®©":13096,"à®³à®²à®µ":13097,"Ġà®ħà®°à®ļà®ªà®Ł":13098,"alse":13099,"Ġ12000":13100,"Ġwearing":13101,"Ġmilk":13102,"IGH":13103,"umerology":13104,"Brazos":13105,"ĠMont":13106,"Ġhy":13107,"ĠFR":13108,"ĠStock":13109,"à®¾âĢ¦!":13110,"ording":13111,"325":13112,"à®¤à®µà®³à®¤":13113,"à¯į!).":13114,"356":13115,"ĠPosts":13116,"Ġtrad":13117,"æĢ§":13118,"&&":13119,"ĠRight":13120,"Ġprovid":13121,"Description":13122,"Ġq":13123,"à®µà®®à®²":13124,"à®ħà®²à®®":13125,"ĠModel":13126,"ĠAction":13127,"à¯į..!!âĢĿ":13128,"Phil":13129,"ÑģÑĤÐ²":13130,"à®Ĩà®¤à®°à®µà®±":13131,"à®¯à®·":13132,"Ġà®ļà®ķà®®":13133,"à®ħà®Łà®²":13134,"ĠCN":13135,"1943":13136,"iring":13137,"umai":13138,"231":13139,"ocation":13140,"Rajinikanth":13141,"hop":13142,"à®²à®¯à®ª":13143,"tham":13144,"Ġ|-":13145,"Ġà®ĩà®´à®¤":13146,"..........":13147,"rices":13148,"æĸ¹":13149,"ĠNETWORKS":13150,"215":13151,"hib":13152,"à¯Ĩà®¾âĢĮ":13153,"à®°à®µà®ļ":13154,"Ġcurrent":13155,"rog":13156,"Ġà®°à®£à®ķà®³à®®":13157,"Ġrelief":13158,"Ġcreate":13159,"à®®à®±à®¤":13160,"ĠCivil":13161,"Ġotha":13162,"ĠImage":13163,"inayagar":13164,"ls":13165,"Æ°":13166,"à®ªà®ķà®ķ":13167,"âĢ¬":13168,"Ġtele":13169,"Ġbenefits":13170,"Ġ30000":13171,"ocol":13172,"uki":13173,"hya":13174,"Ġalways":13175,"Ġrob":13176,"Ġassembly":13177,"airamuthu":13178,"èĥ":13179,"à®ķà®³à®³":13180,"à¯ĭ),":13181,"Ġà®®à®¤à®¨à®®":13182,"ĠPG":13183,"inda":13184,"Ġ355":13185,"á¹Ł":13186,"Bre":13187,"Mr":13188,"Âª":13189,"à®¤à®±à®µ":13190,"à®ªà®µà®©à®®":13191,"ĠMail":13192,"à®ľà®©à®ķ":13193,"Ġnone":13194,"EPA":13195,"Ú¯":13196,"244":13197,"à°ķ":13198,"çĶµå½±":13199,"Ġ'(":13200,"ĠSSL":13201,"ithan":13202,"ĠNight":13203,"eland":13204,"email":13205,"296":13206,"ĠSeason":13207,"ĠForce":13208,"Ġsounds":13209,"Ġ332":13210,"enes":13211,"arter":13212,"ello":13213,"666":13214,"onds":13215,"actory":13216,"rivacy":13217,"ĠClasses":13218,"à¯ĩà®¾âĢĮ":13219,"Ġà®ĥà®ªà®¸":13220,"Ġ262":13221,"Ð°Ñģ":13222,"à®¾\",":13223,"ãĤ¹":13224,"ĠSilva":13225,"labelled":13226,"AO":13227,"Dev":13228,"UG":13229,"high":13230,"time":13231,"à¯į].":13232,"onstr":13233,"Ġ620":13234,"Ġter":13235,"coming":13236,"277":13237,"Ġjoin":13238,"ML":13239,"WS":13240,"à³":13241,"à¯ĬÂ¢":13242,"Ġà®Ĳà®Ĳà®İà®®":13243,"ĠMatch":13244,"Ġ261":13245,"Ġrajini":13246,"å®Ŀ":13247,"PE":13248,"à¯ģ|":13249,"Ġà®Ĩà®°à®²":13250,"Ġà®ļà®Łà®ļ":13251,"angana":13252,"Ġà¯®":13253,"ĠAdminist":13254,"ĠMovies":13255,"QL":13256,"ez":13257,"èĩ":13258,"à®²à®©à®¤":13259,"Ġà®Ĩà®£à®µà®ª":13260,"Ġà®±à®©à®°":13261,"243":13262,"ï¿½ï¿½ï¿½ï¿½ï¿½ï¿½ï¿½ï¿½ï¿½":13263,"Ø§Ùħ":13264,"ASA":13265,"Ġà®®à®¤à®°à®ļ":13266,"âĢĤ":13267,"Ġà®®à®²à®°à®ļ":13268,"ĠCategories":13269,"Ġkud":13270,"ugadoss":13271,"loma":13272,"not":13273,"Î¯":13274,"à¯Ī!âĢĻ":13275,"à®ķà®´à®ķà®ķ":13276,"ĠQR":13277,"ĠØ£":13278,"Ġà¯Īà¯Ĭ":13279,"Ġdesire":13280,"Ġesc":13281,"ktop":13282,"ĠIIT":13283,"Elect":13284,"Upd":13285,"ÙĢ":13286,"Ġà®ªà®ķà®°à®®":13287,"Ġà®¸à®®à®°":13288,"à¯ĩ.\"":13289,"Ġà®Ĩà®²à®Ł":13290,"à¯į...//":13291,"Ġsiv":13292,"1919":13293,"roy":13294,"osm":13295,"Ġ346":13296,"016":13297,"Ġpal":13298,"Ġmail":13299,"276":13300,"ITH":13301,"bhp":13302,"hot":13303,"à®Łà®ļà®¤":13304,"à¯į.........":13305,"ï¿½...":13306,"Ġmom":13307,"182":13308,"à®¾...âĢĿ":13309,"INGS":13310,"Ġdepartment":13311,"å¼Ģå¥ĸ":13312,"Ġvalue":13313,"à®¯à®ķà®³":13314,"à®³à®¹":13315,"Ġà®ķà®ľà®®":13316,"Ġà®°à®£à®µ":13317,"Ġà®ķà®Łà®ķà®Łà®µ":13318,"Ġà®ľà®ªà®²":13319,"à®¯à®µà®°à®¤":13320,"ĠPack":13321,"Ġcenter":13322,";}":13323,"gin":13324,"Ġip":13325,"Ġ416":13326,"Ġ960":13327,"Ġsouth":13328,"Ġbang":13329,"Ġ296":13330,"ãĤī":13331,"Ġjewels":13332,"Health":13333,"light":13334,"à®©à®¤à®°":13335,"atar":13336,"Ġcad":13337,"Ġinstall":13338,"ĠLCD":13339,"ĠHours":13340,"aked":13341,"Ġcomputer":13342,"Ġà®ķà®¯à®µà®©":13343,"à®³à®µà®¨":13344,"Ġà®Īà®ĥà®ª":13345,"ĠAB":13346,"ĠMurugan":13347,"ĠFridge":13348,"ĠMBA":13349,"Item":13350,"Ġviol":13351,"420":13352,"Ġà®İà®ļà®©":13353,"ĠAzh":13354,"Î»":13355,"à®£à®µà®®à®£":13356,"à®°à®ļà®ķ":13357,"Ġà®¤à®µà®¨":13358,"Ġfive":13359,"Ġjail":13360,"athirvu":13361,"åıĮ":13362,"ĠRaman":13363,"ositive":13364,"Ġà®Ĵà®¹":13365,"Ġà®¸à®¯":13366,"anies":13367,"Ġà®ķà®µà®³à®®":13368,"Ġà®ħà®¸à®°":13369,"ANT":13370,"à®īà®¯à®°à®¤":13371,"Computer":13372,".'":13373,"dd":13374,"¸ı":13375,"âĢ¦?":13376,"Ġprivate":13377,"akanth":13378,"uses":13379,"á¾Ĳ":13380,"Ġvidhai":13381,"Super":13382,"à®ķà®ķà®²":13383,"à¯Ī//":13384,"athur":13385,"ormal":13386,"Ġgirls":13387,"craft":13388,"à¯į!..":13389,"ĠMR":13390,"ĠDirect":13391,"ĠTheory":13392,"tm":13393,"Ġà®īà®Łà®²à®ļ":13394,"ĠCine":13395,"Ġther":13396,"Ġlos":13397,"oushi":13398,"Ġinjured":13399,"211":13400,"à®ķà®ķà®°":13401,"à®Łà®ªà®ķ":13402,"Ġà®¹à®µà®°":13403,"Ġà®Īà®ķà®®":13404,"à®īà®±à®ķ":13405,"à¯į..)":13406,"ĠRain":13407,"ĠKap":13408,"Ġkal":13409,"essor":13410,"Ġeat":13411,"ĠShouk":13412,"aptop":13413,"agapattinam":13414,"ĠMir":13415,"ĠMohan":13416,"ĠCross":13417,"1932":13418,"Ġreach":13419,"Ġà®¤à®ļà®°à®¤à®°":13420,"UND":13421,"onet":13422,"alakshmi":13423,"enth":13424,"Ġsy":13425,"ĠHIV":13426,"35808":13427,"inese":13428,"ĠKohinata":13429,"ĠMinoru":13430,"ĠShoukoushi":13431,"Ġfav":13432,"udan":13433,"annan":13434,"Ġà®ĥà®ķ":13435,"Ġtechnology":13436,"Øµ":13437,"æ±":13438,"ĠÑĩ":13439,"Ġpara":13440,"Ġ1890":13441,"Ġ266":13442,"Ġshop":13443,"Ġemb":13444,"çĶ¨":13445,"iam":13446,"à®°à®ķà®²à®Ł":13447,"à®ķà®µà®£":13448,"Ġà®ŀà®°":13449,"ĠBody":13450,"Ġdro":13451,"ĠLong":13452,"iment":13453,"ĠArrest":13454,"ĠIndians":13455,"ĠJustice":13456,"BOSH":13457,"à®®à®µà®³":13458,"à®ķà®³à®¨":13459,"Ġboth":13460,"Ġauthor":13461,"ĠÐŁ":13462,"rich":13463,"à®¾\".":13464,"Can":13465,"nu":13466,"à®±à®µà®¤":13467,"Ġà®ħà®¤à®¤":13468,"Ġà®ħà®ªà®¯à®ķ":13469,"ĠPrivate":13470,"ĠDD":13471,"Ġgames":13472,"Ġrail":13473,"ractice":13474,"RR":13475,"éĹ":13476,"à®ļà®²à®ķà®Ļ":13477,"ĠSelf":13478,"à®¾..\"":13479,"289":13480,"OND":13481,"known":13482,"June":13483,"à®·à®®à®®":13484,"Ġà®Ĳà®©à®¨":13485,"ĠâĢľ.":13486,"~~~~":13487,"MM":13488,"Ġfour":13489,"Ġbran":13490,"ĠChange":13491,"ĠIndex":13492,"Ġchicken":13493,"à¯į.\"\"":13494,"ĠArut":13495,"URAM":13496,"å·¥":13497,"æ³¢":13498,"$$$$":13499,"à¸²à¸":13500,"fi":13501,"à®©à®®à®°à®ª":13502,"Ġà®īà®°à®ª":13503,"à¯į:.":13504,"Ġ845":13505,"Ġà®ªà®©à®ķà®²":13506,"Ġ254":13507,"Ġà®®à®°à®£à®ķ":13508,"bott":13509,"THIR":13510,"block":13511,"æĻ":13512,"éĺ":13513,"à®Łà®¯à®ķ":13514,"ĠCast":13515,"Ġspl":13516,"ĠDavid":13517,"ĠHR":13518,"à®¿..?":13519,"quire":13520,"airavini":13521,"radius":13522,"+)":13523,"Ġ349":13524,"inar":13525,"ĠTri":13526,"ically":13527,"1900":13528,"ĠAlt":13529,"Kairavini":13530,"Ġà®ķà®±à®ª":13531,"à®£à®ķà®®":13532,"Ġà®īà®Łà®ª":13533,"à®ķà®®à®ķà®©":13534,"Ġà®ªà®³à®ªà®³à®¤":13535,"Ġsale":13536,"à®ĥà®±":13537,"395":13538,"à¯į..!âĢĿ":13539,"ISS":13540,"Ġcompet":13541,"Ġkaraiyin":13542,"Ġloan":13543,"Ġkaraiyinile":13544,"Dis":13545,"Ġà®ªà®°à®©":13546,"ilter":13547,"1941":13548,"Ã±":13549,"è¨":13550,"à®µà®ķà®£à®ªà®¤":13551,"âĢļ":13552,"Ġ(!)":13553,"à¯į..//":13554,"erselvam":13555,"à®ĥà®ªà®ķ":13556,"ä»Ĭ":13557,"gu":13558,"à®®à®¯à®°":13559,"Ġ555":13560,"ĠFL":13561,"ĠFarmers":13562,"ĠWhite":13563,"Mal":13564,"à®ķà®ķà®µ":13565,"Ġà®ķà®²à®µà®°à®ª":13566,"Ġà®¸à®°à®¸":13567,"Ġtreatment":13568,"Ġpack":13569,"Ġà®Ĳà®¤à®°à®ļà®©":13570,"Ġenjoy":13571,"aids":13572,"Ð°Ð´":13573,"Ġpetrol":13574,"çĪ±":13575,"jid":13576,"Ġà®ªà®°à®µà®ļà®¨":13577,"Ġbirth":13578,"ĠOur":13579,"ationship":13580,"Ã¼r":13581,"ĠSivakarthikeyan":13582,"Ġsepar":13583,"Cor":13584,"Published":13585,"»Ħ":13586,"Ïħ":13587,"æĭ":13588,"308":13589,"ĠFm":13590,"ĠKad":13591,"abhar":13592,"Ġstill":13593,"Ġå¥":13594,"ĠCommittee":13595,"ÐµÐ¹":13596,"ĠOrder":13597,"Raja":13598,"ĠNEBOSH":13599,"ĠRamalinga":13600,"NO":13601,"hal":13602,"ĠSethupathi":13603,"strong":13604,"à®°à®ļà®¨":13605,"Ġfear":13606,"ayout":13607,"251":13608,"ĠProv":13609,"total":13610,"à®´à®¯":13611,"âĢ©":13612,"Ġà®ıà®ķà®©":13613,"à®¤à®ªà®¨":13614,"Ġ344":13615,"iny":13616,"ĠJob":13617,"ivel":13618,"Ġà®ķà®¤à®µà®Ł":13619,"pped":13620,"Int":13621,"sup":13622,"Îº":13623,"à®©à®ªà®¤":13624,"Ġpub":13625,"Ġtool":13626,"Ð¾ÑģÑĤ":13627,"ãĤ¤":13628,"ĠEditor":13629,"aiko":13630,"à®Łà®´à®ķ":13631,"Ġà®ķà®¤à®µà®°":13632,"Ġà®ªà®²à®ªà®Ł":13633,"à®İà®ķà®ļ":13634,"Ġà®İà®²à®©":13635,"Ġsports":13636,"ĠVoice":13637,"278":13638,"ĠAssembly":13639,"adhaar":13640,"ĠPon":13641,"Ġdiesel":13642,"ĠOru":13643,"ĠKisu":13644,"enna":13645,"Special":13646,"ĠOFF":13647,"Time":13648,"ï¸ı":13649,"apy":13650,"Ġà®ľà®²à®ļà®¨":13651,"Ġcommunity":13652,"à®Ĩà®²à®¯à®Ļ":13653,"ining":13654,"279":13655,"ĠAdig":13656,"à®ªà®²à®µà®ķ":13657,"hari":13658,"\">":13659,"FO":13660,"Sam":13661,"à®©à®ķà®³":13662,"à®©à®¤à®ª":13663,"oring":13664,"Ġdies":13665,"à¯ĩ?!":13666,"10000":13667,"ĠProperties":13668,"á¾ŀ":13669,"ĠSKUPD":13670,"part":13671,"Ġ318":13672,"alu":13673,"ĠEM":13674,"Ġ2200":13675,"anti":13676,"umbers":13677,"ĠPrem":13678,"Ġà®µà®¯à®ķ":13679,"Ġà®Ĩà®©à®µà®©":13680,"ĠPS":13681,"Ġfeed":13682,"iaomi":13683,"ANCE":13684,"ohli":13685,"ĠISO":13686,"ufact":13687,"Mad":13688,"Ġwast":13689,"287":13690,"erious":13691,"enkat":13692,"Ġà®ħà®°à®ļà®Ł":13693,"191":13694,"akasa":13695,"808":13696,"à°¸":13697,"Click":13698,"ĠPHP":13699,"à¯ģ},":13700,"à®³à®°à®ļà®©":13701,"Ġ046":13702,"Ġcandid":13703,"à¯į\"-":13704,"riy":13705,"221":13706,"ÙİÙĳ":13707,"tnpsc":13708,"Amer":13709,"iller":13710,"ĠåĽ":13711,"Ġà®ļà®²à®©à®Ļ":13712,"ÑĨÐ¸":13713,"ĠUthayan":13714,"à¯į``":13715,"à®ķà®³à®Łà®Ļ":13716,"à®¤à®©à®ŀ":13717,"ĠBirthday":13718,"akku":13719,"Ġà®ļà®²à®©à®ª":13720,"Karunanidhi":13721,"Open":13722,"UST":13723,"Ġà®¹à®°à®©":13724,"Ġcanc":13725,"ĠHor":13726,"ĠWOR":13727,"Ġï¿½ï¿½ï¿½ï¿½ï¿½ï¿½ï¿½":13728,"Ġemployees":13729,"rc":13730,"Äį":13731,"Ġà®ħà®°à®ļà®ķà®°":13732,"à®ķà®Łà®µà®¤":13733,"ĠICC":13734,"ĠHis":13735,"ĠAirtel":13736,"Ins":13737,"Ġà®ĩà®°à®µà®²à®°":13738,"à®ĩà®²à®¤":13739,"Ġà®ĵà®®à®°":13740,"1935":13741,"2030":13742,"Ġhom":13743,"Ġage":13744,"à®®à®³à®µà®²":13745,"Tagstamil":13746,"ĠTwitterShare":13747,"Ġà®ħà®¤à®ķ":13748,"à®Łà®²à®ļ":13749,"Ġà®°à®¤à®¯":13750,"Ġ1886":13751,"à®ķà®µà®¤à®¤":13752,"Ġcommun":13753,"Reg":13754,"Ġ525":13755,"à®ªà®²à®¸":13756,"elam":13757,"rik":13758,"prakasa":13759,"ĠSpe":13760,"ĠFacebookShare":13761,"ĠSerial":13762,"Ġtnpsc":13763,"ĠLinkedin":13764,"ĠAdigalar":13765,"ĠSelv":13766,"Ġ1880":13767,"ĠField":13768,"achi":13769,"ĠAmit":13770,"efore":13771,"work":13772,"Ġà®ĩà®²à®°":13773,"Ġà®Ĳà®²":13774,"erem":13775,"itra":13776,"à¯ģ?)":13777,"ĠDar":13778,"Ġbed":13779,"rote":13780,"achment":13781,"uvil":13782,"ĠArutprakasa":13783,"Bh":13784,"Ka":13785,"à®¤à®©à®³":13786,"Ġturn":13787,"Ġversion":13788,"ellite":13789,"ribute":13790,"Ġà®ļà®ªà®²":13791,"inion":13792,"ĠMSc":13793,"aved":13794,"Ð¸Ð¼":13795,"ĠRoyal":13796,"Ġarms":13797,"ĠGirls":13798,"çĭĹ":13799,"799":13800,"à®²à®ļà®®à®¯à®Ļ":13801,"à®ªà®ļà®°":13802,"à®Ļà®ķà®³":13803,"à¯Ĭ,":13804,"Ġterror":13805,"Ġwins":13806,"ĠHelp":13807,"Ġ359":13808,"Ġshooting":13809,"äºĶ":13810,"Ġsky":13811,"ĠMT":13812,"à®ķà®¨à®²à®¤":13813,"irai":13814,"onto":13815,"ÑĢÑĥ":13816,"ĠVallalarSpace":13817,"kit":13818,"with":13819,"à¯Ĥ\"":13820,"Ġà®īà®¹à®¤":13821,"à®®à®©à®µ":13822,"408":13823,"ishal":13824,"anging":13825,"388":13826,"ĠOnly":13827,"335":13828,"car":13829,"à®¿*":13830,"à®®à®ļà®®":13831,"à®Łà®°à®¨":13832,"à®¾.\"":13833,"ĠCPM":13834,"ĠImp":13835,"ĠBMW":13836,"ĠOol":13837,"ĠWind":13838,"ĠJos":13839,"-----":13840,"ĠThiruvarutpa":13841,"kai":13842,"Ġà®ħà®²à®µà®©":13843,"à®®à®®à®Ł":13844,"iding":13845,"ĠArts":13846,"à®ļà®µà®¤à®¤":13847,"à®£à®µà®²":13848,"Ġà®®à®°à®¨à®Ł":13849,"1933":13850,"Ġmult":13851,"ĠKamakathai":13852,"image":13853,"à¯ĩâĢĻ.":13854,"ĠMarri":13855,"Ġcontent":13856,"ainaadu":13857,"699":13858,"ua":13859,"Ġ501":13860,"ĠDR":13861,"osph":13862,"ango":13863,"Ġ****":13864,"Ġà®ħà®¤à®°à®µ":13865,"Ġà®ħà®°à®ĥà®ª":13866,"Ġà®ªà®Łà®±":13867,"inux":13868,"ĠMam":13869,"ĠCell":13870,"Ġ1850":13871,"ĠKEY":13872,"Ġless":13873,"274":13874,"ĠDawah":13875,"à®ļà®©à®¨":13876,"ĠNag":13877,"ĠRS":13878,"ĠRun":13879,
[...]
