{"version":"1.0","truncation":null,"padding":null,"added_tokens":[{"id":0,"special":true,"content":"<s>","single_word":false,"lstrip":false,"rstrip":false,"normalized":false},{"id":1,"special":true,"content":"<pad>","single_word":false,"lstrip":false,"rstrip":false,"normalized":false},{"id":2,"special":true,"content":"</s>","single_word":false,"lstrip":false,"rstrip":false,"normalized":false},{"id":3,"special":true,"content":"<unk>","single_word":false,"lstrip":false,"rstrip":false,"normalized":false},{"id":4,"special":true,"content":"<mask>","single_word":false,"lstrip":false,"rstrip":false,"normalized":false}],"normalizer":null,"pre_tokenizer":{"type":"ByteLevel","add_prefix_space":false,"trim_offsets":true},"post_processor":{"type":"ByteLevel","add_prefix_space":true,"trim_offsets":false},"decoder":{"type":"ByteLevel","add_prefix_space":true,"trim_offsets":true},"model":{"type":"BPE","dropout":null,"unk_token":null,"continuing_subword_prefix":null,"end_of_word_suffix":null,"fuse_unk":false,"vocab":{"<s>":0,"<pad>":1,"</s>":2,"<unk>":3,"<mask>":4,"!":5,"\"":6,"#":7,"$":8,"%":9,"&":10,"'":11,"(":12,")":13,"*":14,"+":15,",":16,"-":17,".":18,"/":19,"0":20,"1":21,"2":22,"3":23,"4":24,"5":25,"6":26,"7":27,"8":28,"9":29,":":30,";":31,"<":32,"=":33,">":34,"?":35,"@":36,"A":37,"B":38,"C":39,"D":40,"E":41,"F":42,"G":43,"H":44,"I":45,"J":46,"K":47,"L":48,"M":49,"N":50,"O":51,"P":52,"Q":53,"R":54,"S":55,"T":56,"U":57,"V":58,"W":59,"X":60,"Y":61,"Z":62,"[":63,"\\":64,"]":65,"^":66,"_":67,"`":68,"a":69,"b":70,"c":71,"d":72,"e":73,"f":74,"g":75,"h":76,"i":77,"j":78,"k":79,"l":80,"m":81,"n":82,"o":83,"p":84,"q":85,"r":86,"s":87,"t":88,"u":89,"v":90,"w":91,"x":92,"y":93,"z":94,"{":95,"|":96,"}":97,"~":98,"¡":99,"¢":100,"£":101,"¤":102,"¥":103,"¦":104,"§":105,"¨":106,"©":107,"ª":108,"«":109,"¬":110,"®":111,"¯":112,"°":113,"±":114,"²":115,"³":116,"´":117,"µ":118,"¶":119,"·":120,"¸":121,"¹":122,"º":123,"»":124,"¼":125,"½":126,"¾":127,"¿":128,"À":129,"Á":130,"Â":131,"Ã":132,"Ä":133,"Å":134,"Æ":135,"Ç":136,"È":137,"É":138,"Ê":139,"Ë":140,"Ì":141,"Í":142,"Î":143,"Ï":144,"Ð":145,"Ñ":146,"Ò":147,"Ó":148,"Ô":149,"Õ":150,"Ö":151,"×":152,"Ø":153,"Ù":154,"Ú":155,"Û":156,"Ü":157,"Ý":158,"Þ":159,"ß":160,"à":161,"á":162,"â":163,"ã":164,"ä":165,"å":166,"æ":167,"ç":168,"è":169,"é":170,"ê":171,"ë":172,"ì":173,"í":174,"î":175,"ï":176,"ð":177,"ñ":178,"ò":179,"ó":180,"ô":181,"õ":182,"ö":183,"÷":184,"ø":185,"ù":186,"ú":187,"û":188,"ü":189,"ý":190,"þ":191,"ÿ":192,"Ā":193,"ā":194,"Ă":195,"ă":196,"Ą":197,"ą":198,"Ć":199,"ć":200,"Ĉ":201,"ĉ":202,"Ċ":203,"ċ":204,"Č":205,"č":206,"Ď":207,"ď":208,"Đ":209,"đ":210,"Ē":211,"ē":212,"Ĕ":213,"ĕ":214,"Ė":215,"ė":216,"Ę":217,"ę":218,"Ě":219,"ě":220,"Ĝ":221,"ĝ":222,"Ğ":223,"ğ":224,"Ġ":225,"ġ":226,"Ģ":227,"ģ":228,"Ĥ":229,"ĥ":230,"Ħ":231,"ħ":232,"Ĩ":233,"ĩ":234,"Ī":235,"ī":236,"Ĭ":237,"ĭ":238,"Į":239,"į":240,"İ":241,"ı":242,"Ĳ":243,"ĳ":244,"Ĵ":245,"ĵ":246,"Ķ":247,"ķ":248,"ĸ":249,"Ĺ":250,"ĺ":251,"Ļ":252,"ļ":253,"Ľ":254,"ľ":255,"Ŀ":256,"ŀ":257,"Ł":258,"ł":259,"Ń":260,"à®":261,"à¯":262,"à¯į":263,"Ġà®":264,"à¯ģ":265,"à®¿":266,"à®ķ":267,"à®¤":268,"à®°":269,"à®¾":270,"à®Ł":271,"à®©":272,"à®®":273,"à®²":274,"à®ª":275,"à¯Ī":276,"à®¯":277,"à®³":278,"à®±":279,"à®µ":280,"Ġà®ª":281,"Ġà®ķ":282,"Ġà®µ":283,"à®ļ":284,"à®ķà®³":285,"à¯ĩ":286,"Ġà®®":287,"à®¨":288,"Ġà®ħ":289,"à®£":290,"Ġà®¤":291,"Ġà®ļ":292,"à¯Ĩ":293,"Ġà®ĩ":294,"Ġà®¨":295,"à¯ĭ":296,"Ġà®İ":297,"à¯į.":298,"à®Ļ":299,"à¯Ĭ":300,"à®´":301,"à¯Ģ":302,"à®ªà®Ł":303,"Ġà®İà®©":304,"Ġà®ī":305,"à¯Ĥ":306,"à®µà®°":307,"à¯į,":308,"Ġà®Ĩ":309,"à¯ģ.":310,"Ġà®ĩà®°":311,"Ġà®Ĵ":312,"à®¸":313,"âĢ":314,"Ġà®ħà®¤":315,"à®ªà®¤":316,"à®µà®¤":317,"à®Łà®¤":318,"Ġà®µà®°":319,"à®±à®¤":320,"à®Łà®®":321,"Ġà®Ĵà®°":322,"à®ķà®®":323,"à®©à®°":324,"à®ķà®ª":325,"Ġà®°":326,"Ġà®ĩà®¨":327,"à®¤à®²":328,"à®¤à®¤":329,"Ġà®ħà®µà®°":330,"à®°à®®":331,"ÂŃ":332,"Ġà®ķà®Ł":333,"à®ķà®¤":334,"à®ķà®µ":335,"Ġà®ĩà®¤":336,"à¯ģ,":337,"Ġà®ı":338,"..":339,"à®ľ":340,"à®Łà®©":341,"à®ķà®°":342,"à®µà®©":343,"à®¯à®¤":344,"Ġà®¨à®Ł":345,"Ġà®ħà®°":346,"à®¤à®®":347,"à®¯à®®":348,"à®ĩ":349,"à®¯à®²":350,"à®³à®¤":351,"à®·":352,"Ġà®ħà®®":353,"Ġà®ªà®Ł":354,"Ġà®®à®±":355,"à®Łà®°":356,"Ġà®īà®³":357,"à®¯à®°":358,"à®¤à®©":359,"ĠâĢ":360,"à®©à®¤":361,"Ġà®ĩà®²":362,"Ġà®ħà®©":363,"à®ŀ":364,"à®ħ":365,"Ġà®ħà®Ł":366,"Ġà®Ł":367,"Ġ1":368,"Ġà®¤à®®":369,"à®°à®¤":370,"à®²à®®":371,"à¯Ī.":372,"à®³à®°":373,"Ġà®ľ":374,"Ġà®µà®´":375,"Ġà®µà®¨":376,"Ġà®ĩà®©":377,"Ġà®ªà®²":378,"Ġà®ķà®£":379,"Ġà®ħà®±":380,"à®¤à®°":381,"Ġà®ħà®µ":382,"Ġ(":383,"à®®à®²":384,"à®ķà®²":385,"Ġà®®à®ķ":386,"Ġ2":387,"Ġà®İà®¤":388,"Ġà®ħà®¨":389,"à®£à®®":390,"à®²à®¤":391,"Ġà®ļà®®":392,"Ġà®ķà®²":393,"à®ªà®°":394,"Ġà®ħà®°à®ļ":395,"Ġà®¯":396,"Ġà®ªà®¤":397,"à®¿,":398,"Ġà®ıà®±":399,"à®¤à®ª":400,"Ġà®īà®£":401,"Ġà®®à®©":402,"Ġà®¤à®©":403,"à¯įÂŃ":404,"à®¿.":405,"à®¯à®©":406,"Ġà®ħà®ª":407,"à®İ":408,"Ġà®¤à®²":409,"à®Łà®²":410,"à®ļà®®":411,"Ġà®ħà®²":412,"Ġà®ķà®°":413,"à®Łà®Ļ":414,"Ġà®Ĩà®£":415,"Ġà®¨à®®":416,"à®³à®µ":417,"à®¤à®µ":418,"Ġà®İà®Ł":419,"Ġà®ªà®£":420,"Ġà®İà®´":421,"Ġà®Ĩà®©":422,"Ġà®ªà®ķ":423,"à®¯à®ķ":424,"Ġà®īà®°":425,"Ġà®²":426,"Ġà®Ĩà®ķ":427,"à®©à®®":428,"à®ļà®°":429,"à¯Ī,":430,"Ġà®ĵ":431,"à®¯à®ª":432,"à®®à®©":433,"à®Ĩ":434,"00":435,"Ġ-":436,"Ġà®ħà®´":437,"âĢĻ":438,"Ġà®ªà®°":439,"à®ķà®Ł":440,"à®±à®ª":441,"Ġà®¸":442,"à®µà®Ł":443,"Ġà®ļà®°":444,"à®¤à®ķ":445,"Ġà®®à®Ł":446,"à®µà®®":447,"Ġà®ħà®£":448,"Ġà®Ĭ":449,"âĢĿ":450,"in":451,"à®²à®ķ":452,"Ġà®īà®±":453,"Ġà®ĩà®ª":454,"Ġà®®à®¤":455,"à®®à®¤":456,"Ġà®Ĵà®©":457,"Ġà®®à®°":458,"Ġà®ªà®±":459,"à®µà®²":460,"an":461,"Ġà®İà®²":462,"à®Łà®ª":463,"à®¹":464,"à®³à®®":465,"à®°à®ļ":466,"à®±à®©":467,"à®ķà®´":468,"à®Łà®ķ":469,"Ġà®ļà®¨":470,"à®±à®®":471,"Ġà®¤à®°":472,"Ġà®¹":473,"Ġà®ħà®¤à®©":474,"à®°à®£":475,"à®ļà®©":476,"à®¯à®±":477,"à®¯à®µ":478,"à®¯à®Ļ":479,"Ġà®īà®Ļ":480,"Ġà®®à®£":481,"ĠâĢĺ":482,"à®ļà®¤":483,"à®ķà®ķ":484,"er":485,"à®ķà®©":486,"Ġà®ĩà®±":487,"à®ĩà®¨":488,"Ġà®ķà®¤":489,"à®¤à®µà®°":490,"à®´à®¨":491,"...":492,"Ġà®Ĩà®Ł":493,"à®´à®ķ":494,"01":495,"Ġà®¨à®²":496,"Ġà®µà®ķ":497,"Ġà®ħà®µà®©":498,"Ġà®Ĳ":499,"ar":500,"Ġà®¤à®Ļ":501,"Ġ3":502,"à®µà®±":503,"à®±à®ķ":504,"ĠâĢľ":505,"Ġà®ĩà®µà®°":506,"Ġà®µà®´à®Ļ":507,"Ġà®¤à®Ł":508,"à®ªà®®":509,"à®¾,":510,"Ġà®Ī":511,"am":512,"Ġà®ĩà®£":513,"th":514,"on":515,"à®µà®¤à®±":516,"Ġà®Ĩà®°":517,"Ġà®ĩà®°à®£":518,"à®¾?":519,"à®²à®µ":520,"Ġà®ªà®¯":521,"Ġà®İà®ª":522,"Ġà®Ĩà®¯":523,"Ġà®ªà®¯à®©":524,"Ġà®İà®©à®ķ":525,"à®±à®¨":526,"Ġà®İà®£":527,"à®°à®£à®®":528,"Ġà®ĩà®¤à®©":529,"al":530,"Ġà®µà®²":531,"Ġà®Ĩà®ļ":532,"Ġà®ħà®Ļ":533,"Ġ|":534,"or":535,"ĠâĢĵ":536,"Ġ,":537,"à®®à®°":538,"à¯ĩà®¾":539,"à®ªà®©":540,"il":541,"Ġà®ªà®Łà®¤":542,"à¯Ĩà®¾":543,"à®±à®©à®°":544,"Ġà®İà®Ļ":545,"Ġ'":546,"Ġà®¨à®Łà®¤":547,"Ġà®ĩà®µ":548,"à®°à®ª":549,"Ġà®İà®¨":550,"à®ļà®²":551,"à®ī":552,"à®ªà®µà®°":553,"ĠT":554,"Ġà®īà®Ł":555,"Ġ\"":556,"at":557,"Ġà®ĩà®Ł":558,"Ġà®ĩà®¯à®ķ":559,"Ġà®īà®¤":560,"Ġà®ħà®³à®µ":561,"à®²à®°":562,"en":563,"à®ĩà®¤":564,"Ġà®ħà®µà®³":565,"à¯į!":566,"à®¤à®©à®°":567,"à®ķà®ļ":568,"Ġà®ļà®Ł":569,"es":570,"âĢĮ":571,"à®±à®µ":572,"Ġ5":573,"à®ªà®ķ":574,"à®°à®°":575,"à®³à®©à®°":576,"à®ķà®£":577,"Ġà®¨à®Łà®¨":578,"Ġà®¨à®©":579,"Ġà®µà®´à®ķ":580,"âĢ¦":581,"à®³à®©":582,"à¯į)":583,"à®²à®Ļ":584,"Ġà®¤à®±":585,"à®İà®©":586,"Ġà®ĩà®Ļ":587,"Ġ4":588,"Ġà®ħà®³":589,"à®°à®Ļ":590,"Ġà®µà®Ł":591,"Ġà®ħà®ķ":592,"Ġà®ĩà®Łà®®":593,"à®µà®ķ":594,"Ġà®īà®¯à®°":595,"à®°à®Ł":596,"ĥà®ª":597,"à®°à®©":598,"ĠS":599,"Ġà®ķà®Łà®¨":600,"à¯ĩ.":601,"Ġà®ħà®¤à®±":602,"Ġà®¤à®©à®¤":603,"à®Łà®µ":604,"Ġà®ļà®ķ":605,"à®°à®ķ":606,"à®£à®¤":607,"Ġà®īà®¤à®µ":608,"Ġà®µà®³à®°":609,"Ġà®īà®¯":610,"Ġà®īà®Łà®²":611,"à¯ĩ,":612,"à¯įâĢĻ":613,"à®¿ÂŃ":614,"Ġà®¤à®¯":615,"à®°à®²":616,"à®©à®µ":617,"à®°à®µ":618,"Ġ.":619,"à®¾.":620,"om":621,"à®¤à®Ļ":622,"à®ħà®¤":623,"Ġà®ĵà®Ł":624,"Ġà®Ĩà®°à®®":625,"à®ªà®¤à®±":626,"à®ķà®Ļ":627,"à®´à®®":628,"à®³à®ķ":629,"Ġà®ªà®Łà®®":630,"à®ªà®µ":631,"à®ķà®µà®²":632,"à®²à®ª":633,"à®¤à®°à®µ":634,"à¯į?":635,"à¯į...":636,"Ġà®īà®£à®°":637,"Ġ201":638,"ed":639,"Ġà®¤à®µ":640,"st":641,"Ġà®ªà®³":642,"Ġà®¤à®£":643,"à¯į:":644,"Ġà®ıà®©":645,"à®Ĵ":646,"Ġà®ķà®±":647,"à®ŀà®°":648,"Ġà®ħà®ļ":649,"Ġà®ķà®µ":650,"Ġà®ªà®Ļ":651,"Ġà®ĩà®Łà®¤":652,"Ġà®İà®®":653,"à®ªà®¨":654,"ĠA":655,"Ġà®¤à®ķà®µà®²":656,"Ġà®īà®²à®ķ":657,"Ġ19":658,"ĠC":659,"ĠM":660,"Ġ6":661,"à®£à®ª":662,"à®ªà®±":663,"Ġà®¨à®ķà®°":664,"Ġà®ķà®´":665,"à®ªà®²":666,"Ġà®ķà®²à®¨":667,"Ġà®®à®²":668,"Ġà®µà®¯à®¤":669,"Ġà®īà®Łà®©":670,"à®´à®°":671,"à®µà®ļ":672,"à¯į..":673,"à¯į'":674,"à®´à®²":675,"à®¯à®Ł":676,"à®£à®µà®°":677,"Ġà®ķà®®":678,"Ġà®ªà®´":679,"à¯įâĢĿ":680,"à¯į-":681,"à®¯à®µà®°":682,"Ġà®ĩà®²à®Ļ":683,"à®®à®ķ":684,"ic":685,"Ġà®¤à®¨":686,"à®³à®Ļ":687,"ĠN":688,"Ġà®ļà®¤":689,"Ġà®ļà®Ļ":690,"ad":691,"ĠP":692,"Ġà®Īà®Ł":693,"Ġà®İà®©à®µ":694,"à¯į;":695,"Ġà®µà®£":696,"Ġà®ľà®©":697,"Ġà®Ĩà®±":698,"Ġà®µà®ļ":699,"Ġà®Ĵà®µ":700,"Ġs":701,"Ġt":702,"amil":703,"à®®à®£":704,"Ġà®ĩà®ļ":705,"à®µà®©à®®":706,"à®¤à®¨":707,"Ġà®īà®©":708,"it":709,"ou":710,"Ġà®ıà®¤":711,"Ġà®·":712,"à®µà®¨":713,"Ġà®Ĵà®ª":714,"Ġà®Ĩà®¤":715,"Ġà®Ĭà®°":716,"Ġà®Ĩà®®":717,"re":718,"Ġà®¨à®Łà®µà®Ł":719,"Ġà®īà®£à®µ":720,"Ġà®ħà®µà®°à®¤":721,"Ġ7":722,"Ġà®ĩà®³":723,"Ġà®īà®²":724,"à¯ĭ,":725,"Ġà®¨à®£":726,"is":727,"à®ı":728,"à®µà®³à®µ":729,"à®£à®©":730,"à®İà®¸":731,"Ġ10":732,"à®±à®µà®°":733,"ing":734,"Ġc":735,"Ġ:":736,"ï¿":737,"ï¿½":738,"à®·à®©":739,"le":740,"à®Łà®©à®°":741,"Ġà®ļà®ª":742,"Ġà®ĩà®²à®ķ":743,"Ġà®¤à®µà®±":744,"Ġà®Ĩà®²":745,"à®³à®ª":746,"à®Łà®µà®°":747,"à¯ģÂŃ":748,"Ġ8":749,"Ġà®ĩà®¤à®±":750,"Ġ0":751,"âĢľ":752,"à®Ĩà®®":753,"Ġà®°à®ļ":754,"Ġà®ħà®´à®ķ":755,"Ġà®µà®°à®²":756,"Ġà®¨à®Łà®ķ":757,"Ġà®ķà®³":758,"Ġp":759,"Ġà®ķà®©":760,"à®ķà®³à®¤":761,"//":762,"Ġà®Ĵà®¤":763,"Ġà®µà®°à®µ":764,"Ġà®Ĩà®³":765,"ew":766,"à®Ĳ":767,"à®±à®²":768,"à®ļà®ª":769,"201":770,"Ġà®İà®µ":771,"à®ĥà®ª":772,"à®²à®©":773,"Ġw":774,"Ġth":775,"à®£à®°":776,"Ġà®ªà®Łà®Ļ":777,"à®Ĩà®©":778,"à®°à®¤à®®":779,"Ġà®ªà®²à®°":780,"à®Ĵà®°":781,"Ġà®ĵà®°":782,"à®µà®©à®¤":783,"à®°à®¸":784,"ion":785,"ĠR":786,"Ġm":787,"à®ķà®±":788,"à¯Į":789,"as":790,"à®£à®Ļ":791,"Ġà®²à®Ł":792,"Ġf":793,"à®µà®Ļ":794,"Ġ9":795,"Ġà®¤à®ķ":796,"Ġà®ªà®ļ":797,"ĠTamil":798,"Ġà®İà®©à®¤":799,"à®ĩà®©":800,"à®©à®µà®°":801,"ĠB":802,"à®¤à®±":803,"à®ªà®Łà®¤":804,"Ġb":805,"Ġà®®à®©à®¤":806,"ĠD":807,"Ġà®īà®±à®µ":808,"000":809,"....":810,"à®±à®Ļ":811,"Ġà®ĩà®´":812,"el":813,"Ġà®ĥà®ª":814,"à®µà®ª":815,"Ġà®ĩà®Łà®Ļ":816,"ĠI":817,"à¯į\"":818,"Ġà®µà®Ļ":819,"ay":820,"ol":821,"ent":822,"à®ļà®Ļ":823,"Ġh":824,"Ġà®ħà®µà®±":825,"à®ľà®¯":826,"à®¤à®Ł":827,"à®ªà®Łà®µ":828,"à®¤à®ļ":829,"à®µà®³":830,"à¯Ĥ.":831,"Ġà®ªà®¤à®µ":832,"à®¯à®ļ":833,"à¯ģ!":834,"Ġà®Ĩà®ª":835,"Ġà®ªà®©":836,"à®£à®µ":837,"Ġà®¤à®³":838,"à®¾ÂŃ":839,"Ġà®Ĩà®¤à®°à®µ":840,"ï¿½ï¿½":841,"à®ħà®ª":842,"Ġin":843,"Ġà®ĩà®°à®µ":844,"Ġà®Ĵà®Ł":845,"à®ªà®Ļ":846,"ai":847,"Ġà®µà®ļà®¤":848,"Ġà®Ĵà®´":849,"Ġà®®à®ķà®©":850,"à¯ģ?":851,"Ġà®ŀ":852,"à®¨à®°":853,"Ġà®ķà®£à®ķ":854,"Ġ12":855,"Ġà®īà®ļ":856,"ews":857,"Ġà®İà®³":858,"Ġ200":859,"à®İà®²":860,"Ġa":861,"à®´à®ķà®¤":862,"Ġd":863,"Ġà®īà®ª":864,"Ġà®ĩà®¯à®²":865,"à®®à®®":866,"à®°à®¤à®®à®°":867,"à®ªà®Łà®®":868,"Ġà®¨à®ķ":869,"ĠF":870,"ur":871,"Ġo":872,"âĢĺ":873,"à®©à®Ļ":874,"à®Ĩà®°":875,"Ġà®ħà®®à®°":876,"Ġà®¨à®®à®ķ":877,"Ġà®ħà®µà®ļ":878,"and":879,"à¯ĩ!":880,"Ġà®İà®°":881,"à®©à®ª":882,"et":883,"à®ļà®ķ":884,"19":885,"Ġà®ķà®Łà®²":886,"Ġ15":887,"à®ªà®£":888,"Ġà®ªà®£à®®":889,"à®ªà®µà®®":890,"Ġà®µà®³":891,"id":892,"à®ªà®ª":893,"à®ļà®¨":894,"à¯ģ:":895,"Ġ20":896,"à®µà®©à®Ļ":897,"à®ľà®©":898,"à¯įâĢ¦":899,"Ġà®Ĩà®Ļ":900,"à®¨à®ķà®°":901,"Ġà®Ĵà®³":902,"Ġà®ĩà®¸":903,"ch":904,"à®®à®£à®®":905,"Ġà®¤à®°à®ª":906,"Ġthe":907,"Ġà®®à®ķà®³":908,"Ġà®ĩà®¯à®±":909,"Ġà®İà®¸":910,"Ġà®ĩà®®":911,"Ġà®®à®´":912,"à®¯à®¨":913,"à®Łà®ļ":914,"Ġà®¨à®®à®¤":915,"ag":916,"Ġà®¤à®ª":917,"à®ħà®µà®°":918,"ir":919,"à®ĩà®ª":920,"à®·à®®":921,"Ġà®ļà®©":922,"Ġà®Ĩà®µ":923,"ĠG":924,"à®©à®ķ":925,"à®ªà®°à®ª":926,"Ġà®Ĭà®Ł":927,"Ġà®ıà®°":928,"à®°à®³":929,"à®©à®£":930,"em":931,"à®ªà®³":932,"ĠV":933,"com":934,"ct":935,"Ġà®µà®©":936,"ĠO":937,"à®ļà®¯à®®":938,"ĠL":939,"à®ħà®®":940,"à®©à®©":941,"à®³à®²":942,"un":943,"ro":944,"Ġ#":945,"à®©à®²":946,"Ġ?":947,"à®ľà®°":948,"à®ħà®¨":949,"Ġ...":950,"Ġà®¨à®ªà®°":951,"Ġà®Ĳà®¨":952,"Ġà®ķà®Łà®µ":953,"!!":954,"ĠK":955,"Ġ18":956,"Ġ11":957,"à®ĩà®¤à®©":958,"ia":959,"Ġà®ļà®±":960,"Ġà®ļà®¤à®µ":961,"Ġà®°à®¤":962,"à®İà®®":963,"ri":964,"à®®à®±":965,"à¯ģ...":966,"à®ķà®°à®©":967,"à®µà®°à®¤":968,"Ġà®ªà®¯à®£":969,"ĠNews":970,"Ġà®ķà®ª":971,"Ġà®®à®©à®®":972,"Ġà®ªà®´à®ķ":973,"Ġto":974,"Ġof":975,"ĠH":976,"à¯ĪÂŃ":977,"ak":978,"à¯ģ..":979,"Ġn":980,"Ġà®ıà®´":981,"à®¤à®ªà®Ł":982,"Ġà®ĩà®ķ":983,"oo":984,"),":985,"à®´à®ª":986,"Ġà®ķà®µà®©":987,"--":988,"30":989,"à®¤à®ķà®®":990,"Ġà®īà®´":991,"Ġà®ĩà®¯à®Ļ":992,"à®µà®®à®©":993,"à®¤à®µà®©":994,"Ġà®ķà®Łà®©":995,"Ġl":996,"à®Łà®£":997,"à®ħà®©":998,"Ġà®¤à®®à®¤":999,"10":1000,"ĠE":1001,"à®µà®£":1002,"à®¨à®Ł":1003,"à®Łà®±":1004,"à®¤à®©à®®":1005,"Ġà®ĩà®±à®Ļ":1006,"à®®à®Ł":1007,"Ġà®Ĵà®²":1008,"Ġà®İà®ļ":1009,"à®ķà®¨":1010,"Ġà®ĩà®±à®¨":1011,"Ġ07":1012,"à®µà®²à®°":1013,"Ġà®ļà®µ":1014,"à®¯à®µà®±":1015,"Ġà®µà®Łà®ķ":1016,"Ġà®ªà®¨":1017,"tt":1018,"av":1019,"à®®à®¨":1020,"Ġ30":1021,"à®ħà®Ł":1022,"Ġà®İà®©à®ª":1023,"à¯ģ)":1024,"à®ķà®°à®®":1025,"Ġà®¤à®©à®ķ":1026,"Ġà®°à®ľ":1027,"Ġà®Īà®°":1028,"ore":1029,"Ġ..":1030,"Ġà®Ĭà®´":1031,"ĠW":1032,"Ġ/":1033,"Ġ[":1034,"Ġ25":1035,"à®ļà®Ł":1036,"ex":1037,"à®±à®ļ":1038,"Ġ`":1039,"à®¯à®²à®²":1040,"Ġà®ļà®²":1041,"us":1042,"Ġà®ļà®£":1043,"à®ķà®©à®µ":1044,"Ġà®µà®±":1045,"Ġ14":1046,"20":1047,"Ġà®°à®¯":1048,"Ġà®ķà®µà®²":1049,"à®ĩà®°":1050,"Ġ!":1051,"Ġà®İà®ķ":1052,"iv":1053,"ot":1054,"Ġ16":1055,"ik":1056,"Ġà®ķà®µà®°":1057,"ul":1058,"ĠJ":1059,"Ġà®ĩà®µà®±":1060,"à®ĵ":1061,"Ġà®ªà®°à®µ":1062,"um":1063,"à®µà®´":1064,"à®ļà®©à®®":1065,"à®²à®Ł":1066,"Ġà®īà®²à®ķà®®":1067,"Ġ13":1068,"à®£à®ķ":1069,"Ġà®®à®¨":1070,"à®·à®¯à®®":1071,"Ġà®ħà®ŀ":1072,"à®ĩà®²":1073,"Ġon":1074,"à®®à®Ļ":1075,"Ġà®ķà®®à®²":1076,"ation":1077,"ov":1078,"à®·à®¯à®Ļ":1079,"à¯ģ;":1080,"Ġà®¨à®µ":1081,"Ġà®ĩà®´à®¨":1082,"im":1083,"à®ķà®Łà®¨":1084,"à®¿)":1085,"ig":1086,"Ġà®īà®Łà®©à®Ł":1087,"à®ªà®¯":1088,"os":1089,"Ġà®¤à®¤":1090,"Ġà®ªà®£à®¤":1091,"à®ķà®£à®ķ":1092,"Ġà®ķà®µà®©à®®":1093,"ce":1094,"à®īà®Ļ":1095,"Ġà®ĩà®³à®®":1096,"ath":1097,"à®£à®²":1098,"11":1099,"à®Łà®¨":1100,"Ġà®ķà®©à®µ":1101,"Ġà®µà®¯":1102,"à®ªà®Łà®Ļ":1103,"nd":1104,"à¯ģâĢĿ":1105,"à®¤à®²à®®":1106,"à®³à®µà®°":1107,"Ġg":1108,").":1109,"ers":1110,"Ġ50":1111,"à¯ģâĢĻ":1112,"ra":1113,"12":1114,"à®ļà®ķà®°":1115,"Ġà®İà®®à®¤":1116,"Ġà®°à®©":1117,"à®¯à®³":1118,"à¯Ī:":1119,"est":1120,"Ġà®®à®¹":1121,"à¯į(":1122,"Ġà®ªà®ŀ":1123,"Ġ17":1124,"Ġà®Ĩà®´":1125,"Ġà®ķà®Łà®±":1126,"Ġand":1127,"Ġà®ĵà®¯":1128,"ow":1129,"Ġk":1130,"ĠâĢĿ":1131,"Ġà®ªà®²à®©":1132,"Ġà®ķà®Łà®®":1133,"à®ªà®°à®®":1134,"à®¿-":1135,"à®ĩà®µ":1136,"à®±à®°":1137,"Ġà®ªà®²à®®":1138,"Ġ100":1139,"Ġ)":1140,"Ġà®°à®µ":1141,"Ġà®ıà®®":1142,"à®¤à®´":1143,"Ġà®®à®²à®°":1144,"à®²à®µà®°":1145,"Ġà®ĩà®±à®ķ":1146,"Ġ2018":1147,"à®°à®£à®¤":1148,"Ġà®¤à®Łà®µ":1149,"''":1150,"Ġà®ªà®¯à®£à®®":1151,"ww":1152,"50":1153,"Ġ{":1154,"Ġà®Ĳà®ķ":1155,"à®´à®©":1156,"Ġà®Ĵà®±":1157,"Ġà®ıà®ķ":1158,"ttp":1159,"Ġv":1160,"ĠÂ":1161,"à®¤à®ķà®¤":1162,"ut":1163,"Ġà®ªà®°à®ª":1164,"à®¾!":1165,"://":1166,"à®¤à®³":1167,"Ġà®Ĭà®Łà®ķ":1168,"Ġà®Ĩà®¸":1169,"à®ħà®¤à®©":1170,"Ġà®ħà®µà®¤":1171,"à®ĩà®²à®Ļ":1172,"à®©à®¨":1173,"à®ªà®µà®Ļ":1174,"à¯Ī)":1175,"2018":1176,"Ġre":1177,"Ġà®¨à®ª":1178,"Ġà®Ĩà®ķà®µ":1179,"à®¿âĢĻ":1180,"à®ªà®µà®¤":1181,"ind":1182,"à®¯à®ķà®°":1183,"à®²à®²":1184,"à®ªà®¤à®©":1185,"18":1186,"à¯Ī!":1187,"Ġà®ħà®Łà®Ļ":1188,"ith":1189,"à®ļà®µ":1190,"à®¸à®²":1191,"à®ħà®°à®ļ":1192,"Ġ24":1193,"à®°à®¨":1194,"à®µà®°à®Ļ":1195,"ap":1196,"Ġà®ķà®£à®µà®©":1197,"à®ľà®ķ":1198,"Ġà®ļà®ļ":1199,"ment":1200,"14":1201,"à®ķà®µà®°":1202,"à®´à®¤":1203,"à®ªà®µà®©":1204,"Ġà®īà®©à®ķ":1205,"à®ªà®ļ":1206,"à®²à®ļ":1207,"ĠTh":1208,"Ġà®ħà®Łà®ķ":1209,"Ġà®ķà®Łà®¤":1210,"Ġà®¤à®³à®¤":1211,"à®¯à®£":1212,"ead":1213,"à®°à®£à®Ļ":1214,"Ġà®ĩà®¤à®´":1215,"Ġà®īà®®":1216,"Ġà®ªà®¯à®Ļ":1217,"art":1218,"à®¤à®°à®®":1219,"Ġà®©":1220,"Ġà®İà®µà®°":1221,"à®¿!":1222,"âĢĵ":1223,"à®¿:":1224,"Ġà®®à®ļ":1225,"Ġà®®à®±à®¨":1226,"à®µà®¤à®©":1227,"à®µà®²à®ķà®¤":1228,"à®Łà®³":1229,"à®µà®°à®®":1230,"à¯ĩ?":1231,"Ġà®¨à®°":1232,"à®¾..":1233,"Ġà®Ĭà®´à®²":1234,"ip":1235,"Ġà®ħà®¯":1236,"à®ħà®²":1237,"Ġà®ªà®µ":1238,"15":1239,"Ġà®¨à®±":1240,"Ġà®ªà®°à®ªà®°à®ª":1241,"all":1242,"à®®à®ļ":1243,"à®ħà®°":1244,"à®¯à®ķà®®":1245,"Ġà®ªà®Łà®ķ":1246,"à®±à®µà®±":1247,"ab":1248,"Ġà®ħà®°à®Ļ":1249,"à®¨à®®":1250,"Ġà®ľà®©à®¨":1251,"à®ļà®©à®Ļ":1252,"Ġà®īà®²à®ķà®¤":1253,"Ġà®ªà®¸":1254,"à¯ģ-":1255,"Ġà®ķà®ļ":1256,"Ġà®Ĭà®±":1257,"à®¤à®ķà®Ļ":1258,"à®°à®¯":1259,"Ġà®ĩà®°à®¤":1260,"Ġà®ķà®·":1261,"à®ĩà®µà®°":1262,"ess":1263,".,":1264,"up":1265,"à®ľà®ªà®ķ":1266,"ist":1267,"Ġà®ķà®£à®µà®°":1268,"vi":1269,"Ġ+":1270,"à®£à®±":1271,"Ġst":1272,"ter":1273,"ub":1274,"Ġà®ĩà®µà®©":1275,"**":1276,"à®ĥ":1277,"Ġfor":1278,"Ġà®®à®ŀ":1279,"od":1280,"op":1281,"à®·à®¯à®¤":1282,"à®®à®ª":1283,"à®Ī":1284,"Ġà®Ĳà®°":1285,"Ġ22":1286,"à®¾...":1287,"à®¤à®°à®°":1288,"Ġà®¨à®Łà®ª":1289,"à¯ģâĢ¦":1290,"Ġà®¤à®°à®®":1291,"à®¨à®²":1292,"Ġà®±":1293,"à®°à®ªà®²":1294,"ine":1295,"ĠU":1296,"à®µà®°à®©":1297,"Ġ077":1298,"à¯ģ'":1299,"à®ĩà®¤à®±":1300,"Ġà®Ĩà®©à®¨":1301,"Ġà®Ĭà®Łà®ķà®Ļ":1302,"à®°à®®à®£":1303,"Ġà®ħà®ľ":1304,"Ġ40":1305,"Ġà®Ĭà®ķ":1306,"à®ķà®³à®µ":1307,"Ġà®Ĩà®ªà®¤":1308,"Ġà®®à®¯":1309,"à®İà®¤":1310,"Ġà®ªà®¯à®®":1311,"ck":1312,"Ġà®¨à®²à®©":1313,"Ġ23":1314,"à®©à®Ł":1315,"à®ľà®®":1316,"à®ļà®³":1317,"17":1318,"13":1319,"Ġà®®à®°à®ª":1320,"Ġà®ĵà®µ":1321,"Ġ199":1322,"à®ħà®µ":1323,"à¯į....":1324,"à®¯à®ķà®©":1325,"16":1326,"ĠCh":1327,"à¯ĪâĢĻ":1328,"Ġà®Ĭà®¤":1329,"Ġà®µà®£à®Ļ":1330,"à®´à®ķà®®":1331,"80":1332,"Ġà®ĩà®´à®ª":1333,"25":1334,"Ġà®ªà®Łà®ª":1335,"à®¯à®ªà®Ł":1336,"ud":1337,"Ġà®ªà®´à®®":1338,"200":1339,"à®ķà®³à®ª":1340,"Ġy":1341,"Ġà®ħà®µà®Ļ":1342,"à®¾âĢĻ":1343,"ome":1344,"ish":1345,"ber":1346,"à®´à®Ļ":1347,"à®©à®ļ":1348,"ht":1349,"Ġà®ªà®²à®µ":1350,"Ġ27":1351,"à®¤à®£":1352,"ost":1353,"our":1354,"og":1355,"à®·à®¤":1356,"if":1357,"à®¿'":1358,"ill":1359,"à®°à®µà®°":1360,"Ġà®¹à®°":1361,"Ġà®µà®¤":1362,"Ġ21":1363,"à®İà®Ļ":1364,"à®ªà®Łà®ķ":1365,"Ġà®ļà®®à®¯à®®":1366,"à¯ģ\"":1367,"à®ķà®ªà®Ł":1368,"Ġhttp":1369,"Ġà®ªà®°à®®":1370,"Ġà®ħà®¸":1371,"à®İà®©à®ķ":1372,"à®ĩà®Ļ":1373,"à®²à®¯":1374,"Ġis":1375,"Ġà®ªà®´à®Ļ":1376,"à®ķà®Łà®²":1377,"Ġ2017":1378,"ï¿½ï¿½ï¿½ï¿½":1379,"Ġà®°à®·":1380,"Ġà®ķà®¤à®µ":1381,"à®ªà®ķà®®":1382,"are":1383,"Ġà®¨à®¤":1384,"Ġà®®à®Ļ":1385,"à¯Ģ.":1386,"ank":1387,"Ġà®ĩà®µà®°à®¤":1388,"à®ªà®Łà®²":1389,"Ġ28":1390,"ate":1391,"à®²à®ķà®®":1392,"à®ħà®£":1393,"Ġà®¤à®°à®µ":1394,"à®®à®¤à®®":1395,"Ġà®īà®Łà®®":1396,"Ġà®ħà®µà®©à®¤":1397,"35":1398,"Ġà®ªà®´à®©":1399,"Ġà®ļà®®à®¯à®¤":1400,"Ġr":1401,"à®ªà®°à®Ļ":1402,"à®Ĭ":1403,"Ġà®ļà®®à®°":1404,"Ġà®®à®¤à®¤":1405,"ep":1406,"à®ķà®°à®µ":1407,"ide":1408,"à®īà®²à®ķ":1409,"ec":1410,"Ġà®®à®©à®ļ":1411,"Ġà®īà®ªà®¯":1412,"Ġà®®à®°à®£à®®":1413,"ĠSt":1414,"Ġà®ıà®ª":1415,"à®¯à®ķà®¤":1416,"à®°à®ªà®²à®®":1417,"Ġà®Ĩà®¤à®°":1418,"ĠâĢ¦":1419,"à®¤à®©à®¤":1420,"à¯į.âĢĿ":1421,"24":1422,"Ġ26":1423,"Ġà®İà®¤à®±":1424,"Ġà®ķà®µà®©à®¤":1425,"à®¯à®³à®µ":1426,"à®¿...":1427,"ain":1428,"Ġ&":1429,"à®İà®ª":1430,"Ġà®®à®¤à®®":1431,"à®Ĩà®ķ":1432,"ies":1433,"à®®à®£à®¤":1434,"Ġà®ķà®³à®®":1435,"Ġà®ħà®ķà®±":1436,"out":1437,"à®Łà®©à®®":1438,"à®ªà®³à®®":1439,"à¯Ī...":1440,"Ġà®®à®©à®¨":1441,"à®Łà®£à®®":1442,"Ġà®ĩà®°à®Ł":1443,"ous":1444,"à®¤à®°à®ª":1445,"Ġà®İà®±":1446,"à®ķà®©à®Ļ":1447,"à®ķà®²à®®":1448,"Ġà®ĩà®¯":1449,"à¯Ī;":1450,"à¯ĭ?":1451,"Ġwith":1452,"Ġà®®à®°à®Ļ":1453,"ff":1454,"à¤":1455,"ang":1456,"ont":1457,"âĢĭ":1458,"à®©à®ķà®°à®©":1459,"à¯įâĢĮ":1460,"Ġà®®à®°à®¤":1461,"à¯ĪâĢĿ":1462,"à®¯à®µà®©":1463,"à®µà®ļà®®":1464,"Ġà®ĩà®²à®Ł":1465,"Ġà®ªà®²à®¤":1466,"ĠOn":1467,"à¯Ĩ.":1468,"Ġ2016":1469,"Ġà®µà®°à®®":1470,"Ġà®®à®£à®®":1471,"Ġà®ªà®¯à®£à®¤":1472,"ĠâĢĻ":1473,"22":1474,"Ġà®¤à®´":1475,"à®ªà®´":1476,"Read":1477,"à®¯à®¸":1478,"----":1479,"Ġà®ľà®®":1480,"Ġà®ħà®®à®²":1481,"à®ļà®°à®µ":1482,"à®ŀà®©":1483,"Ġà®¤à®ŀ":1484,"à¯Ī..":1485,"Ġà®ĵà®µà®°":1486,"Ġà®µà®°à®ª":1487,"ĠMore":1488,"99":1489,"à¯į),":1490,"ant":1491,"à®ķà®Łà®©":1492,"Ġà®ķà®²à®ķ":1493,"à®¤à®³à®Ļ":1494,"à®İà®©à®µ":1495,"à¯Ī-":1496,"Ġà®°à®ķ":1497,"ail":1498,"Ġ60":1499,"à®¤à®³à®¤":1500,"à®²à®ķà®Ł":1501,"Ġ198":1502,"à¯ĭ.":1503,"à¯ĩ...":1504,"Ġà®ħà®ķà®¤":1505,"à®ĩà®°à®£":1506,"à®¿..":1507,"ĠInd":1508,"Ġà®°à®®":1509,"Ġà®ķà®Ļ":1510,"à®£à®¯":1511,"??":1512,"Ġà®ľà®ª":1513,"Ġtamil":1514,"à®¯à®°à®ļ":1515,"à®²à®¨":1516,"Ġ29":1517,"end":1518,"à®Ĩà®£":1519,"ĠÐ":1520,"Ġà®ħà®µà®³à®¤":1521,"Ġ;":1522,"à®Łà®µà®©":1523,"ice":1524,"à®Łà®¯à®®":1525,"Ġà®®à®±à®ķ":1526,"à®³à®¸":1527,"40":1528,"Ġà®ķà®¨":1529,"à®¤à®°à®©":1530,"Ġà®¨à®µà®®":1531,"à®µà®¯à®¤":1532,"ĠÂ»":1533,"Ġà®Ĳà®¯":1534,"ue":1535,"Ġà®ĩà®©à®¤":1536,"à¯į}":1537,"à®ķà®´à®ķà®¤":1538,"à®Łà®ķà®®":1539,"à®ħà®±":1540,"Ġà®ļà®ŀ":1541,"ĠCom":1542,"Ġà®°à®ķà®ļ":1543,"à®ĩà®±":1544,"ly":1545,"Ġà®ļà®ķà®²":1546,"Ġà®ħà®²à®Ļ":1547,"Ġà®ħà®µà®ļà®°":1548,"Ġà®ªà®±à®µ":1549,"ph":1550,"2017":1551,"Ġà®¨à®²à®®":1552,"60":1553,"ort":1554,"ĠIn":1555,"à®´à®±":1556,"à®ħà®µà®©":1557,"ear":1558,"ood":1559,"Ġà®²à®ķ":1560,"Ġà®Īà®´à®¤":1561,"à¯Ī'":1562,"à®Łà®Ł":1563,"Ġà®īà®³à®µ":1564,"23":1565,"à®ļà®£":1566,"Ġà®¨à®¨":1567,"à®Łà®¯à®Ļ":1568,"à®³à®Łà®ķ":1569,"Ġà®µà®Łà®®":1570,"ev":1571,"à®ķà®°à®¤":1572,"à®ķà®©à®®":1573,"à®¯à®µà®¨":1574,"à®ķà®©à®¤":1575,"Ġà®Ĳà®¸":1576,"Ġ''":1577,"à®ķà®¸":1578,"aj":1579,"à®Łà®®à®©":1580,"à®´à®µ":1581,"à¯ĩ..":1582,"Ġà®ĩà®¯à®¨":1583,"à®¤à®¯":1584,"Ġà®Ĩà®¨":1585,"IN":1586,"ity":1587,"à®¹à®®":1588,"Ġbe":1589,"Ġà®¨à®ļ":1590,"à®©à®¸":1591,"à®ħà®ķ":1592,"ug":1593,"Ġà®ªà®ķà®²":1594,"à®ıà®©":1595,"eb":1596,"à®ķà®´à®ķ":1597,"old":1598,"ook":1599,"Ġà®°à®£":1600,"Ġ35":1601,"))":1602,"à®µà®°à®°":1603,"à®®à®³à®µ":1604,"Ġà®ĩà®²à®µà®ļ":1605,"à¯ģà®¾":1606,"à®ķà®®à®¤":1607,"à®¾à¯į":1608,"à®¾'":1609,"à®īà®¤":1610,"à®®à®ķà®©":1611,"Ġà®ķà®´à®ķà®¤":1612,"Ġà®Ĩà®©à®¤":1613,"Ġà®¤à®³à®ªà®¤":1614,"Ġà®¤à®³à®®":1615,"Ġà®¨à®ķà®°à®Ļ":1616,"Ġ2015":1617,"45":1618,"he":1619,"à®³à®ļ":1620,"à®ļà®©à®¤":1621,"à®ķà®³à®®":1622,"à®±à®³":1623,"à®¤à®³à®®":1624,"à®²à®³":1625,"à®²à®£":1626,"Ġ197":1627,"ive":1628,"Ġà®ĩà®©à®®":1629,"__":1630,"à®¤à®³à®µ":1631,"TE":1632,"à®µà®²à®ķ":1633,"Ġà®µà®²à®¤":1634,"à¯į/":1635,"à®±à®µà®©":1636,"Ġby":1637,"à®±à®ªà®Ł":1638,"à®±à®Ł":1639,"Ġà®Ĩà®´à®®":1640,"oc":1641,"Ġà®ľà®©à®µà®°":1642,"28":1643,"à®ħà®¤à®±":1644,"Ġà®Ĳà®ª":1645,"à®®à®ķà®³":1646,"à¯į.,":1647,"Ġà®İà®Łà®ª":1648,"ext":1649,"05":1650,"ian":1651,"Ġ31":1652,"ary":1653,"26":1654,"à®¯à®®à®Ł":1655,"à®īà®³":1656,"à®µà®°à®µ":1657,"à®īà®£":1658,"à®¿?":1659,"ey":1660,"à®¯à®°à®Ļ":1661,"à®¤à®¤à®±":1662,"Ġ500":1663,"Ġà®Ĩà®ķà®¸":1664,"27":1665,"à®ħà®µà®³":1666,"Ġà®³":1667,"Ġà®¤à®³à®Ļ":1668,"à¯Ī?":1669,"ard":1670,"à®°à®ľ":1671,"à®¾?âĢĿ":1672,"Ġà®īà®¯à®°à®®":1673,"'s":1674,"à®¤à®µà®³":1675,"Ġà®®à®£à®²":1676,"ah":1677,"Ġà®®à®°à®®":1678,"ãģ":1679,"Ġà®Ĵà®£":1680,"age":1681,"ell":1682,"Ġà®¨à®ķà®°à®®":1683,"Ġà®ªà®¯à®¨":1684,"à®µà®²à®®":1685,"Ð¾":1686,"Ġà®ķà®³à®¤":1687,"21":1688,"à®Łà®ķà®¤":1689,"à®²à®±":1690,"à¯į''":1691,"Ġ2014":1692,"ry":1693,"ial":1694,"à®²à®¸":1695,"Ġcom":1696,"ast":1697,"Ġà®¤à®ļ":1698,"ie":1699,"ib":1700,"Ġch":1701,"Ġà®¤à®®à®ķ":1702,"à®ħà®Ļ":1703,"29":1704,"Ġà®ķà®©à®Ł":1705,"à®¯à®²à®°":1706,"Ġà®ĵà®°à®³à®µ":1707,"Ġà®ĩà®²à®µà®ļà®®":1708,"Ġ01":1709,"pl":1710,"à®¿.,":1711,"Ġà®ĩà®³à®µà®°":1712,"à®ªà®ķà®²":1713,"à®°à®ķà®®":1714,"ee":1715,"à®µà®²à®ķà®®":1716,"à®İà®¨":1717,"à®ªà®°à®¤":1718,"à®¾-":1719,"ust":1720,"à®¿(":1721,"Ġà®µà®®":1722,"Ġà®ªà®°à®µà®²":1723,"à®®à®¸":1724,"à®¤à®°à®Ļ":1725,"Home":1726,"à®¿âĢĿ":1727,"à®²à®ķà®¤":1728,"à®Łà®ªà®¤":1729,"ember":1730,"ction":1731,"Ġà®®à®©à®ª":1732,"Ġmore":1733,"Ġà®ĩà®µà®³":1734,"Ġà®¨à®ķà®°à®¤":1735,"ðŁ":1736,"à®Ĩà®ļ":1737,"Ġà®ķà®´à®ķ":1738,"ong":1739,"Ġà®ªà®¤à®±":1740,"icle":1741,"Ġà®ıà®µ":1742,"Ġà®®à®°à®£à®¤":1743,"à®©à®µà®©":1744,"oun":1745,"Ġà®ħà®°à®ļà®©":1746,"Ġ80":1747,"à®Ĩà®¯":1748,"Ġà®ªà®±à®ķ":1749,"Ġwh":1750,"ord":1751,"Ġà®ħà®°à®£":1752,"Ġà®®à®°à®£":1753,"Ġà®²à®£":1754,"ass":1755,"iy":1756,"ikat":1757,"ĠOne":1758,"india":1759,"âĢĻâĢĻ":1760,"Ġà®µà®³à®®":1761,"à®©à®ŀ":1762,"Ġat":1763,"Ġà®®à®Łà®Ļ":1764,"........":1765,"Ġà®Ĩà®ľà®°":1766,"à®Ĵà®µ":1767,"à®ļà®ķà®®":1768,"à®¸à®°":1769,"qu":1770,"à®ªà®ķà®¤":1771,"ann":1772,"44":1773,"Ġà®ļà®°à®£":1774,"07":1775,"ĠY":1776,"iz":1777,"ory":1778,"Ġ=":1779,"Ġ2009":1780,"à®¾âĢĿ":1781,"à®ļà®¯":1782,"ikatan":1783,"edia":1784,"Ġ70":1785,"Ġà®ªà®±à®¨":1786,"à®£à®µà®©":1787,"Ġà®Ĩà®µà®¤":1788,"ack":1789,"à¯Ī\"":1790,"à¯į).":1791,"Ġà®ªà®ķà®µ":1792,"ĠThe":1793,"à®°à®¹":1794,"Ġà®īà®Łà®±":1795,"à®ªà®£à®®":1796,"www":1797,"à®¾âĢ¦":1798,"Ġà®Ĩà®µà®£à®Ļ":1799,"36":1800,"Ġà®Ĩà®ĥà®ª":1801,"Ġà®īà®ķ":1802,"ach":1803,"Ð°":1804,"à®°à®®à®®":1805,"à®°à®´":1806,"enn":1807,"ĠRe":1808,"à¯į.\"":1809,"Ġà®¨à®³":1810,"].":1811,"à®¤à®¸":1812,"Ġà®¯à®¤":1813,"ld":1814,"lo":1815,"Ġà®¤à®¯à®Ļ":1816,"Ġ2013":1817,"Ġà®µà®£à®ķ":1818,"day":1819,"37":1820,"ric":1821,"Ðµ":1822,"à®ķà®¯":1823,"har":1824,"Ġà®®à®¯à®ķ":1825,"ite":1826,"==":1827,"Ġà®Ĩà®²à®¯à®¤":1828,"39":1829,"à®µà®µ":1830,"à®£à®ļ":1831,"Ġà®µà®²à®®":1832,"Ġ45":1833,"à®·à®Ļ":1834,"Ġà®īà®¤à®Ł":1835,"à®¤à®©à®Ļ":1836,"Â³":1837,"Ġpro":1838,"ress":1839,"http":1840,"Ġà®ĵà®¤":1841,"Ġab":1842,"à®ķà®±à®¤":1843,"Ġj":1844,"ark":1845,"Ġà®İà®®à®ķ":1846,"Ġà®ħà®°à®ª":1847,"Ġà®İà®¯":1848,"48":1849,"47":1850,"ST":1851,"à®ªà®¸":1852,"Ġà®ħà®°à®ļà®°":1853,"Ġà®īà®¯à®°à®¤":1854,"à®®à®²à®°":1855,"Ġà®Ĳà®®":1856,"Ġà®¤à®ķà®°":1857,"Ġà®ķà®ŀ":1858,"à®®à®¯":1859,"org":1860,"à®ıà®±":1861,"à®Ĩà®ª":1862,"09":1863,"à®ľà®¯à®ķ":1864,"à®¤à®ķà®°":1865,"à®¹à®°":1866,"anth":1867,"Ġà®µà®ļà®©à®Ļ":1868,"Ġà®ķà®¯":1869,"Ġà®ļà®®à®®":1870,"pp":1871,"view":1872,"Ġ||":1873,"Ġ90":1874,"à®µà®£à®©":1875,"à®°à®ķà®¤":1876,"à®Łà®¯à®¤":1877,"Ġà®ħà®µà®ļà®°à®®":1878,"AM":1879,"ĠVikatan":1880,"pt":1881,"06":1882,"à®ľà®¸":1883,"ĠIndia":1884,"Ġà®µà®¯à®ļ":1885,"ace":1886,"rom":1887,"à®Łà®¤à®±":1888,"08":1889,"à®·à®²":1890,"38":1891,"Ġà®İà®ŀ":1892,"Ġà®ĩà®©à®ª":1893,"Ġà®ķà®´à®ķà®®":1894,"à®µà®´à®ķ":1895,"ER":1896,"à®ļà®®à®¯à®®":1897,"49":1898,"2016":1899,"Ġà®ħà®ªà®°":1900,"lish":1901,"Ġà®®à®ķà®¤":1902,"ac":1903,"Ġà®Ĳà®Ł":1904,"Ġà®īà®²à®ķà®ķ":1905,"ave":1906,"Ġ2011":1907,"und":1908,"Ġà®ĩà®±à®ª":1909,"Ġâ":1910,"ani":1911,"Ġà®Ĩà®µà®²":1912,"à®µà®°à®ª":1913,"ĠOneindia":1914,"Ġ2012":1915,"Ġà®µà®µ":1916,"hi":1917,"à®Łà®ļà®ª":1918,"****":1919,"65":1920,"Ġà®ļà®®à®¨":1921,"Ġe":1922,"Ġà®ļà®®à®¯à®Ļ":1923,"Ġà®ĵà®ķ":1924,"à®²à®¯à®¤":1925,"à®¤à®¤à®©":1926,"Ġ*":1927,"line":1928,"Ġà®ļà®Łà®Ļ":1929,"à®¨à®©":1930,"à®İà®´":1931,"Ġare":1932,"ated":1933,"Ġà®µà®¯à®²":1934,"ala":1935,"à¯ģ....":1936,"Ġà®ħà®µà®®":1937,"Ġà®ħà®ļà®¤":1938,"Ġà®ħà®µà®°à®µà®°":1939,"Ġsh":1940,"à®Łà®ªà®Ł":1941,"ans":1942,"Ġà®ªà®¯à®ª":1943,"Ġà®Łà®ª":1944,"à®°à®±":1945,"Ġà®ĵà®ļ":1946,"Ġà®²à®ŀ":1947,"à®Ĩà®Ł":1948,"à¯į.[":1949,"Ġà®Ĭà®Łà®ķà®µ":1950,"ect":1951,"Ġà®ĩà®©à®µ":1952,"ru":1953,"âĢ¦.":1954,"Ġwww":1955,"Ġà®īà®²à®ķà®ª":1956,"à®¿\"":1957,"à¯į.(":1958,"33":1959,"à¯į..!":1960,"à®īà®©":1961,"Ġà®İà®©à®ļ":1962,"Ġyou":1963,"Ġart":1964,"à®±à®´":1965,"Ġà®µà®ļà®©à®®":1966,"ments":1967,"ĠâĢĺâĢĺ":1968,"Ġà®ķà®²à®Ļ":1969,"à®°à®®à®ļ":1970,"à®µà®Łà®ķ":1971,"Ð¸":1972,"Pre":1973,"67":1974,"à®¯à®²à®®":1975,"à®¤à®µà®±":1976,"Ġ300":1977,"88":1978,"Ġà®ļà®°à®¤":1979,"âĢ¦]":1980,"Ġ32":1981,"à®Ĩà®µà®¤":1982,"à®ļà®ļ":1983,"Ġ2010":1984,"Ġà®¨à®¯à®©":1985,"à®ļà®¸":1986,"ver":1987,"adu":1988,"anka":1989,"à¯ĩâĢĿ":1990,"Ġà®ªà®°à®¨":1991,"AN":1992,"à®ķà®´à®ķà®®":1993,"Ġà®¨à®°à®®":1994,"Ġà®ªà®£à®ķ":1995,"à®Ĩà®¤":1996,"199":1997,"Ġà®ªà®²à®ª":1998,"Ġà®ľà®©à®¤":1999,"Ġà®ĩà®´à®ķ":2000,"Ġà®¤à®³à®°":2001,"à®ĩà®ļ":2002,"Ġà®¤à®°à®¤":2003,"à®ļà®±":2004,"vious":2005,"ĠSh":2006,"Ġà®µà®ļà®¨":2007,"à®©à®ļà®°":2008,"ĠEn":2009,"500":2010,"à®¯à®¤à®³à®¤":2011,"Ġà®īà®±à®Ļ":2012,"à®°à®µà®¤":2013,"Ġà®Łà®µ":2014,"ns":2015,"ĠAr":2016,"à®·à®°":2017,"oss":2018,"Ġà®ľà®²":2019,"Ø§":2020,"Ġà®¨à®Łà®©à®®":2021,"à¯ģ(":2022,"55":2023,"à®ķà®µà®©":2024,"04":2025,"à¯ģ.[":2026,"Ġà®¨à®·":2027,"......":2028,"ideo":2029,"Ġà®®à®µ":2030,"Ġà®ªà®²à®ķ":2031,"ennai":2032,"star":2033,"Ġà®µà®°à®ķ":2034,"Ġà®ıà®Ł":2035,"Previous":2036,"à®İà®©à®¤":2037,"à¥":2038,"à¯į?âĢĿ":2039,"à®¤à®©à®©":2040,"one":2041,"à®³à®Ł":2042,"ĠAM":2043,"Th":2044,"Â»":2045,"AR":2046,"à®Ĵà®©":2047,"à®°à®ªà®ŀ":2048,"ase":2049,",,":2050,"03":2051,"Ġà®ĩà®¤à®¯à®¤":2052,"Ġà®ĩà®©à®Ļ":2053,"à®ķà®£à®®":2054,"ÑĤ":2055,"à®©à®®à®£":2056,"à®ªà®²à®®":2057,"tw":2058,"ure":2059,"Ġarticle":2060,"Ġà®¨à®Łà®°":2061,"31":2062,"Ġà®ħà®°à®µ":2063,"Ġà®ħà®·":2064,"à¯į!!":2065,"à®ĩà®®":2066,"Ġà®ķà®²à®µ":2067,"à®īà®°":2068,"Ġà®¨à®²à®¤":2069,"Ġ1000":2070,"à®¾)":2071,"Ġ//":2072,"âĢĶ":2073,"à®Łà®¸":2074,"à®¨à®µ":2075,"ta":2076,"à®¿;":2077,"à®İà®Ł":2078,"Ġread":2079,"ob":2080,"à®¯à®£à®©":2081,"ire":2082,"ern":2083,"ctor":2084,"à®ķà®Łà®µ":2085,"Ġabout":2086,"Ġà®ħà®²à®Ł":2087,"Ġà®ķà®²à®ª":2088,"||":2089,"ight":2090,"Ġà®ıà®¨":2091,"à®ªà®Łà®ª":2092,"Ġà®ķà®©à®®":2093,"à®ĩà®Ł":2094,"Ġ2008":2095,"Ġà®ķà®²à®°":2096,"Ġà®Ĵà®ķ":2097,"à¯įâĢ¦.":2098,"Ġà®ļà®°à®ķ":2099,"ays":2100,"Ġà®°à®¹":2101,"à®°à®®à®¤":2102,"à®ĩà®ķ":2103,"ä¸":2104,"à®¤à®°à®¤":2105,"Ġ37":2106,"port":2107,"Ġà®ħà®Łà®°":2108,"ash":2109,"à®®à®£à®°":2110,"ere":2111,"Ġnot":2112,"à®ľà®ª":2113,"à®¸à®©":2114,"Ġà®ªà®®":2115,"Ġà®īà®ªà®ķà®°":2116,"sh":2117,"uk":2118,"ilm":2119,"Ġà®¤à®¯à®µ":2120,"34":2121,"Ġà®ħà®ķà®²":2122,"ition":2123,"à®°à®ŀ":2124,"à®ĩà®¸":2125,"ĠCont":2126,"ĠTag":2127,"ĠÂ·":2128,"à¯įâĢĻâĢĻ":2129,"ĠAn":2130,"ge":2131,"à®³à®¨":2132,"à¯į.)":2133,"aw":2134,"Ġ``":2135,"à¯ĭ!":2136,"log":2137,"Ġ36":2138,"Ġ[âĢ¦]":2139,"att":2140,"Ġà®°à®Ļ":2141,"à®ħà®ļ":2142,"Ġde":2143,"à®¯à®¤à®±":2144,"ĠTamilstar":2145,"à®²à®ªà®®":2146,"Ġà®µà®°à®¤":2147,"à®µà®¯":2148,"uth":2149,"à®°à®ķà®Ļ":2150,"avan":2151,"Ġà®Łà®©":2152,"02":2153,"orm":2154,"athai":2155,"Ġ2000":2156,"eat":2157,"kal":2158,"ÑĢ":2159,"!!!":2160,"Ð½":2161,"à®¨à®®à®¤":2162,"Ġà®ªà®ª":2163,"à®Ĳà®¯":2164,"Ġà®¨à®Łà®®":2165,"Ġit":2166,"57":2167,"ĠAth":2168,"à¯ĩÂŃ":2169,"Ġ:)":2170,"tur":2171,"2015":2172,"Ġ150":2173,"Ġà®¨à®Łà®©":2174,"Ġà®µà®³à®Ļ":2175,"app":2176,"à®īà®Łà®²":2177,"à®¤à®²à®°":2178,"à®¾?\"":2179,"Ġà®ķà®¸":2180,"Ġà®Īà®¸":2181,"Ġà®ħà®ķà®°":2182,"à®¾\"":2183,"âĢ¦âĢ¦":2184,"32":2185,"à®·à®ª":2186,"Ġ75":2187,"ical":2188,"à®ĩà®£":2189,"à¯ĩâĢĻ":2190,"cc":2191,"Ġan":2192,"Ġà®ĩà®ŀ":2193,"à¯į[":2194,"Ġsp":2195,"ram":2196,"Ġà®ĩà®¤à®°":2197,"Ġà®ķà®Łà®ķ":2198,"/=":2199,"à®ªà®´à®®":2200,"âĢį":2201,"à®Łà®ķà®Ļ":2202,"à®Łà®£à®¤":2203,"ĠSri":2204,"Ġà®ļà®®à®¯":2205,"ile":2206,"Ġà®ĵà®²":2207,"Ġle":2208,"Ġà®īà®¨":2209,"ond":2210,"ens":2211,"Ġà®Ĩà®²à®¯à®®":2212,"à®£à®¯à®®":2213,"à®ļà®¯à®Ļ":2214,"à®°à®¤à®¤":2215,"à®®à®´":2216,"Ġà®ĩà®°à®ļ":2217,"Ġà®®à®¯à®Ļ":2218,"à®İà®ļ":2219,"à®µà®ķà®Ļ":2220,"46":2221,"Ġà®ªà®¯à®£à®Ļ":2222,"Ġà®¤à®°à®ķ":2223,"ating":2224,"à®Łà®²à®¤":2225,"à¯Ĭ.":2226,"à®¤à®²à®©":2227,"Ġà®ªà®¯à®¤":2228,"à®Łà®¯":2229,"à®²à®µà®±":2230,"Ġor":2231,"Ġà®ªà®°à®¤":2232,"ĠPro":2233,"Ġà®ĩà®³à®Ļ":2234,"Â²":2235,"Tamil":2236,"--------":2237,"Ġà®ħà®µà®ķ":2238,"à°":2239,"à®¤à®®à®Ł":2240,"sp":2241,"Ñģ":2242,"ount":2243,"Ġà®Ĩà®ªà®°":2244,"Ġ196":2245,"à®ķà®®à®±":2246,"56":2247,"à®²à®µà®©":2248,"AL":2249,"à®¾:":2250,"Ġà®īà®ªà®ķà®°à®£à®Ļ":2251,"``":2252,"à®ľà®ķà®µ":2253,"inam":2254,"ence":2255,"Ġex":2256,"à®ªà®©à®°":2257,"à®ªà®³à®¤":2258,"ons":2259,"à®³à®±":2260,"ings":2261,"Ġà®ķà®ľ":2262,"php":2263,"Ġà®µà®ŀ":2264,"ĠRo":2265,"77":2266,"ree":2267,"Ġà®ªà®¤à®ķ":2268,"Ġà®µà®°à®µà®´":2269,"Ġå":2270,"Ġà®īà®ķà®¨":2271,"Ġthat":2272,"na":2273,"à®¯à®®à®°":2274,"à¯ĪâĢ¦":2275,"à®¿âĢ¦":2276,"ound":2277,"ple":2278,"à®£à®®à®²":2279,"Ġà®°à®ŀ":2280,"à®ļà®¯à®¤":2281,"à®īà®Łà®©":2282,"ance":2283,"à¯įâĢĻ,":2284,"à®¨à®Łà®¤":2285,"ĠPost":2286,"Ġfrom":2287,"Ġà®ļà®®à®¤":2288,"ĠNo":2289,"Ġà®¹à®©":2290,"ĠPub":2291,"Ġà®ĵà®Ļ":2292,"à®¨à®ªà®°":2293,"à®ķà®®à®²":2294,"à®°à®ªà®²à®Ļ":2295,"Ġà®İà®¤à®©":2296,"per":2297,"https":2298,"Ġà®ªà®µà®°":2299,"Ġ:-":2300,"à®¿âĢĮ":2301,"à®¯à®ķà®ª":2302,"Ġà®ļà®®à®¸":2303,"Ġà®¤à®µà®®":2304,"itle":2305,"à®¤à®²à®¤":2306,"Ġà®®à®°à®ķ":2307,"iss":2308,"à®¨à®£":2309,"à®¯à®®à®©à®®":2310,"100":2311,"Ġà®ĩà®°à®ķà®ļ":2312,"Ð¾Ð":2313,"Ġà®ķà®¤à®±":2314,"Ġas":2315,"ĠNov":2316,"ON":2317,"à®ħà®¯":2318,"ml":2319,"ick":2320,"198":2321,"Ġà®ľà®Ł":2322,"à®¯à®²à®±":2323,"à®²à®¯à®®":2324,"Ġà®ĵà®ª":2325,"75":2326,"ĠPr":2327,"Ġ33":2328,"ame":2329,"à®°à®ļà®©":2330,"oll":2331,"Ġ48":2332,"à¯į!\"":2333,"Ġà®µà®±à®Ł":2334,"Ġà®¤à®¯à®ķ":2335,"Ġà®¨à®ķà®²":2336,"Ġà®ħà®¹":2337,"ij":2338,"Ġ2006":2339,"à®²à®µà®´":2340,"à®Łà®ªà®®":2341,"ĠAl":2342,"à®±à®±":2343,"à¯ģ.âĢĿ":2344,"own":2345,"wik":2346,"70":2347,"Ġà®İà®µà®©":2348,"à®ļà®ķà®¤":2349,"Ġà®ĩà®·":2350,"Ġà®īà®ªà®¤":2351,"à®ļà®ķà®©":2352,"AT":2353,"à®ħà®´":2354,"à®ªà®µà®±":2355,"ari":2356,"Ġà®ĩà®¤à®¯à®®":2357,"Ġà®¹à®¤":2358,"à®®à®¹":2359,"Ġà®ıà®ļ":2360,"ĠX":2361,"Ġ2007":2362,"____":2363,"Ġà®®à®¸":2364,"à¯ĩâĢ¦":2365,"Ġhttps":2366,"à®¨à®ª":2367,"à¸":2368,"Ġà®·à®°":2369,"ĠDIN":2370,"à®µà®©à®°":2371,"Ġà®®à®¤à®Ļ":2372,"à¯ĨÂŃ":2373,"Ġ....":2374,"Ġnews":2375,"ZU":2376,"Ġar":2377,"Ġpl":2378,"42":2379,"à®¯à®¤à®©":2380,"à¯į!âĢĿ":2381,"Ġà®ħà®±à®ķ":2382,"à®®à®©à®¤":2383,"à®ķà®²à®ª":2384,"Ġà¯Ĩ":2385,"âĢĺâĢĺ":2386,"à®ıà®ķ":2387,"à¯Ī(":2388,"du":2389,"ult":2390,"lished":2391,"à¯į.....":2392,"ĠJTE":2393,"ĠJTEZU":2394,"à®µà®²à®ķà®Ļ":2395,"Ġ400":2396,"amak":2397,"ĠUn":2398,"eg":2399,"2014":2400,"Ġà®¹à®®":2401,"à¯ĭÂŃ":2402,"Ġà®²à®µ":2403,"Ġà®ĩà®°à®ķ":2404,"ĠOff":2405,"Ġà®®à®©à®ķ":2406,"Ġà®µà®ļà®®":2407,"orld":2408,"ãĤ":2409,"à®ľà®²":2410,"à®Łà®¤à®©":2411,"ink":2412,"Ġ38":2413,"ss":2414,"Ġthis":2415,"ged":2416,"à®ĩà®³":2417,"ft":2418,"à®Łà®²à®®":2419,"Ġà®¤à®²à®®":2420,"Ġà®ªà®¯à®©à®°":2421,"ĠReview":2422,"59":2423,"à®ĩà®¯à®ķ":2424,"à®īà®¯":2425,"à®µà®°à®²":2426,"Ġà®·à®Ļ":2427,"},":2428,"ele":2429,"ÙĦ":2430,"à®ħà®´à®ķ":2431,"ha":2432,"Ġà®ħà®¯à®²":2433,"Ġà®Łà®®":2434,"index":2435,"à®®à®°à®©":2436,"43":2437,"aran":2438,"pr":2439,"à®ªà®µà®³":2440,"?âĢĿ":2441,"ery":2442,"à®®à®³":2443,"eal":2444,"ike":2445,"html":2446,"ork":2447,"58":2448,"ool":2449,"Ġà®Ĵà®¯":2450,"à®°à®µà®®":2451,"Ġà®µà®©à®¤":2452,"à®°à®°à®ļ":2453,"à®¯à®µà®³":2454,"Ġà®ĩà®Łà®ª":2455,"Ġà®ªà®£à®ª":2456,"Ġà®Ĩà®Łà®®":2457,"à®Ĩà®Ļ":2458,"ĠFilm":2459,"ĠLanka":2460,"Ġà®İà®©à®²":2461,"Ġà®ıà®Ļ":2462,"Ġà®ļà®³":2463,"à®ªà®¯à®£à®®":2464,"By":2465,"rig":2466,"title":2467,"à®·à®©à®°":2468,"Ġà®īà®·":2469,"ĠâĢĭ":2470,"Ġà®®à®®":2471,"AE":2472,"à®Īà®°":2473,"li":2474,"à®°à®·":2475,"Ġà®Ĩà®¤à®²":2476,"à®ľà®¯à®®":2477,"eng":2478,"Ġà®ªà®Łà®µ":2479,"Ġà®Ĭà®ļ":2480,"à¯¦":2481,"Ġà®ħà®¯à®°":2482,"à®Łà®ķà®°":2483,"à®Ĩà®±":2484,"à®¾(":2485,"à®Ĩà®ķà®µ":2486,"à¯ģâĢĮ":2487,"à¯Ģ,":2488,"Ġà®ªà®²à®µà®±":2489,"à®ªà®²à®©":2490,"à®ĩà®°à®µ":2491,"à®©à®°à®²":2492,"Ġà®ľà®µ":2493,"à®®à®µ":2494,"ater":2495,"Ġà®ĵà®®":2496,"ĠØ":2497,"à®Ĩà®Ĩ":2498,"air":2499,"à®¨à®¤":2500,"az":2501,"à®İà®£":2502,"ĨĴ":2503,"Ġà®ĩà®°à®Ļ":2504,"à®¤à®ķà®µà®²":2505,"ĠPublished":2506,"âģ":2507,"Ġad":2508,"eet":2509,"Ġà®ĥ":2510,"ĠEx":2511,"à®´à®°à®ļ":2512,"ĠAd":2513,"ĠChennai":2514,"ĠMan":2515,"Ġà®®à®¤à®µ":2516,"à®£à®ļà®ª":2517,"oldid":2518,"ĠGood":2519,"int":2520,"erv":2521,"row":2522,"Ġ39":2523,"à®Ĳà®ķ":2524,"ational":2525,"68":2526,"Ġ65":2527,"à®ľà®¤":2528,"man":2529,"Ġà®īà®²à®°":2530,"][":2531,"Ġà®£":2532,"à®Ĭà®°":2533,"PS":2534,"Ġà®®à®ķà®°":2535,"ĠÃ":2536,"olog":2537,"ĠâĨĴ":2538,"Ġà®ķà®°à®Ļ":2539,"à®¯à®²à®ķà®¤":2540,"à¯ĭ...":2541,"amb":2542,"2013":2543,"Ġà¯":2544,"à®®à®£à®©":2545,"han":2546,"à®µà®¸":2547,"ĠRead":2548,"Ġà®ļà®ªà®°":2549,"able":2550,"Ġ!!":2551,"gle":2552,"The":2553,"à®ªà®ŀ":2554,"Ġà®ªà®ļà®Ļ":2555,"78":2556,"Ġ34":2557,"à®ļà®²à®®":2558,"ĠQ":2559,"âģ´":2560,"69":2561,"Next":2562,"Ġà®ħà®²à®ķ":2563,"Ġà®ħà®ķà®´":2564,"IC":2565,"Ġà®ķà®£à®®":2566,"Ġà®²à®Ļ":2567,"Ġ49":2568,"Ġà®°à®ª":2569,"à®²à®ŀ":2570,"ipedia":2571,"0000":2572,"à®İà®µ":2573,"Ġà®ıà®ķà®ª":2574,"Ġà®ĩà®³à®¨":2575,"Ġ55":2576,"Ġà®Ĩà®µà®£à®ª":2577,"):":2578,"ĠSp":2579,"Ġà®²à®¤":2580,"à®²à®¯à®Ļ":2581,"à®ķà®Łà®®":2582,"Ġà®¹à®µ":2583,"à¯ĩ'":2584,"Ġà®ħà®±à®®":2585,"à®ķà®²à®¤":2586,"ĠâĢĶ":2587,"à®µà®°à®ķ":2588,"ich":2589,"Ġwill":2590,"Ġà®ĩà®³à®µà®°à®ļ":2591,"ijay":2592,"à®ªà®ķà®Ļ":2593,"ãĥ":2594,"uv":2595,"ok":2596,"ett":2597,"Ġag":2598,"retur":2599,"inem":2600,"Ġun":2601,"hy":2602,"41":2603,"»¿":2604,"wikipedia":2605,"Ġà®Łà®ķ":2606,"ĠIST":2607,"esh":2608,"ake":2609,"Ġà®īà®©à®¤":2610,"âĢĶâĢĶ":2611,"à®Łà®µà®£":2612,"Ġà®ħà®©à®²":2613,"à®¤à®µà®ķ":2614,"à®ªà®´à®ķ":2615,"à®¤à®®à®°":2616,"ï»¿":2617,"ther":2618,"Ġà®ĩà®¤à®¯":2619,"ĠPl":2620,"Ġà®ħà®µà®®à®¤":2621,"à®·à®©à®²":2622,"AC":2623,"Ġà®µà®¤à®¨":2624,"alar":2625,"à®¾..?":2626,"Ġà®ļà®°à®¸":2627,"Ġà®¨à®°à®ļ":2628,"ĠRating":2629,"ĠComments":2630,"Ùİ":2631,"à®İà®ķ":2632,"ĠEng":2633,"ĠReviewed":2634,"66":2635,"ories":2636,"à®ķà®²à®©":2637,"Ġà®Īà®ķ":2638,"Ġà®ĩà®£à®ķ":2639,"io":2640,"Ġ09":2641,"à¯į_":2642,"à®¤à®°à®£":2643,"à¯ĭ..":2644,"returns":2645,"OR":2646,"Ġ08":2647,"à®ªà®³à®µ":2648,"ĠGoodreturns":2649,"IL":2650,"Ġà®ıà®±à®¤":2651,"à®±à®µà®Ļ":2652,"IT":2653,"à®°à®®à®ª":2654,"ibeat":2655,"ĠFilmibeat":2656,"alai":2657,"ovie":2658,"ĠNovember":2659,"à®µà®ķà®®":2660,"atch":2661,"oy":2662,"Ġ02":2663,"mail":2664,"ull":2665,"3580":2666,"tamil":2667,"Ġal":2668,"Ġ03":2669,"Ġà®¤à®ķà®ª":2670,"Ġà®¹à®ľ":2671,"ata":2672,"à®©à®±":2673,"Ġà®®à®¤à®ļ":2674,"Ġà¯ĩ":2675,"à®£à®Ł":2676,"Ġà®ķà®´à®±":2677,"à¯į?\"":2678,"eed":2679,"Ġ04":2680,"à¯ĤÂŃ":2681,"AD":2682,"Ġà®¨à®ŀ":2683,"act":2684,"à®¯à®£à®®":2685,"Ġtr":2686,"load":2687,"ĠPM":2688,"à®ªà®¯à®©":2689,"ĠRaj":2690,"||\"":2691,"ics":2692,"54":2693,"Ġà®Ĳà®¯à®®":2694,"à®ķà®®à®³":2695,"Ġà®ĩà®³à®µà®°à®ļà®°":2696,"Ġà®ķà®£à®ªà®¤":2697,"à®®à®°à®®":2698,"à®¯à®°à®¤":2699,"Ġ\"||\"":2700,"cri":2701,"à®µà®³à®°":2702,"Ġsex":2703,"Ġà®ħà®±à®µ":2704,"à®Ĳà®Ł":2705,"ĠMar":2706,"Ġà®Ĭà®Łà®ķà®®":2707,"à®ħà®µà®°à®¤":2708,"à®²à®ľ":2709,"ĠTr":2710,"à®Łà®°à®ª":2711,"à®¤à®ŀ":2712,"Ġà®®à®Łà®ķ":2713,"2012":2714,"ady":2715,"bo":2716,"Ġà®ħà®ķà®ª":2717,"Ġcl":2718,"Ġà®ħà®²à®±":2719,"se":2720,"EN":2721,"Ġà®Ĭà®©":2722,"Ġà®ķà®©à®®à®´":2723,"à¯įà¯Ī":2724,"Ġ2004":2725,"form":2726,"à®¯à®¤à®³à®®":2727,"Ġà®īà®®à®¤":2728,"à®ĩà®¯à®±":2729,"Ġwho":2730,"Ġà®Ĩà®²à®¯":2731,"inue":2732,"cl":2733,"Ġà®ªà®´à®¤":2734,"ĠAm":2735,"AS":2736,"Ġ43":2737,"Ġman":2738,"à¯įâĢĵ":2739,"Ġà®Ĭà®®":2740,"à®ķà®°à®µà®°":2741,"à¯įâĢĻ.":2742,"Ġà®ªà®µà®©":2743,"à®¤à®¯à®®":2744,"à®¤à®µà®Ļ":2745,"Ġà®ħà®²à®ļ":2746,"à®±à®©à®µ":2747,"Ġfl":2748,"oogle":2749,"ions":2750,"à¯ĩ\"":2751,"Rel":2752,"tern":2753,"ild":2754,"Ch":2755,"à®°à®®à®Ļ":2756,"Ġà®Ĩà®¯à®¤":2757,"Ġà®µà®ļà®©à®¤":2758,"à®²à®¨à®Ł":2759,"Ġà®µà®°à®ļ":2760,"Ġpr":2761,"Ġ05":2762,"à®¿),":2763,"ual":2764,"Ġà®¹à®ķ":2765,"Ġà®Ĩà®°à®µ":2766,"à®īà®²":2767,"ðŁĺ":2768,"à®Ĵà®¤":2769,"overn":2770,"Ġà®Ĳà®¯à®°":2771,"ents":2772,"Ġra":2773,"ma":2774,"Ġoff":2775,"à®¾?âĢĻ":2776,"Ġà¯Ī":2777,"Ġà®ļà®°à®µà®£à®©":2778,"Ġà®°à®ļà®©":2779,"à¯į},":2780,"Ġà®ļà®¤à®®":2781,"Ġà®Ĳà®¯à®ª":2782,"ĠTN":2783,"52":2784,"ĠRs":2785,"Ġà®ķà®³à®µ":2786,"à®·à®µ":2787,"Ġà®ķà®ļà®ª":2788,"inist":2789,"Ġà®ķà®´à®Ł":2790,"rit":2791,"à®Łà®²à®Ļ":2792,"Ġà®İà®²à®ķ":2793,"Ġà®Ĩà®¤à®Ļ":2794,"Ġà®®à®¤à®ķ":2795,"Ġ071":2796,"à®ķà®Łà®¤":2797,"Ġà®µà®´à®®":2798,"à®¾à®¿":2799,"79":2800,"Ġà®²à®²":2801,"à®®à®°à®¤":2802,"Ġà®ħà®±à®¨":2803,"====":2804,"Ġ42":2805,"à®±à®³à®µ":2806,"53":2807,"à®ªà®¤à®®":2808,"ya":2809,"à®ľà®¯à®©":2810,"Ġà®ħà®°à®ķ":2811,"à®¨à®²à®®":2812,"ï¿½ï¿½ï¿½":2813,"à®µà®ŀ":2814,"äº":2815,"à®īà®±":2816,"Ġdo":2817,"Ġ06":2818,"book":2819,"ĠCol":2820,"Ġà®ĵà®°à®®":2821,"à®µà®£à®ķ":2822,"à®ĵà®°":2823,"Ġà®ľà®©à®Ļ":2824,"Ġ2005":2825,"à¯į',":2826,"Ġà®ļà®°à®£à®Ł":2827,"osted":2828,"ET":2829,"à®Ĩà®°à®®":2830,"Ġ600":2831,"co":2832,"à®īà®¯à®°":2833,"à®°à®®à®Ł":2834,"à¯ģ:-":2835,"à®ıà®¤":2836,"Ġ011":2837,"igh":2838,"à®°à®¤à®°":2839,"Ġher":2840,"à®¤à®°à®ķ":2841,"IS":2842,"ĠTags":2843,"Ġà®®à®°à®ªà®£":2844,"Ġ076":2845,"aff":2846,"90":2847,"ĠNew":2848,"ĠTe":2849,"ĠContinue":2850,"Ġà®ķà®ļà®ķ":2851,"à®¤à®®à®²":2852,"its":2853,"à®¨à®ķà®°à®®":2854,"à®µà®²à®©":2855,"St":2856,"NL":2857,"à¯į.//":2858,"Ġup":2859,"à®ķà®©à®Ł":2860,"ube":2861,"inamani":2862,"Related":2863,"Ġyour":2864,"à®¸à®®":2865,"Ġ250":2866,"à®ªà®ķà®µ":2867,"Ġreading":2868,"à®¿à¯į":2869,"ife":2870,"Ġà®Ĩà®¤à®µà®©":2871,"Ġà®ľà®ķ":2872,"Ġà®ªà®Łà®°":2873,"Ġà®®à®Łà®¤":2874,"Ġà®®à®°à®£à®®à®Ł":2875,"ĠPh":2876,"2011":2877,"Ġà®µà®¤à®ķ":2878,"à¯Ĥ,":2879,"Ġà®ķà®ķ":2880,"Ġà®ıà®±à®ķ":2881,"erm":2882,"à®¤à®¯à®¤":2883,"irst":2884,"><":2885,"Ġà®ªà®ľ":2886,"gal":2887,"à®¯à®®à®²":2888,"In":2889,"Ġà®ļà®Łà®²à®®":2890,"Ġà®īà®²à®ķà®³":2891,"Ġà®ªà®¤à®Ł":2892,"Ġx":2893,"à®ĩà®µà®±":2894,"à¯į......":2895,"ayal":2896,"à®®à®ŀ":2897,"Ġam":2898,"ĠâĢĮ":2899,"Ġ>":2900,"à®ĥà®¤":2901,"Ġà®ıà®ľ":2902,"ĠWh":2903,"Ġ]":2904,"64":2905,"Ġ64":2906,"Ġ2019":2907,"à®®à®µà®°":2908,"Ġà®®à®¤à®©":2909,"Ġà®µà®¸":2910,"Ð»":2911,"à¯ĭ-":2912,"jp":2913,"à®ľà®ļ":2914,"eop":2915,"à®ķà®°à®°":2916,"Ġà®µà®©à®ª":2917,"à®ķà®°à®£":2918,"inema":2919,"à®¨à®Ļ":2920,"Ġà®ħà®©à®¨":2921,"anc":2922,"oor":2923,"Ġà®ķà®²à®µà®°à®®":2924,"à®īà®®":2925,"Ġus":2926,"Sh":2927,"à®°à®µà®©":2928,"blog":2929,"ebs":2930,"âĢ¢":2931,"room":2932,"Ġcon":2933,"à®ªà®²à®ª":2934,"à®®à®¤à®¤":2935,"Ġà®ħà®ķà®²à®®":2936,"Ġà®īà®°à®®":2937,"ign":2938,"à®Łà®µà®³":2939,"Ġà®ļà®®à®©":2940,"à®Ĵà®³":2941,"Ġà®Īà®´":2942,"ci":2943,"à®¤à®©à®ķ":2944,"Ġà®¤à®²à®Ļ":2945,"Ġà®Łà®¯à®²":2946,"reat":2947,"Ġà®īà®®à®°":2948,"ement":2949,"!âĢĿ":2950,"51":2951,"Ġ47":2952,"à¯į]":2953,"à¯į,âĢĿ":2954,"à®ıà®´":2955,"une":2956,"Ġà®Łà®ļ":2957,"Ġà®īà®®à®ķ":2958,"ĠZ":2959,"à¯įâĢĿ.":2960,"à®ķà®´à®ķà®Ļ":2961,"à®±à®ŀ":2962,"aily":2963,"Ġà®ķà®°à®®":2964,"à®¯à®°à®®":2965,"Ġ99":2966,"enc":2967,"à®ľà®¯à®ª":2968,"akk":2969,"à®³à®©à®®":2970,"ĠIndian":2971,"à¯įâĢĭ":2972,"89":2973,"ĠFr":2974,"amakathai":2975,"ĠÙ":2976,"à®ķà®®à®Ł":2977,"Ġà®®à®©à®Ļ":2978,"********":2979,"riv":2980,"Ġà®ĩà®µà®Ļ":2981,"à¯į&":2982,"à®ĵà®Ł":2983,"à®ĥà®ªà®°":2984,"Ġim":2985,"Ġà®ļà®®à®ķ":2986,"itter":2987,"ise":2988,"à®µà®©à®µ":2989,"bs":2990,"à®ķà®²à®Ļ":2991,"Ġà®ħà®ļà®²":2992,"Tag":2993,"à®īà®²à®ķà®®":2994,"ĠKar":2995,"ale":2996,"Ġà®Ĩà®²à®¯à®Ļ":2997,"à®©à®µà®³":2998,"Ġà®®à®£à®¨":2999,"ĠAthir":3000,"oh":3001,"à®µà®²à®¤":3002,"orn":3003,"Ġ44":3004,"Ġà®Īà®ļ":3005,"ime":3006,"ĠAthirady":3007,"à®ķà®°à®Ļ":3008,"à®Ĩà®¸":3009,"ebsite":3010,"à®ĩà®²à®ķ":3011,"à®Łà®©à®¤":3012,"anj":3013,"MK":3014,"Ġwas":3015,"ana":3016,"Ġà®ĩà®£à®Ļ":3017,"ãĢ":3018,"ower":3019,"å¤":3020,"à®İà®®à®¤":3021,"Ġhe":3022,"à®ĩà®¯":3023,"les":3024,"Ġ%":3025,"eople":3026,"ĠOnline":3027,"ept":3028,"à¯ģ).":3029,"Ġà®¸à®²":3030,"Ġà®¤à®©à®®":3031,"umb":3032,"à®Ĩà®²":3033,"à®¯à®®à®±":3034,"oug":3035,"OM":3036,"img":3037,"à®¤à®®à®¤":3038,"à®ªà®©à®µ":3039,"Ġ<":3040,"âĨ":3041,"Ġà®ķà®³à®Ļ":3042,"Ġà®ªà®ķà®µà®¤":3043,"Ġà®¯à®®":3044,"Ġ2001":3045,"Ġà®ªà®²à®µà®ķ":3046,"amp":3047,"ict":3048,"ert":3049,"ital":3050,"à®ķà®³à®µà®°":3051,"à®µà®©à®¨":3052,"Ġà®Īà®°à®®":3053,"Ã©":3054,"Ġà®ĩà®¯à®²à®µ":3055,"76":3056,"nadu":3057,"Ġ120":3058,"Ġà®Ĩà®´à®¤":3059,"jpg":3060,"à®ļà®®à®Ł":3061,"Ġà®ķà®³à®ŀ":3062,"à®īà®ļ":3063,"à®Ĳà®¨":3064,"Ġà®ķà®°à®£":3065,"à®µà®³à®µà®©":3066,"à®µà®²à®ª":3067,"Ġà®ħà®ķà®©":3068,"Ġlike":3069,"Ġme":3070,"æľ":3071,"Ġà®ķà®°à®Ł":3072,"overnment":3073,"Ġà®®à®¯à®®":3074,"ĠArt":3075,"à®¨à®ķ":3076,"à®¨à®¨":3077,"Ġà®¤à®°à®µà®°":3078,"ung":3079,"à®®à®¯à®®":3080,"Ġà®µà®³à®¤":3081,"à®¤à®ķà®ķ":3082,"Ðº":3083,"Ġmy":3084,"à®¾....":3085,"Ġà®ķà®²à®µà®°à®¤":3086,"Ġà®ľà®¸":3087,"Ġsup":3088,"tr":3089,"EL":3090,"Ġà®īà®±à®ķ":3091,"acebook":3092,"UR":3093,"à®īà®£à®µ":3094,"à®©à®¯":3095,"Ġà®¨à®´":3096,"62":3097,"ef":3098,"Ġall":3099,"à®¤à®®à®©":3100,"ĠCl":3101,"AI":3102,"ology":3103,"Ġà®ħà®Łà®®":3104,"Ġà®ħà®²à®°":3105,"ove":3106,"of":3107,"Ind":3108,"Ġte":3109,"Ġ$":3110,"à¯į.!":3111,"Ġapp":3112,"els":3113,"à¯ģ.\"":3114,"çī":3115,"à®¤à®©à®ª":3116,"2009":3117,"Ġà®¶":3118,"à®īà®Ł":3119,"oday":3120,"Ġsays":3121,"ini":3122,"à®İà®ĥà®ª":3123,"à¯ĭâĢĻ":3124,"à®¾âĢĮ":3125,"ĠâĢ¢":3126,"Ġà®ªà®³à®ª":3127,"Ġi":3128,"ade":3129,"ral":3130,"à¯ĩ-":3131,"Ġà®ħà®ķà®®":3132,"ode":3133,"TN":3134,"dinamani":3135,"Ġà®Ĭà®Łà®ķà®¤":3136,"Ġà®ĵà®ªà®©":3137,"à¯ģ[":3138,"Ġ2003":3139,"ÙĨ":3140,"Ġ00":3141,"Ġen":3142,"Ġà¤":3143,"tn":3144,"Ġà®ļà®¯":3145,"SS":3146,"Ġà®ħà®ªà®¤":3147,"Ġà®¤à®®à®©":3148,"Ġ--":3149,"ates":3150,"Ġ1990":3151,"put":3152,"ication":3153,"à®®à®©à®®":3154,"sk":3155,"Ġund":3156,"à®ªà®²à®ķ":3157,"Ġ41":3158,"Ġà®ħà®°à®µà®£":3159,"Ġqu":3160,"ara":3161,"Ġà®īà®°à®¤":3162,"adi":3163,"à®Ĳà®ª":3164,"Ġ46":3165,"Ã¤":3166,"ED":3167,"84":3168,"Ġà®Ĳà®¤à®°":3169,"me":3170,"à®Łà®Łà®®":3171,"Ġ72":3172,"à®²à®°à®ļ":3173,"Ġ2002":3174,"à¯įâĢ¦âĢĿ":3175,"ownload":3176,"à®Łà®Łà®¤":3177,"à®·à®¯":3178,"à®ħà®ľ":3179,"à¯į:-":3180,"umar":3181,"à¯ģ/":3182,"à®©à®µà®±":3183,"right":3184,"à®©à®ªà®Ł":3185,"à®®à®£à®Ļ":3186,"ty":3187,"Ġres":3188,"cript":3189,"te":3190,"à¯ģ?âĢĿ":3191,"à¯ģ),":3192,"Ġà®ħà®ķà®®à®¤":3193,"ock":3194,"ose":3195,"à®¨à®®à®ķ":3196,"à®ªà®¤à®µ":3197,"atest":3198,"72":3199,"aram":3200,"ĠSe":3201,"ĠSup":3202,"Ġà®¤à®Łà®®":3203,"à®´à®Ł":3204,"inal":3205,"à®ķà®ľ":3206,"Ġ69":3207,"land":3208,"à®µà®ļà®¤":3209,"Ġ56":3210,"à®ļà®°à®£":3211,"Ġà®Īà®ļà®©":3212,"à®ªà®£à®¤":3213,"ax":3214,"affna":3215,"à®µà®®à®´":3216,"ats":3217,"Ġà®¹à®Ł":3218,"ĠRes":3219,"à®±à®µà®³":3220,"akaran":3221,"Ġà®ªà®¤à®®":3222,"Ġà®Ĩà®µà®°":3223,"à®ļà®µà®®":3224,"à®Ĵà®Ł":3225,"der":3226,"à®Łà®µà®Ł":3227,"Ġï¿½ï¿½ï¿½ï¿½":3228,"à®¹à®²":3229,"ideos":3230,"Ġpol":3231,"à®Ĳà®°":3232,"Ġind":3233,"twimg":3234,"âĨĳ":3235,"utt":3236,"Ġcont":3237,"à®Ĩà®©à®¨":3238,"////":3239,"Ġà®īà®²à®µ":3240,"Ġhave":3241,"à¯ģ..!":3242,"Ġà®°à®¸":3243,"ism":3244,"à®´à®ļ":3245,"be":3246,"Ġà®®à®£à®ª":3247,"à¯ģ!!":3248,"Ġà®ĩà®°à®¯":3249,"à®Ĩà®³":3250,"Ġà®ĩà®¯à®©":3251,"à®ħà®¸":3252,"eptember":3253,"87":3254,"Ø±":3255,"à®°à®®à®©":3256,"à¯ģ''":3257,"Ġà®Łà®°":3258,"à®¤à®£à®°":3259,"Ġà®Ĩà®°à®ŀ":3260,"ĠSex":3261,"à®©à®®à®²à®°":3262,"à¯ĩ)":3263,"Ñĥ":3264,"Ġà®ĩà®©à®ķ":3265,"Ġse":3266,"\",":3267,"Ġà®ħà®©à®°":3268,"ĠIs":3269,"ĠToday":3270,"Posted":3271,"à®Łà®Łà®Ļ":3272,"Ġà®Łà®¤":3273,"af":3274,"ĠThir":3275,"Ġà®ķà®Łà®ª":3276,"Ġà®Ĩà®¤à®°à®µà®³":3277,"ĠComm":3278,"Ġ52":3279,"å½":3280,"Ġà®®à®Łà®®":3281,"à®īà®©à®ķ":3282,"à®ķà®¨à®ªà®°":3283,"ourt":3284,"Ġ85":3285,"à®ªà®´à®¤":3286,"Ġhis":3287,"åĽ":3288,"ould":3289,"Ġ58":3290,"adh":3291,"à®ķà®£à®¤":3292,"ĠPer":3293,"iews":3294,"itt":3295,"Ġagain":3296,"/-":3297,"à®¯à®¤à®³":3298,"ealth":3299,"inister":3300,"à®¤à®ķà®Ł":3301,"ages":3302,"riend":3303,"Ġà®Īà®´à®®":3304,"ka":3305,"à®Ĩà®µ":3306,"à¯į..!!":3307,"à®ĩà®µà®©":3308,"à®¿/":3309,"Ġà®Ĳà®¤":3310,"ets":3311,"Ġpart":3312,"63":3313,"lam":3314,"600":3315,"à®°à®£à®ª":3316,"Ġ57":3317,"Ġà®īà®µà®®":3318,"Ġà®ªà®°à®£":3319,"Ġ108":3320,"Ġà®ļà®°à®®":3321,"ĠTAM":3322,"ps":3323,"Ġro":3324,"Ġà®¤à®µà®±à®µ":3325,"Ġæ":3326,"Ġà®ħà®°à®ļà®®":3327,"à¯ģâĢ¦.":3328,"à®ķà®µà®¤":3329,"Ġà®ªà®£à®µà®°à®µ":3330,"à®°à®³à®¤":3331,"Ġ51":3332,"ĠPol":3333,"2010":3334,"ident":3335,"ĠAthavan":3336,"à®´à®µà®©":3337,"à®¤à®²à®Ļ":3338,"à®¾?'":3339,"à¯į.âĢĻ":3340,"à®Łà®µà®ļà®®":3341,"à®ıà®°":3342,"urai":3343,"iya":3344,"Ġ95":3345,"ĠOct":3346,"Ġà®Ĩà®ķà®²":3347,"ĠTagged":3348,"95":3349,"à®¤à®ķà®ª":3350,"à®¯à®ķà®ķ":3351,"à®³à®µà®¤":3352,"Ġà®¸à®®":3353,"Ġrec":3354,"à®°à®ªà®°":3355,"pe":3356,"Ġà®ħà®µà®²":3357,"Ġà®ħà®ªà®ķà®°":3358,"Ġ@":3359,"85":3360,"ĠFor":3361,"Ġhas":3362,"kar":3363,"à®µà®ķà®¤":3364,"à®ªà®±à®®":3365,"Ġper":3366,"à®ķà®°à®ļ":3367,"Ġev":3368,"ouse":3369,"à®·à®£":3370,"ĠVideo":3371,"à¯ģ.)":3372,"aking":3373,"Ġ800":3374,"yst":3375,"eral":3376,"Ġà®Ĩà®¯à®°":3377,"à®¾à¯į.":3378,"uy":3379,"ĠDec":3380,"ober":3381,"à®¤à®®à®±":3382,"Ġà®ħà®¤à®°":3383,"aut":3384,"Ġà®ļà®ķà®ľà®®":3385,"ĠGr":3386,"Ġà®ĵà®°à®¤":3387,"Ġà®µà®ļà®ª":3388,"Ġé":3389,"Ġà®µà®°à®©":3390,".)":3391,"Ġà®µà®°à®Ł":3392,"à¯ĩà®¾,":3393,"amal":3394,"anthi":3395,"au":3396,"à´":3397,"à®ķà®°à®ª":3398,"Ġ59":3399,"ĠMus":3400,"Ġà®ĩà®Łà®Ĵà®¤":3401,"à¯į!!!":3402,"à®¹à®©":3403,"à®ķà®®à®®":3404,"Ġ62":3405,"Ġà®µà®Łà®ª":3406,"Ġà®µà®±à®£":3407,"à®³à®µà®©":3408,"Ġà®Īà®®":3409,"à®ªà®²à®¤":3410,"à®©à®¤à®®":3411,"à¯įâĢĿ,":3412,"à¯Įà®¿":3413,"ĠFl":3414,"amakathaikal":3415,"à®£à®¨":3416,"à®®à®°à®ª":3417,"athir":3418,"à¯ĬÂŃ":3419,"à®¯à®¤à®³à®Ļ":3420,"Ġyear":3421,"86":3422,"AA":3423,"ĠVijay":3424,"Ġtoday":3425,"Ġà®¤à®µà®£":3426,"à®°à®¤à®ª":3427,"Ġnew":3428,"ues":3429,"Ġà®¹à®²":3430,"Ġà®ªà®°à®¸":3431,"ĠBS":3432,"à®ļà®²à®ª":3433,"Ġà®®à®£à®®à®ķà®©":3434,"\\\\":3435,"à¯Ī....":3436,"à®ıà®ª":3437,"à±":3438,"ins":3439,"à®°à®ļà®Ļ":3440,"Ġ63":3441,"ĠRoad":3442,"duc":3443,"Ġ53":3444,"à®µà®Łà®®":3445,"ivers":3446,"igg":3447,"ina":3448,"à®İà®°":3449,"à®Ļà®©à®®":3450,"Ġunder":3451,"]]":3452,"à®¯à®²à®Ł":3453,"ĠSeptember":3454,"à®¹à®¤":3455,"Ġà®Ĩà®·":3456,"Ġà®®à®£à®ķ":3457,"Ġà®ħà®°à®Ł":3458,"Ġone":3459,"Ġà®Łà®¯à®°":3460,"à®Ĩà®¨":3461,"à®µà®ķà®°":3462,"AF":3463,"rest":3464,"à¯įÂ»":3465,"Ġ1980":3466,"ION":3467,"Ġele":3468,"à®ľà®¯à®¤":3469,"à®©à®°à®®":3470,"96":3471,"ĠDin":3472,"Ġent":3473,"åħ":3474,"Ġà®ļà®¸":3475,"Ġà®ħà®²à®®":3476,"ush":3477,".....":3478,"lic":3479,"Ġà®ĩà®Łà®°":3480,"aid":3481,"à®²à®ªà®Ł":3482,"ES":3483,"à®Łà®³à®µ":3484,"ossip":3485,"Ð¤":3486,"yle":3487,"chool":3488,"Ġà®īà®°à®ļ":3489,"Ġà®´":3490,"Ġà®ĩà®¤à®®":3491,"ne":3492,"à®°à®ªà®Ł":3493,"ines":3494,"Ġ68":3495,"ateg":3496,"Ġà®ķà®£à®¤":3497,"amy":3498,"ĠJul":3499,"Ġpost":3500,"Ġà®ĩà®³à®µ":3501,"à¯ĢÂŃ":3502,"à®ķà®³à®©":3503,"ĠFeb":3504,"Ġç":3505,"Ġà®ķà®®à®°":3506,");":3507,"à®Łà®µà®±":3508,"Ġà®Ĳà®ļ":3509,"à®Īà®´à®¤":3510,"fer":3511,"Ġà®¨à®Łà®µ":3512,"ĠCent":3513,"ĠMay":3514,"à®ªà®´à®Ļ":3515,"Ġà®īà®¤à®±":3516,"You":3517,"à®³à®³à®µ":3518,"à®¯à®°à®ļà®°":3519,"à¯į?âĢĻ":3520,"à®ľà®¤à®¨":3521,"Ġà®Ĩà®µà®£à®®":3522,"spot":3523,"Ã¡":3524,"ĠVir":3525,"alk":3526,"à®±à®¨à®ķà®°":3527,"à®ļà®µà®©":3528,"71":3529,"Ġà®ħà®ķà®µ":3530,"Ġà®Ĩà®ŀ":3531,"ox":3532,"br":3533,"arm":3534,"Ġà®ĥà®ªà®°":3535,"à®ªà®®à®Ł":3536,"ors":3537,"Ġà®®à®¤à®°":3538,"iled":3539,"lim":3540,"Â¢":3541,"ĠAug":3542,"Ġà®°à®ķà®®":3543,"98":3544,"pen":3545,"Ġact":3546,"à®ķà®®à®£":3547,"Ġà®Īà®µ":3548,"eek":3549,"An":3550,"à®ªà®ķà®ª":3551,"Ġà®ªà®ķà®Ł":3552,"Ġsu":3553,"à®ªà®´à®ķà®©":3554,"ean":3555,"à¯ĭ)":3556,"à®ľà®©à®¤":3557,"Ġ54":3558,"arth":3559,"74":3560,"Äģ":3561,"Ġsam":3562,"Ġà®ĩà®³à®ŀ":3563,"Ùħ":3564,"à®²à®ķà®°":3565,"ject":3566,"à®©à®¤à®²":3567,"à¯ĩ:":3568,"ĠIN":3569,"TM":3570,"urr":3571,"ĠAnd":3572,"irl":3573,"edition":3574,"RI":3575,"à®ļà®©à®²":3576,"----------------":3577,"ĠðŁ":3578,"ĠGoogle":3579,"Ġà®īà®ªà®°":3580,"73":3581,"à®¯à®¯":3582,"Ġsc":3583,"ĠYou":3584,"à®±à®¤à®±":3585,"ony":3586,"à®²à®ķà®£":3587,"UT":3588,"gmail":3589,"Ġà®ļà®®à®°à®ļà®®":3590,"Ġà®ıà®²à®®":3591,"Ġà®ħà®µà®²à®®":3592,"à¯ĩ....":3593,"à®±à®®à®Ł":3594,"Daily":3595,"à®īà®ª":3596,"rain":3597,"Ġcan":3598,"ix":3599,"à®±à®¤à®©":3600,"à®īà®£à®°":3601,"300":3602,"?)":3603,"à®µà®ļà®ª":3604,"min":3605,"à®©à®¤à®±":3606,"ĠSam":3607,"à®®à®Łà®Ļ":3608,"à®īà®²à®ķà®¤":3609,"Ġà®īà®°à®ķ":3610,"Ġdis":3611,"ĠLe":3612,"ĠØ§":3613,"à®ľà®©à®®":3614,"à®²à®ķà®Ļ":3615,"ocal":3616,"Ñı":3617,"Ġpeople":3618,"à¯į\".":3619,"ali":3620,"61":3621,"!!!!":3622,"media":3623,"ĠJan":3624,"Ġà®ķà®³à®ª":3625,"à®Łà®£à®Ļ":3626,"ada":3627,"Ġà®¨à®µà®ķ":3628,"Ġà®Ĩà®µà®£":3629,"Ġà®¨à®µà®°":3630,"hares":3631,"BS":3632,"arg":3633,"ally":3634,"earch":3635,"II":3636,"Ġà®ıà®¯":3637,"ĠWorld":3638,"arn":3639,"oot":3640,"Â·":3641,"Ġstory":3642,"odi":3643,"EW":3644,"à¯į'.":3645,"à¯ĩ;":3646,"Ġcomment":3647,"pbs":3648,"à¯į.'":3649,"omen":3650,"Ġstr":3651,"à¯ĭ'":3652,"Ġà®ķà®ªà®Ł":3653,"à®ĩà®³à®®":3654,"Ġwe":3655,"________":3656,"Ġà®¤à®Łà®Ļ":3657,"RE":3658,"blogspot":3659,"ows":3660,"Ġà®®à®²à®®":3661,"Ġà®®à®©à®µ":3662,"ÙĪ":3663,"à¯įâĢ¦..":3664,".âĢĿ":3665,"à®ªà®¤à®ķ":3666,"à®°à®ļà®µ":3667,"à®ħà®ŀ":3668,"Ġà®®à®£à®®à®ķà®³":3669,"Ġ66":3670,"PL":3671,"????":3672,"abad":3673,"ama":3674,"?\"":3675,"MS":3676,"Ġà®Ĩà®¹":3677,"à®³à®ªà®Ł":3678,"Ġà®ħà®±à®¤":3679,"Ġcome":3680,"à®µà®³à®¤":3681,"araj":3682,"eld":3683,"ane":3684,"Ġagainst":3685,"à®©à®ķà®¤":3686,"à®¯à®²à®ķ":3687,"DI":3688,"str":3689,"Ġvideo":3690,"ruary":3691,"eep":3692,"RO":3693,"à¯į...!":3694,"à®ļà®ķà®Ļ":3695,"Ġ700":3696,"///":3697,"ĠTo":3698,"Ġà®¤à®²à®¤":3699,"Ġgo":3700,"come":3701,"Ġbl":3702,"à¯įâĢĺ":3703,"Ġà®Ĩà®²à®®":3704,"ips":3705,"ayam":3706,"Ġà®ıà®£":3707,"Ð°Ð":3708,"Ġà®İà®ĥà®ª":3709,"outube":3710,"à¯Ī/":3711,"à¯į!âĢĻ":3712,"Ġmon":3713,"à®ªà®¯à®£à®¤":3714,"à®ķà®°à®ļà®°":3715,"ĠUS":3716,"Ġà®¨à®©à®µ":3717,"Ġcol":3718,"ÙĬ":3719,"à®°à®ķà®©":3720,"Ġà®ªà®´à®¨":3721,"Thanthi":3722,"ĠDr":3723,"à®°à®ļà®µà®®":3724,"à¯į...\"":3725,"à®ħà®µà®±":3726,"Ġ5000":3727,"Tags":3728,"ĠArticle":3729,"à®ªà®²à®°":3730,"à®¾),":3731,"Ġà®®à®³":3732,"Ġà®¤à®°à®ķà®°":3733,"à®ªà®´à®©":3734,"à®¯à®£à®¤":3735,"å½©":3736,"à¯ģâĢĻâĢĻ":3737,"à®£à®¯à®¤":3738,"à®ĵà®¯":3739,"athi":3740,"à®ķà®¤à®°":3741,"à®ªà®¯à®Ļ":3742,"à®±à®¯":3743,"Ġà®īà®²à®ķà®³à®µ":3744,"à®¤à®©à®µ":3745,"chn":3746,"akes":3747,"ĠJaffna":3748,"à®¤à®µà®¤":3749,"Ġà®Ļ":3750,"asu":3751,"à¯į..?":3752,"press":3753,"HER":3754,"à®¨à®Łà®ª":3755,"à¯ĩ?âĢĿ":3756,"Ġà®ıà®ŀ":3757,"Ġ96":3758,"à®ķà®Łà®Ļ":3759,"En":3760,"Ġ84":3761,".[":3762,"ied":3763,"DailyThanthi":3764,"Ġà®ĵà®°à®Ļ":3765,"ä¸Ń":3766,"Ġà®¨à®¸":3767,"Ġ075":3768,"Ġà®®à®ľ":3769,"Ġà®İà®ľà®®":3770,"Ġph":3771,"],":3772,"ĠTV":3773,"83":3774,"Ġ67":3775,"PSC":3776,"Ġà®ĩà®Łà®®à®³":3777,"Ġà®µà®°à®£":3778,"0530":3779,"Ġà®ķà®´à®ķà®Ļ":3780,"ĠDel":3781,"Ġ3000":3782,"ĠBl":3783,"Ġ110":3784,"Ġà®īà®´à®µà®°":3785,"so":3786,"à®°à®¤à®©":3787,"Ġmovie":3788,"à®ªà®©à®®":3789,"ts":3790,"à®³à®Łà®Ļ":3791,"Ġà®ļà®®à®µ":3792,"Ġà®ªà®¯à®©à®Ł":3793,"Ġà®ķà®©à®¤":3794,"Ġinter":3795,"now":3796,"à®¾;":3797,"Ġà®ªà®¹":3798,"à®ļà®°à®¤":3799,"åı":3800,"ĠNext":3801,"Ñĭ":3802,"Ġà®®à®²à®ļ":3803,"mer":3804,"ĠâĢĺâĢĻ":3805,"Ġà®ļà®®à®°à®ļ":3806,"à®°à®®à®²":3807,"Ġà®ªà®´à®ļ":3808,"Ġsw":3809,"à®ķà®£à®µà®©":3810,"order":3811,"à®¯à®£à®ļ":3812,"Ġà®ħà®ļà®®":3813,"ĠOctober":3814,"à®¤à®µà®®":3815,"Ġatt":3816,"à®µà®°à®ļ":3817,"ING":3818,"Ġint":3819,"Ġè":3820,"à®¯à®®à®©":3821,"Ġà®ľà®©à®©":3822,"à¯į;.":3823,"Ġla":3824,"mur":3825,"Ġà®ľà®°":3826,"Com":3827,"à®¯à®©à®µ":3828,"2008":3829,"ran":3830,"à®Ĵà®²":3831,"à®ªà®±à®µ":3832,"ecial":3833,"à®¨à®²à®ķ":3834,"Ġà®¨à®¯":3835,"LA":3836,"Ġ\"\"":3837,"BC":3838,"à¯ģ.....":3839,"ĠComment":3840,"Ġ1996":3841,"ï¼":3842,"à®Łà®±à®¤":3843,"à¨":3844,"Ġwater":3845,"ĠFebruary":3846,"à¯Ī),":3847,"oint":3848,"à®¿....":3849,"à¯ģ.(":3850,"med":3851,"ations":3852,"ĠTamilnadu":3853,"à®°à®ļà®µà®¤":3854,"à¯į!'":3855,"Ġpre":3856,"à®©à®Łà®¤":3857,"uc":3858,"Ġà®ķà®©à®ķ":3859,"à®ļà®ŀ":3860,"à®¯à®¤à®°":3861,"Ġacc":3862,"ctions":3863,"Ġï¿½":3864,"angal":3865,"Ġno":3866,"ystem":3867,"AP":3868,"à¯įâĢľ":3869,"Ġà®¨à®²à®ķ":3870,"rim":3871,"Ġ:-)":3872,"aiy":3873,"ble":3874,"Ġà®ªà®¯à®²":3875,"ution":3876,"rol":3877,"fter":3878,"à®µà®³à®®":3879,"Ġà®®à®Łà®²":3880,"Ġà®ħà®ķà®¨":3881,"à®¤à®³à®ªà®¤":3882,"uary":3883,"aa":3884,"Ġà®Ĩà®ķà®®":3885,"Ġ1999":3886,"Ġem":3887,"Ġà®ıà®²à®ķ":3888,"................":3889,"Ġ0777":3890,"Ġ78":3891,"Ġà®ªà®ķà®¤":3892,"à®£à®¯à®Ļ":3893,"Ġ2020":3894,"ĠWebsite":3895,"à®¤à®°à®ķà®¤":3896,"ĠApr":3897,"Ġstud":3898,"agar":3899,",,,,":3900,"Ġà®ķà®²à®ķà®²à®ª":3901,"Ġà®¹à®ļ":3902,"!)":3903,"EC":3904,"Ġà®µà®©à®µ":3905,"Ġ1500":3906,"ĠBook":3907,"Ġà®Ĩà®ļà®©à®Ļ":3908,"à®¯à®°à®ļà®©":3909,"\".":3910,"ĠSong":3911,"à®Ĵà®ª":3912,"à®£à®®à®Ł":3913,"]]>":3914,"Ġsamayal":3915,"à®Łà®©à®ª":3916,"atur":3917,"à®ªà®°à®µ":3918,"Ar":3919,"Ġà®µà®°à®¤à®°":3920,"à®ħà®³à®µ":3921,"à®¯à®¨à®²à®®":3922,"OL":3923,"Ġday":3924,"oon":3925,"Ġà®īà®¤à®¯à®®":3926,"news":3927,"Ġà®ħà®µà®ļà®°à®ª":3928,"Ġà®ıà®²":3929,"oup":3930,"ott":3931,"ĠGen":3932,"Ġ1991":3933,"ÐµÐ":3934,"Le":3935,"Ġ77":3936,"Ġà®īà®¤à®¯":3937,"à®ªà®ķà®°à®®":3938,"à®ķà®¤à®µ":3939,"ĠAss":3940,"ody":3941,"à®¯à®´":3942,"94":3943,"Ġà®ļà®¹":3944,"ombo":3945,"Ġà®¨à®°à®ķà®¤":3946,"pd":3947,"800":3948,"ĠAcc":3949,"Ġif":3950,"Ġà®īà®£à®°à®µ":3951,"à®°à®¯à®®":3952,"Ġà®Īà®±":3953,"ĠCon":3954,"Ġwork":3955,"à¯Ī.âĢĿ":3956,"ĠCinema":3957,"ission":3958,"thi":3959,"Ġ072":3960,"US":3961,"Shares":3962,"Ġcr":3963,"Ġà®¨à®®à®¸":3964,"Ġà®¤à®°à®²":3965,"eer":3966,"ĠMad":3967,"Ġprot":3968,"Ġà®Īà®´à®ª":3969,"ĠBre":3970,"Ġ1970":3971,"athiravan":3972,"82":3973,"à®¨à®±":3974,"91":3975,"Ġdes":3976,"à®İà®³":3977,"TV":3978,"Ġtheir":3979,"ç¥":3980,"Ġà®µà®°à®²à®Ł":3981,"Ġ1998":3982,"ĠVideos":3983,"à®²à®µà®°à®®":3984,"Ġà®ļà®·":3985,"alan":3986,"rab":3987,"ĠNadu":3988,"mp":3989,"Ġgr":3990,"ĠApp":3991,"à¯©":3992,"à¯į,\"":3993,"ĠAb":3994,"à®īà®¤à®µ":3995,"Ġà®īà®¤à®¯à®¨":3996,"Al":3997,"Ġà®īà®´à®µ":3998,"Ġ61":3999,"93":4000,"video":4001,"400":4002,"81":4003,"ĠMon":4004,"ward":4005,"à®®à®°à®Ļ":4006,"ĠJuly":4007,"Ġonline":4008,"px":4009,"BI":4010,"Ġ350":4011,"outh":4012,"Ġà®ħà®µà®¸":4013,"ute":4014,"Ġà®®à®ķà®ļ":4015,"Ġà®¤à®µà®¤":4016,"à®¯à®¤à®²":4017,"ĠDinakaran":4018,"à¯įâĢį":4019,"à®©à®ļà®®":4020,"à®¨à®µà®®":4021,"ĠAugust":4022,"à®°à®ªà®¤":4023,"Ġcomm":4024,"Ùĩ":4025,"Ġà®®à®£à®µ":4026,"Ġout":4027,"à®®à®ķà®°":4028,"Ġ:))":4029,"à®¾},":4030,"Ġà®®à®¹à®¤":4031,"à®ķà®³à®ķ":4032,"</":4033,"reen":4034,"Ġ125":4035,"Ġà®ħà®µà®¤à®°":4036,"âĢĶâĢĶâĢĶâĢĶ":4037,"Ġà®ªà®£à®µ":4038,"Ġ1987":4039,"ĠAll":4040,"rist":4041,"97":4042,"iyan":4043,"OS":4044,"à¯Ģ.,":4045,"raph":4046,"Ġarrest":4047,"asan":4048,"ID":4049,"à¯ĩ},":4050,"Ġover":4051,"Ġà®Ĭà®Łà®ķà®ª":4052,"à®ĩà®µà®°à®¤":4053,"erson":4054,"Ph":4055,"arket":4056,"any":4057,"à¯ĭâĢ¦":4058,"emple":4059,"Ġà®Ĩà®ªà®°à®£à®Ļ":4060,"/=.":4061,"pu":4062,"over":4063,"urn":4064,"Ġà®ħà®¯à®©":4065,"ĠMovie":4066,"ĠGossip":4067,"à®Īà®Ł":4068,"à®¤à®®à®®":4069,"erala":4070,"adan":4071,"Ġà®ıà®²à®¤":4072,"ief":4073,"à®©à®ķà®°":4074,"Ġà®¨à®Ļ":4075,"Ġ1989":4076,"way":4077,"999":4078,"ĠQu":4079,"Ġà®Ĵà®ļ":4080,"Ġà®ĵà®Łà®µ":4081,"à®¨à®ķà®°à®Ļ":4082,"ÛĮ":4083,"Ġà®ĩà®³à®µà®°à®ļà®©":4084,"\"\"":4085,"à®·à®ķ":4086,"ĠTE":4087,"icial":4088,"ited":4089,"ĠDecember":4090,"Ġà®²à®¯à®©":4091,"rick":4092,"twitter":4093,"åĽ¾":4094,"à¯«":4095,"Ġà®Ĭà®±à®µ":4096,"à¯į?'":4097,"Ġà®ªà®²à®¨":4098,"ants":4099,"à®©à®Łà®®":4100,"Ġà®Ĭà®©à®®":4101,"Ġà®¹à®ª":4102,"Ġcase":4103,"Ġà®®à®±à®¤":4104,"Ġ~":4105,"à®³à®¯":4106,"Ġà®ħà®³à®ª":4107,"à®Ĵà®´":4108,"ternational":4109,"ĠEd":4110,"à¤¾":4111,"à®¨à®ķà®°à®¤":4112,"ĠAp":4113,"ï¿½ï¿½ï¿½ï¿½ï¿½":4114,"Ġ76":4115,"à®²à®¤à®©à®®":4116,"Ġ73":4117,"à¥į":4118,"à®ļà®ķà®Ł":4119,"à¯į\",":4120,"ĠTv":4121,"çł":4122,"ars":4123,"Ġà®ħà®µà®ļà®°à®¤":4124,"92":4125,"Ġà®īà®£à®°à®ª":4126,"India":4127,"à®ļà®µà®°":4128,"ron":4129,"à¯į//":4130,"à®ľà®©à®¨":4131,"à®ªà®©à®¤":4132,"Ġà®ħà®ļà®Ł":4133,"Ġà®Ĩà®ķà®ķ":4134,"èĤ":4135,"å®":4136,"ĠIS":4137,"rooms":4138,"vid":4139,"2000":4140,"Ġà®īà®²à®®":4141,"à®ļà®©à®ª":4142,"Ġà®ľà®¯à®ļ":4143,"à®ķà®²à®¨":4144,"Ġà®īà®¤à®¯à®ķ":4145,"imb":4146,"Ġà®µà®¸à®²":4147,"ĠMedia":4148,"Ġtw":4149,"iness":4150,"itch":4151,"2006":4152,"tha":4153,"Ġà®ļà®©à®¤":4154,"Ġsm":4155,"oci":4156,"OT":4157,"Ġ......":4158,"Ġà®®à®´à®²":4159,"Ġà®¹à®¸":4160,"ĠDev":4161,"à®ĥà®ķ":4162,"Ġ98":4163,"Ġà®ħà®®à®°à®°":4164,"Sp":4165,"ames":4166,"à¯ĭâĢĿ":4167,"Ãł":4168,"etw":4169,"Ġà®ªà®¤à®ª":4170,"Ġà®Īà®°à®ª":4171,"à¯ģ!\"":4172,"Ġà®ħà®ĥà®¤":4173,"ÑĮ":4174,"Ġà®īà®ªà®¨":4175,"Ġ160":4176,"à¥°":4177,"Ġ1983":4178,"ĠEle":4179,"à®ªà®¯à®£":4180,"lk":4181,"anni":4182,"à®µà®´à®Ļ":4183,"On":4184,"col":4185,"à®ķà®ŀ":4186,"Ġà®µà®²à®ª":4187,"ĠStories":4188,"Ġà®¤à®ķà®Ł":4189,"Ġà®Ĳà®µà®°":4190,"Ġà®¤à®µà®´":4191,"à®°à®ªà®°à®£":4192,"???":4193,"æĸ":4194,"Ġà®²à®¯":4195,"eries":4196,"ange":4197,"========":4198,"que":4199,"ĠRoom":4200,"à®ļà®ªà®°":4201,"ĠAct":4202,"Ġà®īà®£à®µà®ķà®¤":4203,"à®Ĩà®ķà®¸":4204,"ĠServ":4205,"ĠTw":4206,"Ġà®Ĩà®ķà®ª":4207,"Ġà®ªà®²à®¤à®°à®ª":4208,"alin":4209,"play":4210,"ĠEduc":4211,"2019":4212,"2007":4213,"à®¯à®ķà®°à®®":4214,"à®®à®ķà®¤":4215,"elv":4216,"gr":4217,"Ġ71":4218,"à®ļà®°à®®":4219,"ĠST":4220,"à®°à®®à®±":4221,"aus":4222,"sky":4223,"à®ľà®¯à®ķà®²":4224,"Ã¼":4225,"Ġà®®à®¤à®ª":4226,"lease":4227,"UN":4228,"xx":4229,"à®ķà®ļà®ª":4230,"à®°à®ķà®Łà®©à®®":4231,"ĠLatest":4232,"Ġkill":4233,"Ġà®ķà®²à®µà®°à®Ļ":4234,"Ġà®ħà®±à®ª":4235,"à®®à®°à®ķ":4236,"alv":4237,"irector":4238,"à®°à®ľà®©":4239,"ĠAs":4240,"ÙĲ":4241,"Ġgovernment":4242,"murasu":4243,"çłģ":4244,"à®ķà®°à®Ł":4245,"IF":4246,"ooking":4247,"å¤©":4248,"ĠMP":4249,"rish":4250,"anjil":4251,"à®Ĭà®´à®²":4252,"vent":4253,"à®¾?.":4254,"Ġà®ħà®³à®¨":4255,"ĠEnglish":4256,"Ġà®ĩà®²à®¤":4257,"ĠDo":4258,"oman":4259,"à®Ĩà®¹":4260,"ĠÂ«":4261,"Ġà®ħà®ļà®°":4262,"een":4263,"Ġà®°à®ļà®®":4264,"Ġ140":4265,"ough":4266,"Ġà®ļà®®à®ļ":4267,"ava":4268,"Ġà®µà®¯à®°":4269,"ĠMinister":4270,"val":4271,"ĠTO":4272,"Ġ74":4273,"Ġà®ªà®²à®°à®¤":4274,"à¯Ģ-":4275,"++":4276,"Ġfirst":4277,"à®¤à®ķà®©":4278,"à®¾??":4279,"à®ķà®³à®±":4280,"Ġà®īà®¸":4281,"ĠJune":4282,"ĠÐ¿":4283,"EWS":4284,"Ġ.....":4285,"ĠApril":4286,"á»":4287,"à®Łà®¨à®®":4288,"Ġcomp":4289,"other":4290,"à®¯à®±à®¤":4291,"à®ľà®µ":4292,"à¯į.''":4293,"ĠRam":4294,"ĠPar":4295,"à®®à®¤à®©":4296,"Ġà®°à®®à®£":4297,"ĠKol":4298,"obile":4299,"ĠBSNL":4300,"JP":4301,"à¯į`":4302,"à®¾à®¾à¯į":4303,"à®¯à®²à®ķà®®":4304,"Ġà®Łà®¯":4305,"ĠTel":4306,"à®¯à®®à®©à®¤":4307,"Ġtime":4308,"AG":4309,"AK":4310,"à®īà®±à®µ":4311,"ms":4312,"apt":4313,"Ġà®ħà®´à®±":4314,"1000":4315,"à®¤à®°à®ļ":4316,"Ġrel":4317,"\",\"":4318,"Ġà®µà®°à®¤à®Ł":4319,"Ġà®µà®¹":4320,"Ġ130":4321,"Ġà®¨à®ľ":4322,"ineer":4323,"Ġà®īà®ªà®ļà®°":4324,"à®°à®ļà®®":4325,"ords":4326,"Ġà®ļà®°à®µ":4327,"Ġà®Ĭà®°à®ķ":4328,"èĤĸ":4329,"à¯ģ?\"":4330,"à®¯à®©à®®":4331,"elf":4332,"CH":4333,"à®Ĭà®Ł":4334,"Ġà®ļà®®à®£":4335,"inn":4336,"à®µà®ļà®¨":4337,"Ġà®īà®³à®±":4338,"ÑģÑĤ":4339,"à¯¨":4340,"ren":4341,"à®ļà®ªà®ķ":4342,"wn":4343,"lock":4344,"Ġà®Īà®©":4345,"ĠJanuary":4346,"à®¤à®¤à®¤":4347,"Share":4348,"æī":4349,"opy":4350,"à®®à®£à®ª":4351,"No":4352,"ĠCan":4353,"ĠFacebook":4354,"aya":4355,"à®¯à®¨à®²":4356,"à¯ĩ!âĢĿ":4357,"ounc":4358,"ĠOr":4359,"udi":4360,"Ġà®ħà®µà®²à®Ļ":4361,"à®ĩà®°à®¤":4362,"ĠÂŃ":4363,"Ġà®¨à®°à®ķ":4364,".(":4365,"con":4366,"Ġà®ļà®Łà®²à®¤":4367,"ĠSw":4368,"ĠEducation":4369,"GB":4370,"à®°à®ķà®Łà®©à®ª":4371,"inamalar":4372,"IR":4373,"emb":4374,"à®°à®°à®ļà®°":4375,"ĠAg":4376,"ek":4377,"Ġ88":4378,"Ġ83":4379,"very":4380,"DF":4381,"ç½":4382,"Ġà®īà®£à®µà®ķà®®":4383,"à®¤à®Łà®µ":4384,"à®ĩà®Łà®¤":4385,"uch":4386,"stit":4387,"Ġà®Ķ":4388,"à®ªà®°à®©":4389,"Filed":4390,"Ġà¯Ĭ":4391,"ative":4392,"eel":4393,"Ġà®®à®£à®¤":4394,"Ġz":4395,"ĠDelhi":4396,"Ġthey":4397,"à¯ģ!âĢĿ":4398,"ĠMarch":4399,"Ġmar":4400,"res":4401,"âĢİ":4402,"à®µà®©à®Ł":4403,"ives":4404,"à®ŀà®°à®£":4405,"Ġ1992":4406,"Ġà®ķà®£à®Ļ":4407,"ĠRep":4408,"dy":4409,"à®µà®ķà®ļ":4410,"Ġà®¤à®©à®ª":4411,"unch":4412,"à®²à®ķà®²":4413,"ublic":4414,"Ġ1960":4415,"ency":4416,"Ġà®Ĳà®©":4417,"Ġà®Ĵà®Ļ":4418,"à®¨à®Łà®¨":4419,"aper":4420,"à®ļà®¯à®©":4421,"ĠHy":4422,"urs":4423,"oto":4424,"ĠSc":4425,"ĠMalai":4426,"à®£à®£":4427,"Ġà®µà®ļà®©":4428,"Â°":4429,"Ġworld":4430,"ĠSur":4431,"ness":4432,"à®µà®©à®ª":4433,"ĠDis":4434,"Ġà®Łà®µà®°":4435,"à®µà®£à®Ļ":4436,"Ġà®¤à®µà®³":4437,"à®¿âĢĻ,":4438,"à®ªà®¤à®²":4439,"angu":4440,"Ġà®ļà®ªà®¤à®®":4441,"Ð²":4442,"à®Łà®©à®Ļ":4443,"âĢ¦..":4444,"TR":4445,"à®ļà®£à®®":4446,"wood":4447,"Ġå¤":4448,"Ġà®ªà®·":4449,"icro":4450,"atus":4451,"artment":4452,"à®³à®©à®µ":4453,"Ġà®µà®Łà®ļ":4454,"Ġà®Ĩà®µà®£à®¤":4455,"ĠBe":4456,"Ġà®¨à®Łà®©à®¤":4457,"ium":4458,"Ġà®®à®ķà®ª":4459,"Ġà®īà®£à®µà®ķà®Ļ":4460,"Ġiss":4461,"ACHER":4462,"à®ķà®³à®Ļ":4463,"à®ķà®²à®µ":4464,"aint":4465,"ĠØ§ÙĦ":4466,"à®¸à®¤":4467,"Ġ97":4468,"Ġà®Ĩà®Łà®µà®°":4469,"Ġafter":4470,"nov":4471,"Ġà®ķà®£à®©":4472,"PP":4473,"ril":4474,"Ø¯":4475,"LL":4476,"atha":4477,"ukk":4478,"Ġà®İà®´à®µ":4479,"iversity":4480,"IM":4481,"iew":4482,"ÙĴ":4483,"Ġ1984":4484,"TH":4485,"Ġà®¤à®³à®µ":4486,"à®ķà®²à®ķ":4487,"à®ĵà®µ":4488,"Ġà®ĩà®ķà®´":4489,"otos":4490,"Øª":4491,"ots":4492,"à®Łà®°à®²":4493,"Ġour":4494,"Ġà®Łà®¯à®Ł":4495,"à®±à®®à®³":4496,"ĠSub":4497,"unn":4498,"à®ĵà®®":4499,">>":4500,"Wel":4501,"Ex":4502,"va":4503,"Ġà®ķà®°à®©":4504,"ç½ĳ":4505,"IV":4506,"à®¸à®¸":4507,"ased":4508,"Ġà®ħà®ľà®¯":4509,"OG":4510,"ica":4511,"Ġ180":4512,"oz":4513,"à®ļà®µà®¤":4514,"Ġà®·à®®":4515,"pur":4516,"à®Łà®®à®£":4517,"Ġà®ªà®±à®ª":4518,"à®ªà®°à®ļ":4519,"ager":4520,"ĠSing":4521,"ier":4522,"Ġà®Ĩà®Łà®²":4523,"anid":4524,"Ġkathai":4525,"Ġà®īà®³à®®":4526,"Ġà®¨à®ķà®°à®ļà®ª":4527,"pro":4528,"Ġà®ķà®µà®ļà®®":4529,"ĠDe":4530,"CR":4531,"ible":4532,"ika":4533,"oth":4534,"ĠCo":4535,"ĠBed":4536,"à®¨à®³":4537,"rict":4538,"à®ļà®Łà®Ļ":4539,"ize":4540,"Ġfree":4541,"fo":4542,"Ġ82":4543,"Ġ1950":4544,"estion":4545,"Ġà®¨à®µà®¨":4546,"umber":4547,"à®¤à®ķà®²":4548,"Ġshould":4549,"Ġ92":4550,"à®¾...?":4551,"çī¹":4552,"Ġ1995":4553,"ĠBath":4554,"Ġ1997":4555,"à®®à®£à®²":4556,"Ġ91":4557,"ĠIm":4558,"ï¿½ï¿½ï¿½ï¿½ï¿½ï¿½":4559,"ĠColombo":4560,"900":4561,"Ġà®µà®Łà®¨":4562,"Ġ81":4563,"à®ķà®¤à®®":4564,"alm":4565,"Ġà®ªà®¤à®¤":4566,"This":4567,"ĠMalaimurasu":4568,"ĠSoor":4569,"ope":4570,"Ġvis":4571,"CC":4572,"à®°à®¯à®¤":4573,"Ġà®īà®°à®Ļ":4574,"à®Łà®ķà®ķ":4575,"à¯ĪâĢĮ":4576,"ĠPart":4577,"Ġsec":4578,"á¾":4579,"orth":4580,"ely":4581,"à®ªà®ķà®°":4582,"ĠFirst":4583,"ĠStud":4584,"à®¯à®®à®Ļ":4585,"cont":4586,"çĶ":4587,"Ġ86":4588,"Ġ87":4589,"à®ªà®ªà®Ł":4590,"à®²à®µà®°à®ª":4591,"Ġà®ļà®²à®µ":4592,"usiness":4593,"à®Ĩà®´":4594,"Ġ1994":4595,"Ġà®®à®°à®£à®Ļ":4596,"à¯Ī}":4597,"à¯Ī).":4598,"à®¯à®Łà®ķ":4599,"à®ħà®µà®Ļ":4600,"à®¯à®©à®°":4601,"à®Łà®²à®Ł":4602,"ĠMuslim":4603,"à®°à®ªà®¨":4604,"Ġà®¨à®°à®ķà®®":4605,"Mean":4606,"à®ªà®¤à®¤":4607,"à®¶":4608,"à®Łà®µà®®":4609,"à®µà®ļà®ķ":4610,"get":4611,"à®ĩà®±à®¨":4612,"ĠComput":4613,"Ġà®ıà®µà®ª":4614,"eri":4615,"ĠIt":4616,"hu":4617,"Ġ89":4618,"ĠBank":4619,"Â¡":4620,"Ġ93":4621,"à®°à®³à®®":4622,"à®°à®ķà®£à®®":4623,"Ġà®ªà®°à®ļ":4624,"Ġfriend":4625,"ĠMy":4626,"Ġà®ħà®³à®ķ":4627,"à®Ĳà®ļ":4628,"ator":4629,"ami":4630,"Ġà®ĥà®ªà®£":4631,"aka":4632,"ĠStory":4633,"ĠColle":4634,"Ġsupport":4635,"à®³à®©à®¤":4636,"ĠBold":4637,"à®ħà®®à®°":4638,"âĢĻ,":4639,"anam":4640,"aik":4641,"rid":4642,"Í¼":4643,"Ġà®Ĭà®ŀ":4644,"à®ļà®®à®¯à®¤":4645,"à¯¦à¯¦":4646,"Ġna":4647,"Ġà®ªà®£à®®à®¤":4648,"ibr":4649,"ä»":4650,"à®¸à®ª":4651,"ĠTH":4652,"à¯ģ..!!":4653,"à®ªà®Łà®ļ":4654,"ĠPre":4655,"Ġà®ķà®°à®¤":4656,"Ġà®ªà®¯à®£à®ª":4657,"Ġass":4658,"ĠThis":4659,"Ġà®ļà®²à®ļà®²à®ª":4660,"à®ħà®ķà®¤":4661,"Ġà®²à®·":4662,"TML":4663,"à®¤à®µà®£":4664,"ser":4665,"Ġï¿½ï¿½":4666,"ÃŃ":4667,"ĠSec":4668,"indows":4669,"ĠBreaking":4670,"Ġà®ĵà®©":4671,"Ġmeet":4672,"Ġ79":4673,"ĠKamakathaikal":4674,"Ġ1988":4675,"ought":4676,"Meanings":4677,"ĠDownload":4678,"à¯ĩ?\"":4679,"anidhi":4680,"á¹":4681,"à®īà®´":4682,"Ġcall":4683,"Ġ94":4684,"Ġà®µà®ľ":4685,"à¯į..âĢĿ":4686,"ift":4687,"ield":4688,"net":4689,"Ġarrested":4690,"ote":4691,"Ġà®īà®£à®°à®®":4692,"vest":4693,"Ġà®¯à®©":4694,"à®Ĭà®¤":4695,"00000000":4696,"ä¹":4697,"ux":4698,"ather":4699,"à®ķà®µà®´à®ķ":4700,"fl":4701,"uss":4702,"gram":4703,"ĠTR":4704,"Ġà®®à®©à®¤à®³à®µ":4705,"Ġà®ªà®¯à®ķ":4706,"ival":4707,"Ġà®ĵà®¨":4708,"Ġfilm":4709,"urrent":4710,"ĠIslam":4711,"umbai":4712,"led":4713,"ĠðŁĺ":4714,"red":4715,"à¯į!)":4716,"ocial":4717,"Ġà®¸à®¹":4718,"à¯ĩ!)":4719,"à®ķà®Łà®±":4720,"âĢ¦âĢ¦âĢ¦âĢ¦":4721,"ĠMed":4722,"Ġplay":4723,":)":4724,"ret":4725,"ĠBoldsky":4726,"war":4727,"Â«":4728,"ĠHigh":4729,"ized":4730,"Ġ---":4731,"itor":4732,"Ġà®¤à®¸":4733,"è®":4734,"à®ķà®³à®²":4735,"youtube":4736,"Ġà®ıà®´à®°":4737,"ĠMah":4738,"OW":4739,"à¯ģ}":4740,"à®®à®£à®ķ":4741,"Ġà®ªà®³à®ªà®³à®ª":4742,"à®±à®¤à®²":4743,"Ġà®ľà®¨":4744,"web":4745,"ury":4746,"ĠPrice":4747,"æ¸":4748,"****************":4749,"COM":4750,"Ġà®ļà®®à®£à®°":4751,"à¯ģ......":4752,"Ġ1985":4753,"Pro":4754,"AY":4755,"Ġà®¯à®ļ":4756,"ĠRec":4757,"Ġà®ĩà®®à®¯à®®à®²":4758,"Ġ1986":4759,"Ġ:-))":4760,"la":4761,"Ġà®®à®©à®¨à®²":4762,"ĠĠ":4763,"à®ļà®ªà®Ł":4764,"ĠâĢ¦.":4765,"!\"":4766,"ision":4767,"dis":4768,"ĠInter":4769,"à®ıà®µ":4770,"à¯į?.":4771,"Ġà®ļà®ľ":4772,"Ò»":4773,"Ġentry":4774,"Ġà®®à®±à®ª":4775,"Ġà®ªà®°à®¤à®©":4776,"Ġ900":4777,"igital":4778,"Ġka":4779,"à®Łà®°à®µ":4780,"imes":4781,"roid":4782,"Ġdist":4783,"ĠSal":4784,"Ġà¯į":4785,"Ġà®Ĩà®¤à®°à®µà®±":4786,"Ġ}":4787,"ices":4788,"å¿":4789,"à®²à®ļà®¨":4790,"ĠPort":4791,"ĠGeneral":4792,"Ġà®Ĩà®°à®¤":4793,"à®·à®ªà®®":4794,"ĠEngineer":4795,"reet":4796,"Ġrecip":4797,"ason":4798,"ustom":4799,"Ġà®ķà®©à®ħà®Ł":4800,"ĠÐ²":4801,"ities":4802,"Ġbeaut":4803,"ve":4804,"ump":4805,"Ġ1977":4806,"à®ĩà®°à®Ł":4807,"à®´à®ķà®°":4808,"à¯ģ.//":4809,"à®ķà®ķà®³":4810,"ricket":4811,"à®ĩà®³à®Ļ":4812,"Ġà®©à®°":4813,"ĠChand":4814,"ource":4815,"osp":4816,"Ġ1993":4817,"à®¾à®¾à¯į.":4818,"2004":4819,"à®ªà®¹":4820,"Ġà®¨à®ķà®Ļ":4821,"etail":4822,"aksh":4823,"Ã³":4824,"à®ªà®©à®µà®±":4825,"ĠBlog":4826,"à®®à®¤à®ª":4827,"à¯į,''":4828,"Ġà®ĩà®²à®£":4829,"Ġà®¯à®ķ":4830,"iles":4831,"Ġ!!!":4832,"à®ļà®µà®Ļ":4833,"thir":4834,"Ġtag":4835,"ams":4836,"à¯į*":4837,"Ġso":4838,"à®²à®®à®©":4839,"ature":4840,"çİ":4841,"à®ľà®¯à®²à®Ł":4842,"ys":4843,"Ġà®ļà®ķà®¤":4844,"à®¹à®ª":4845,"Ġdel":4846,"Ġà®īà®²à®ķà®®à®¯à®®":4847,"Ġà®İà®®à®©":4848,"à®ķà®´à®µ":4849,"çļ":4850,"Ð¼":4851,"Ġà®ķà®µà®©à®¯":4852,"CE":4853,"ĠIl":4854,"Ġget":4855,"Ġac":4856,"istory":4857,"ĠÎ":4858,"à®¨à®Łà®°":4859,"thing":4860,"à¯įâĢ¦!":4861,"Ġ101":4862,"bl":4863,"eh":4864,"à®ķà®£à®Ļ":4865,"avi":4866,"Ġà®ļà®°à®³à®®":4867,"å¥":4868,"Ġà®ķà®©à®°":4869,"Ġà®µà®©à®®":4870,"Ġà®ħà®±à®Ļ":4871,"ĠWe":4872,"à¯ĩ!\"":4873,"ands":4874,"à®ĩà®Łà®®":4875,"ilank":4876,"Ġà®µà®²à®¯à®¤":4877,"à®ļà®°à®ķ":4878,"Ġsub":4879,"Wh":4880,"Ġbook":4881,"yn":4882,"à¯į.âĢĻâĢĻ":4883,"rib":4884,"AV":4885,"Ġà®°à®Ł":4886,"formation":4887,"à®ľà®©à®µà®°":4888,"asi":4889,"irth":4890,"ular":4891,"ainet":4892,"Ġyears":4893,"ilankainet":4894,"ĠHe":4895,"unanidhi":4896,"Ùı":4897,"Ġà®ªà®°à®µà®ļà®®":4898,"aug":4899,"à®¨à®²à®¤":4900,"à®ıà®®":4901,"Ñĩ":4902,"à®ļà®ļà®°":4903,"Ġgirl":4904,"Ġann":4905,"Ġà®ħà®®à®°à®µ":4906,"erg":4907,"Ġpar":4908,"ese":4909,"Ġà®īà®Łà®¨":4910,"Ġà®ļà®Łà®²à®Ļ":4911,"Ġà®īà®ªà®ķ":4912,"Ġfr":4913,"æīĭ":4914,"Ġà®¯à®Ł":4915,"Ġ144":4916,"Ġtrans":4917,"post":4918,"à®³à®¤à®®":4919,"ati":4920,"cience":4921,"ayan":4922,"à¯į|":4923,"à®¤à®¤à®²":4924,"Ġà®ıà®ķà®¤":4925,"Ġany":4926,"ena":4927,"à¯ģà¯į":4928,"Ġà®ĩà®¤à®¯à®Ļ":4929,"à®ıà®¯":4930,"à®²à®¤à®²":4931,"Ġà®ªà®¯à®°":4932,"à®°à®¤à®Ļ":4933,"à®£à®±à®²":4934,"à¯į!''":4935,"Ġhigh":4936,"Ġvar":4937,"à®ĩà®¯à®²":4938,"Ġback":4939,"Ġdr":4940,"mi":4941,"uck":4942,"Ġà®ħà®¤à®Ł":4943,"ĠOrig":4944,"à¯§":4945,"ship":4946,"sex":4947,"Â®":4948,"Ġà®·à®ķ":4949,"IP":4950,"por":4951,"Ġà®ªà®¯à®±":4952,"à®µà®®à®±":4953,"Ġà°":4954,"idd":4955,"Ġpolice":4956,"ĠAir":4957,"ongress":4958,"Ġà®ĩà®²à®ŀ":4959,"Ġà®ħà®ļà®¨":4960,"Ġà®ļà®©à®¨":4961,"trl":4962,"ype":4963,"ĠCM":4964,"ĠÑģ":4965,"Ġ4000":4966,"ĠDay":4967,"Ġà®ħà®µà®ļà®°à®ķ":4968,"Ã´":4969,"Ġà®Ĳà®¯à®©":4970,"Ġà®ķà®²à®ķà®®":4971,"à®ķà®´à®ª":4972,"ptions":4973,"à¯Ī''":4974,"auvery":4975,"à¯ĭ:":4976,"ĠCar":4977,"à¶":4978,"à®ļà®²à®¤":4979,"à®ªà®²à®µ":4980,"à®¯à®µà®¤":4981,"à®µà®ķà®©":4982,"Ġà®ħà®ķà®Ļ":4983,"EM":4984,"åĿ":4985,"Ġrem":4986,"à®¤à®Łà®®":4987,"à®ĥà®®":4988,"Raj":4989,"}}":4990,"Ġà®Īà®ª":4991,"ille":4992,"oud":4993,"Ð¾Ð²":4994,"elop":4995,"ATE":4996,"read":4997,"à®¹à®µ":4998,"ĠLocal":4999,"ĠAN":5000,"Ġmay":5001,"ountain":5002,"à®ķà®²à®Ł":5003,".\"":5004,")-":5005,"eran":5006,"gov":5007,"à®©à®ķà®²":5008,"Ġà®Ĵà®¸":5009,"..!":5010,"à®°à®µà®ª":5011,"à¯ģ,âĢĿ":5012,"nan":5013,"à®²à®±à®¤":5014,"Ġlife":5015,"à®ļà®°à®¸":5016,"de":5017,"à®İà®¤à®±":5018,"à¯į,,":5019,"ĠSun":5020,"ograph":5021,"otes":5022,"Ġà®ļà®®à®°à®µ":5023,"ĠCourt":5024,"OO":5025,"ĠGu":5026,"à¯Ĭà®¿":5027,"à®Łà®®à®®":5028,"à®Īà®Ī":5029,"åĲ":5030,"ikanth":5031,"à¯ģâĢĻ,":5032,"Ġà®µà®³à®µ":5033,"çļĦ":5034,"à®¿âĢĭ":5035,"ĠHTML":5036,"Ġcolle":5037,"ĠHot":5038,"ĠTNPSC":5039,"ÐµÐ½":5040,"©¬":5041,"à®ľà®¨":5042,"Ġknow":5043,"oung":5044,"color":5045,"à¯Ī!!":5046,"Ġà®ļà®®à®·":5047,"ibrary":5048,"à®ķà®³à®°":5049,"ĠDes":5050,"Ġits":5051,"Ġà®¤à®°à®£":5052,"à¯ĭ\"":5053,"150":5054,"hag":5055,"Ġà®®à®£à®®à®ķ":5056,"andhi":5057,"Ġà®¨à®¯à®®":5058,"Ġ1947":5059,"à®ĵà®ķ":5060,"à®°à®ķà®°":5061,"Ġà®Ĳà®¯à®Ļ":5062,"Ġà®·à®¤":5063,"Ad":5064,"à®±à®£":5065,"Ġà®īà®£à®µà®³":5066,"ĠSiv":5067,"Ġ1971":5068,"Sc":5069,"à¯įà¯Ĩ":5070,"2005":5071,"ĠComp":5072,"Ġà®¯à®¨":5073,"DP":5074,"Ġed":5075,"als":5076,"ours":5077,"Ġà®ªà®°à®®à®ļ":5078,"lywood":5079,"à¯Ĥ-":5080,"Ġwomen":5081,"Ġbr":5082,"athy":5083,"ks":5084,"Ġà®īà®²à®ķà®Ļ":5085,"Ġà®Ĩà®£à®µà®®":5086,"1990":5087,"comm":5088,"amily":5089,"era":5090,"Ġà®ªà®Łà®²à®®":5091,"Ġà®ªà®©à®Ļ":5092,"ENT":5093,"Ġà®¸à®°":5094,"Ġà®ħà®³à®µà®±":5095,"illage":5096,"Ġà®Ĩà®ķà®Ł":5097,"ithi":5098,"Ø³":5099,"å°":5100,"Ġà®ıà®µà®²":5101,"elp":5102,"ĠTEACHER":5103,"ĠHow":5104,"Ġà®ªà®¯à®©à®±":5105,"Ġcent":5106,"Ġ1982":5107,"Ġà®ªà®¯à®©à®³":5108,"ĠMumbai":5109,"Ġà®Ĩà®³à®ª":5110,"Ġ450":5111,"ification":5112,"IG":5113,"Ġà®ªà®ľà®©":5114,"alam":5115,"ĠHall":5116,"ja":5117,"ĠAtt":5118,"ras":5119,"ility":5120,"Ġwebsite":5121,"Ġà®ıà®³à®©à®®":5122,"à®Ĳà®¸":5123,"Ġ1981":5124,"lon":5125,"Ġà®Ĵà®®":5126,"à®İà®µà®°":5127,"à®°à®µà®¸":5128,"Ġcond":5129,"Ġà®ħà®µà®²à®¤":5130,"ĠGovernment":5131,"Online":5132,"rilanka":5133,"ĠIslamic":5134,"Ġdec":5135,"à®ĩà®²à®µ":5136,"Ġvery":5137,"à®¾âĢ¦.":5138,"Ġà®īà®£à®°à®²":5139,"ATION":5140,"ym":5141,"Ġà®¨à®ķà®°à®ª":5142,"ĠFree":5143,"vir":5144,"than":5145,"700":5146,"à®¤à®°à®ķà®®":5147,"ĠTeach":5148,"ĠAD":5149,"Ġà®īà®²à®ķà®ļ":5150,"ĠIT":5151,"à®Ĩà®Ĩà®Ĩà®Ĩ":5152,"ĠAccount":5153,"à®®à®©à®ļ":5154,"Ġstories":5155,"ĠSm":5156,"à¯į...'":5157,"arkar":5158,"ĠOriginal":5159,"à®´à®µà®°":5160,"App":5161,"Ġà®®à®±à®µ":5162,"Ġ1948":5163,"anguage":5164,"Ġtra":5165,"à±į":5166,"ful":5167,"à®±à®®à®±":5168,"inikanth":5169,"uman":5170,"à®¨à®ķà®°à®ļà®ª":5171,"Ġwhen":5172,"News":5173,"à¯ģâĢĵ":5174,"Ġà®¸à®¤":5175,"uthor":5176,"aby":5177,"Ġchild":5178,"annel":5179,"Leave":5180,"Ġkar":5181,"akesari":5182,"my":5183,"Ġ_":5184,"ĠAh":5185,"ĠSongs":5186,"2001":5187,"Ġprotest":5188,"Ġcar":5189,"itical":5190,"Ġlead":5191,"à®īà®Łà®©à®Ł":5192,"?âĢĻ":5193,"ĠSon":5194,"à®Ĵà®±":5195,"Ġshe":5196,"Ð´":5197,"à®¯à®®à®©à®Ļ":5198,"Ġà®ªà®°à®²":5199,"aster":5200,"oard":5201,"Ġcourt":5202,"EO":5203,"à·":5204,"owers":5205,"à¯į=":5206,"à®ªà®°à®¨":5207,"aks":5208,"Ġà®¹à®ļà®©":5209,"ĠGold":5210,"Ġà®Ĩà®ļà®©à®¤":5211,"ety":5212,"ĠModi":5213,"ĠSooriyan":5214,"ĠHome":5215,"Ġà®µà®³à®°à®µ":5216,"ĠNational":5217,"cept":5218,"Ġà®¤à®³à®ª":5219,"à®²à®¤à®©à®¤":5220,"itha":5221,"ĠMur":5222,"Ġà®ªà®Łà®²":5223,"ĠInternational":5224,"Ġhere":5225,"à®īà®²à®ķà®ķ":5226,"Ġà®ªà®²à®¸":5227,"à¥¤":5228,"Ġà®ľà®Ļ":5229,"Un":5230,"à®ļà®°à®µà®£à®©":5231,"Ø¨":5232,"angalore":5233,"uz":5234,"à¯į+":5235,"à¯į.-":5236,"à®¨à®Łà®µà®Ł":5237,"Ġà®ķà®®à®²à®¹":5238,"Ã£":5239,"uram":5240,"à®µà®¤à®²":5241,"Ġ1972":5242,"Ġweek":5243,"Ġ:(":5244,"à®µà®¤à®°":5245,"Ġà®ļà®®à®¯à®ª":5246,"Ġsome":5247,"à®¯à®ļà®°":5248,"Ġcount":5249,"à®¯à®ķà®²":5250,"itiz":5251,"ĠBest":5252,"à®µà®¤à®®":5253,"ĠTra":5254,"ĠâĤ":5255,"Ġupd":5256,"Ġà®ļà®¤à®¤":5257,"ĠSchool":5258,"Ġà®ħà®°à®ļà®µ":5259,"Ġà®ªà®´à®ļà®ķ":5260,"à®®à®²à®¤":5261,"ĠTechn":5262,"ĠPres":5263,"Ġsong":5264,"chi":5265,"ourn":5266,"akh":5267,"à®°à®£à®ķ":5268,"à¯Ī..!":5269,"ĠðŁĻ":5270,"Ġline":5271,"à®¤à®µà®²":5272,"Ġdoes":5273,"igar":5274,"ho":5275,"Ġ2500":5276,"Ġred":5277,"å·":5278,"ooth":5279,"TC":5280,"à®Łà®¤à®Ł":5281,"ports":5282,"itchen":5283,"Â¤":5284,"Ġstart":5285,"Ġà®ķà®°à®ª":5286,"à®³à®°à®µ":5287,"ĠOF":5288,"back":5289,"ĠTEACHERS":5290,"Ġà®ķà®°à®ķ":5291,"ense":5292,"Cl":5293,"UM":5294,"ror":5295,"Ġ........":5296,"à®¨à®²à®©":5297,"Ġwithout":5298,"ospital":5299,"AB":5300,"à®©à®²à®®":5301,"ternet":5302,"yric":5303,"à®©à®³":5304,"Ġà®ĵà®´":5305,"Ġ.,":5306,"...\"":5307,"unction":5308,"à¤°":5309,"Ġ1978":5310,"Ãµ":5311,"Ġ</":5312,"ĠAI":5313,"Ġcooking":5314,"à¯ģ?âĢĻ":5315,"ĠFrid":5316,"Ġà®ħà®¹à®®à®¤":5317,"ĠPage":5318,"à®¯à®¨à®²à®¤":5319,"Ġreg":5320,"Ġà®ħà®ķà®¸":5321,"pa":5322,"sc":5323,"ĠWeb":5324,"ffect":5325,"PM":5326,"à®ķà®°à®¨":5327,"Ġ1200":5328,"ĠBy":5329,"estival":5330,"Ġà®µà®²à®ķ":5331,"Ġà®¤à®ļà®°":5332,"cess":5333,"Ġà®Ĩà®ķà®£":5334,"eli":5335,"ever":5336,"ãĢģ":5337,"à®ķà®®à®©":5338,"Ġà®°à®ķà®Ļ":5339,"Ġà®ªà®²à®µà®¨":5340,"ract":5341,"yc":5342,"Ġà®ħà®´à®ķà®°":5343,"à®µà®ļà®Ļ":5344,"editions":5345,"river":5346,"à®¿!!":5347,"amm":5348,"ĠâĢİ":5349,"Ġà®¤à®°à®Ļ":5350,"Ġà®ĩà®³à®ķ":5351,"Ġà®īà®£à®µà®°":5352,"Ġthere":5353,"Ġà®ªà®²à®©à®³":5354,"à¯į.*":5355,"ĠWhat":5356,"à®ĩà®µà®³":5357,"Ġà®ķà®©à®ķà®°":5358,"âĢĭâĢĭ":5359,"Ġnear":5360,"à®©à®µà®Ļ":5361,"Ġhero":5362,"ĠAut":5363,"Ġà®ľà®µà®¹à®°":5364,"à¯ĨâĢĮ":5365,"Ñħ":5366,"ettings":5367,"ior":5368,"derabad":5369,"Ġ128":5370,"Ġ??":5371,"ĠVirakesari":5372,"Ġà®¤à®©à®ŀ":5373,"ĠOf":5374,"ĠTrans":5375,"KS":5376,"à®µà®¯à®²":5377,"vers":5378,"ocum":5379,"elect":5380,"Ġonly":5381,"Ġactress":5382,"nes":5383,"Ġà®ļà®²à®©à®®":5384,"Ġissue":5385,"',":5386,"å½©ç¥":5387,"Ġà®ªà®Łà®ªà®Łà®ª":5388,"à®ħà®³":5389,"Ġà®µà®³à®ª":5390,"Ġgreat":5391,"à®¹à®¸":5392,"à®Łà®©à®µ":5393,"Ġ1967":5394,"duct":5395,"iber":5396,"à®ķà®©à®ª":5397,"ude":5398,"Ġexam":5399,"Ġà®®à®ĥ":5400,"Ġwhich":5401,"Ġ1956":5402,"ke":5403,"Ġopen":5404,"à®ĩà®³à®µà®°":5405,"%,":5406,"Ġà®Ĳà®Ĳà®Ł":5407,"à®ıà®İà®¸":5408,"Ġà®ļà®¯à®©":5409,"ĠKerala":5410,"gn":5411,"à®©à®¤à®©":5412,"à®Łà®®à®Ł":5413,"Ġ360":5414,"ĠPark":5415,"rive":5416,"å¼":5417,"Ġà®ĩà®Łà®ķ":5418,"à¯ĩâĢĮ":5419,"Ä±":5420,"Ġindia":5421,"Ġà®ĩà®µà®©à®¤":5422,"à®°à®´à®ķ":5423,"ĠBJP":5424,"äºº":5425,"eeds":5426,"Ġà®Ĩà®©à®µà®°":5427,"word":5428,"undai":5429,"ven":5430,"Ġpic":5431,"à®ĵà®ĵ":5432,"illion":5433,"clus":5434,"à®¿à¯Ī":5435,"ional":5436,"Ġdev":5437,"ĠVis":5438,"oftw":5439,"àµ":5440,"à¯į--":5441,"lear":5442,"à¯ĩ!!":5443,"ird":5444,"à¯ģâĢĿ.":5445,"à¯į...âĢĿ":5446,"ĠName":5447,"ĠÂ½":5448,"æ¸¯":5449,"Ġmed":5450,"to":5451,"à¯ģ..?":5452,"ĠTAMIL":5453,"Ġà®İà®©à®ªà®¤":5454,"ster":5455,"à®¿..!":5456,"Ġà®Īà®°à®¤":5457,"ĠList":5458,"à®Ĭà®Ĭ":5459,"ĠAnn":5460,"à®¯à®ļà®®":5461,"Ġ750":5462,"unity":5463,"abels":5464,"æĬ":5465,"Ġfound":5466,"ustral":5467,"UP":5468,"ĠContent":5469,"à®ıà®ļ":5470,"ĠÐ½":5471,"¦Ļ":5472,"Vijay":5473,"ears":5474,"à®ķà®³à®ŀ":5475,"..?":5476,"à¯Ģ!":5477,"Ġet":5478,"à¯ª":5479,"à®°à®µà®£à®ķ":5480,"INE":5481,":-":5482,"ĠSE":5483,"å¹":5484,"Ġkamakathaikal":5485,"à®¾?''":5486,"display":5487,"à®ķà®·":5488,"ĠBangalore":5489,"ä¸Ģ":5490,"à®©à®³à®µ":5491,"Ġà®ħà®¤à®©à®Ł":5492,"iful":5493,"istan":5494,"Ġpass":5495,"Ġà®ıà®ķà®®":5496,"à¯į!.":5497,"Ġ1975":5498,"Ġother":5499,"indu":5500,"à®ªà®ľà®©":5501,"Ġà®ĩà®ĥà®¤":5502,"enu":5503,"à®ľà®¯à®°":5504,"ĠLeave":5505,"ĠHealth":5506,"ll":5507,"à®ķà®²à®°":5508,"Ġschool":5509,"Ġbut":5510,"à®Īà®¸":5511,"Ġrecipes":5512,"ä¼":5513,"ĠPolice":5514,"Ġteam":5515,"Net":5516,"à®¨à®¯à®©":5517,"bal":5518,"Pl":5519,"Ġà®µà®¯à®ª":5520,"å½©ç¥¨":5521,"etwork":5522,"Ġdem":5523,"à¯ģâĢ¦âĢĿ":5524,"ees":5525,"à®¯à®ľ":5526,"atic":5527,"Ġchennai":5528,"Ġà®Ĩà®µà®¤à®±":5529,"Te":5530,"Ġà®Ĩà®²à®Ļ":5531,"Ġà®¤à®µà®°":5532,"Ġsur":5533,"Ġgood":5534,"Ġà®ķà®£à®£":5535,"Ġ104":5536,"Ġname":5537,"ðŁĳ":5538,"à®¤à®Łà®Ļ":5539,"à®Łà®¤à®²":5540,"anniOnline":5541,"ĠCor":5542,"Ã¶":5543,"Ed":5544,"à®¿à®¾à®¿":5545,"à¯į.......":5546,"rop":5547,"SP":5548,"ones":5549,"Ġwhat":5550,"ae":5551,"ination":5552,"cription":5553,"Ġche":5554,"ĠChrist":5555,"by":5556,"ding":5557,"à®£à®µà®¤":5558,"TS":5559,"Ġà®ļà®ķà®µ":5560,"Ġà®ªà®¤à®ŀ":5561,"status":5562,"Ġmus":5563,"ĠDMK":5564,"ĠForm":5565,"olution":5566,"Ã¤Ã¤":5567,"à®²à®ķà®©":5568,"ene":5569,"Ġlove":5570,"Ġà®ħà®Łà®Ł":5571,"style":5572,"à¯ģ.,":5573,"à®ķà®µà®¨":5574,"à®ķà®°à®ķ":5575,"ament":5576,"Ġmountain":5577,"ï¿½ï¿½ï¿½ï¿½ï¿½ï¿½ï¿½ï¿½":5578,"Ġsl":5579,"ĠDigital":5580,"Ġà®ħà®ķà®²à®¤":5581,"à®²à®Łà®ķ":5582,"à®¤à®±à®¤":5583,"Ġco":5584,"Ġcons":5585,"Ġhapp":5586,"à®Łà®ªà®Ļ":5587,"agam":5588,"à®Łà®Īà®Ł":5589,"Ġà®İà®©à®°":5590,"Ġap":5591,"empl":5592,"ĠDinamalar":5593,"ĠKathai":5594,"kata":5595,"ĠÐ¸":5596,"à®¤à®ķà®ļ":5597,"iter":5598,"à®¿).":5599,"td":5600,"erc":5601,"agement":5602,"LE":5603,"250":5604,"à®¤à®°à®ķà®°":5605,"ĠAc":5606,"Ġav":5607,"ĠRed":5608,"Ġà®¯à®ª":5609,"Ġà®Īà®·":5610,"390":5611,"ĠUniversity":5612,"Ġà®¤à®Łà®¤":5613,"Â½":5614,"à®ļà®®à®®":5615,"Ġà®ħà®²à®ļà®²":5616,"Ġ->":5617,"Ġà®ļà®°à®£à®®":5618,"amiz":5619,"ĠKamal":5620,"ĠHyderabad":5621,"Ġà®īà®ªà®µ":5622,"Ġthose":5623,"ela":5624,"Ġhim":5625,"rah":5626,"à®¾âĢĻ,":5627,"ĠSystem":5628,"ĠAR":5629,"à®ķà®¹":5630,"ĠMag":5631,"ĠRich":5632,"Ġà®ļà®°à®µà®£":5633,"à®²à®±à®®":5634,"Ġ105":5635,"ĠOffice":5636,"à®Łà®ķà®ª":5637,"Ġà®°à®®à®²":5638,"à¯ģà¯Ī":5639,"à®ªà®µà®ª":5640,"ĠMLA":5641,"Tr":5642,"Ġà®ªà®ķà®°":5643,"ĠKathiravan":5644,"oftware":5645,"))))":5646,"Ġ\\":5647,"Ġ1979":5648,"hp":5649,"à®ĥà®ĥ":5650,"2002":5651,"Tube":5652,"à®ļà®¤à®®":5653,"Ġà®ĩà®¯à®°":5654,"Ġà®®à®°à®£à®¤à®£":5655,"à®ķà®ļà®®":5656,"à®Łà®°à®Ļ":5657,"ĠKitchen":5658,"the":5659,"Ġthan":5660,"Ġà®ªà®¯à®£à®ķ":5661,"user":5662,"ĠService":5663,"ton":5664,"à®¯à®µà®´":5665,"âĢ¦âĢĿ":5666,"ĠSch":5667,"à®ªà®¯à®°":5668,"à®ªà®°à®¸":5669,"Ġinc":5670,"##":5671,"ĠMarket":5672,"ific":5673,"à®ķà®µà®¤à®°":5674,"mark":5675,"à®°à®³à®µ":5676,"à®°à®¤à®ķ":5677,"urity":5678,"---":5679,"Ġclass":5680,"Ġtemple":5681,"ĠWed":5682,"ategory":5683,"Ġà®ĵà®©à®°":5684,"Ġthr":5685,"Ġà®®à®²à®ķ":5686,"à®£à®µà®®":5687,"Ġà®īà®µà®ķ":5688,"à®ķà®ļà®Ļ":5689,"Ġà®°à®ķà®³":5690,"Ġpo":5691,"Bigg":5692,"Ġà®ļà®µà®°à®©":5693,"Ġà®®à®©à®¨à®²à®®":5694,"à®¾/":5695,"à®¨à®¯":5696,"ists":5697,"Chennai":5698,"à®³à®µà®±":5699,"ovt":5700,"ollow":5701,"Ġà®ķà®¯à®²":5702,"Ġà®ĵà®ķà®¸":5703,"Ġ1920":5704,"Ġnakk":5705,"à®¯à®µà®ŀ":5706,"pons":5707,"Ġjust":5708,"inews":5709,"alle":5710,"Ġwoman":5711,"par":5712,"Ġold":5713,"à®°à®ķà®ª":5714,"à®¸à®µ":5715,"ĠLive":5716,"ĠMB":5717,"itizen":5718,"ĠJai":5719,"ĠProf":5720,"à®ķà®ªà®²à®®":5721,"UTC":5722,"Ġmonth":5723,"à®¾?!":5724,"Ġà®ķà®´à®©":5725,"ino":5726,"eylon":5727,"heeran":5728,"ĠSouth":5729,"ĠHead":5730,"à®ªà®ķà®±":5731,"à¯į,.":5732,"âĢĮâĢĮ":5733,"Ġà®®à®²à®Ł":5734,"Ġel":5735,"Ġend":5736,"Ġà®ķà®²à®®":5737,"soft":5738,"ĠHD":5739,"¦Ļæ¸¯":5740,"Ġ6000":5741,"ãģ®":5742,"ĠSamayam":5743,"set":5744,"Ġ|--":5745,"Ġmany":5746,"ðŁĺĤ":5747,"ĠOptions":5748,"Ġraj":5749,"uri":5750,"anch":5751,"ĠWith":5752,"à¯į||":5753,"à®ªà®°à®ķ":5754,"à¯į...?":5755,"Ġà®¤à®ķà®µà®²à®±":5756,"Ġà¯ª":5757,"ĠDoctor":5758,"SC":5759,"ĠTop":5760,"Ġ=>":5761,"bar":5762,"à®¤à®°à®£à®®":5763,"à®®à®ľ":5764,"avel":5765,"à®Łà®ķà®©":5766,"ĠEm":5767,"ĠCanada":5768,"Ġtagged":5769,"à®ªà®Łà®Ł":5770,"Ġ1976":5771,"Ġà®µà®¤à®®":5772,"ĠII":5773,"Ġà®ľà®¯":5774,"atform":5775,"ĠPri":5776,"ĠMe":5777,"ures":5778,"ĠðŁĻĤ":5779,"Ġà®Ĩà®°à®£":5780,"mar":5781,"ĠKolkata":5782,"à¯ģ]":5783,"ĠAhmed":5784,"ule":5785,"à¯ģ_":5786,"à®ħà®°à®µ":5787,"Ġsk":5788,"ĠFriend":5789,"udio":5790,"Mar":5791,"ĠâĢľâĢĿ":5792,"OC":5793,"Ġà®¨à®®à®ļ":5794,"ause":5795,"ipp":5796,"à®Łà®°à®°":5797,"à¯į:)":5798,"rd":5799,"Ġ).":5800,"orry":5801,"Ġlong":5802,"à®¾?...":5803,"Ġà®īà®²à®ķà®¨":5804,"aste":5805,"à®²à®°à®¤":5806,"ĠDh":5807,"ŀäº":5808,"Ġà®ķà®°à®¨":5809,"Ġattack":5810,"Ġ1930":5811,"anda":5812,"Ġà®¤à®ķà®µ":5813,"à®Łà®®à®³":5814,"à®µà®²à®Ļ":5815,"Ah":5816,"Ġ(+":5817,"ÐµÑĢ":5818,"à®Łà®®à®°":5819,"à®ľà®Ļ":5820,"arge":5821,"ĠStreet":5822,"ince":5823,"Ġvir":5824,"à®¹à®ľ":5825,"Ġinto":5826,"à®ªà®ķà®Ł":5827,"ĠVall":5828,"ling":5829,"TI":5830,"à®·à®£à®®":5831,"=\"":5832,"ng":5833,"Ġà®ħà®®à®³":5834,"Ġperson":5835,"Ġà®ķà®µà®©à®ķ":5836,"Ġé¦Ļæ¸¯":5837,"åĿĽ":5838,"ĠBL":5839,"gan":5840,"à®®à®Łà®®":5841,"ĠUN":5842,"Ġpres":5843,"Ġå¤©":5844,"Ġà®ªà®¯à®£à®ļ":5845,"iyar":5846,")]":5847,"pos":5848,"wp":5849,"Ġsee":5850,"2003":5851,"Ġà®Īà®£":5852,"ream":5853,"ĠBr":5854,"Ġà®ķà®¤à®°":5855,"à®ļà®©à®ķ":5856,"à¯ĪâĢĻ,":5857,"SL":5858,"Ġcomments":5859,"ĠÙĪ":5860,"à®©à®®à®Ł":5861,"eech":5862,"à¯ģâĢį":5863,"à¯Ī]":5864,"Ġà®ªà®°à®ŀ":5865,"à¯ģâĢĭ":5866,"ĠCeylon":5867,"à¹":5868,"à®²à®ķà®ª":5869,"Ġserv":5870,"ids":5871,"à®²à®ķà®µ":5872,"ĠViews":5873,"ĠHouse":5874,"Ġform":5875,"à®¤à®Łà®¤":5876,"ĠSP":5877,"ross":5878,"views":5879,"áº":5880,"à¯Ī.\"":5881,"èµ":5882,"Ġprice":5883,"Ġà®İà®µà®±":5884,"omb":5885,"Ġà®ħà®µà®¨à®®":5886,"à®Ĵà®¯":5887,"Ð¿":5888,"ĠJun":5889,"ask":5890,"à®²à®¤à®©":5891,"à®°à®ļà®ª":5892,"ĠPune":5893,"Ġkilled":5894,"ĠRah":5895,"à®īà®¤à®¯à®ķ":5896,"åį":5897,"à®Łà®°à®Ł":5898,"Ġà®¤à®Łà®ķà®³":5899,"ĠÃĹ":5900,"ĠNE":5901,"ĠPa":5902,"à®¤à®±à®²":5903,"à®ķà®®à®Ļ":5904,"à®İà®¯":5905,"Ġbeen":5906,"Ġà®ķà®©à®°à®ķ":5907,"ï»¿ï»¿":5908,"content":5909,"Ùĳ":5910,"à¤¤":5911,"clusive":5912,"à®²à®Łà®Ļ":5913,"Ġdeath":5914,"è®º":5915,"Ġnakkheeran":5916,"Views":5917,"mm":5918,"åº":5919,"Ġà®¸à®ķ":5920,"ero":5921,"à®ķà®£à®µà®°":5922,"ved":5923,"Ġà®Ĳà®Ļ":5924,"ĠUK":5925,"Ġ1974":5926,"Ġà®¯à®°":5927,"Ġà®Ĩà®©à®ª":5928,"ered":5929,"à®µà®ķà®ª":5930,"Ġà®ľà®ķà®¤":5931,"à®ħà®Łà®Ł":5932,"à®¾!\"":5933,"Ġà®¯à®®à®©":5934,"Ġbank":5935,"Ġlatest":5936,"Ġvs":5937,"à¯į>":5938,"Ġà®Łà®Ļ":5939,"Ġà®¯à®Ļ":5940,"kathiravan":5941,"Ġà®Ĳà®ıà®İà®¸":5942,"elcome":5943,"à²":5944,"à®³à®¤à®©":5945,"Ġà®ķà®°à®µ":5946,"'t":5947,"Ġà®Ĩà®³à®µ":5948,"Ġà®®à®©à®ħà®´":5949,"à®®à®¤à®Ļ":5950,"Ġà®®à®©à®¸":5951,"Ġà®¹à®Ļ":5952,"ĠMobile":5953,"Ġhow":5954,"Ġhouse":5955,"à®¾?,":5956,"Ġwar":5957,"ç»":5958,"Ġà®Ĩà®ĥà®ªà®°":5959,"Ġï":5960,"Ġà®ľà®²à®¤":5961,"Ġà®Ĩà®µà®©":5962,"ĠÐ¾":5963,"ĠTest":5964,"ĠCurrent":5965,"ified":5966,"Boss":5967,"à®Łà®¤à®ķ":5968,"ĠSk":5969,"æ°":5970,"à®¯à®ĩà®©":5971,"Ġviews":5972,"CM":5973,"Ġà®Ĭà®µ":5974,"ĠReg":5975,"à®¿',":5976,"Ð°Ð½":5977,"à®¾!âĢĿ":5978,"uesday":5979,"ĠMal":5980,"Ġadd":5981,"à®Ĭà®´":5982,"à®ħà®¹":5983,"ches":5984,"ĠBedrooms":5985,"à®ķà®°à®µà®£":5986,"Ġà®ķà®£à®µ":5987,"Ġà®ļà®°à®³":5988,"raining":5989,"Vikatan":5990,"à®¾!!":5991,"à®¯à®ļà®ª":5992,"à®°à®µà®Ļ":5993,"Ġsaid":5994,"Ġwere":5995,"Ġmin":5996,"à®¤à®±à®Ł":5997,"ole":5998,"plet":5999,"pect":6000,"Ġà®ĩà®³à®µà®¯à®¤":6001,"ĠOpen":6002,"________________":6003,"nesday":6004,"opyright":6005,"à¯ģ...!":6006,"Ġlist":6007,"odel":6008,"***":6009,"icrosoft":6010,"Ġà®®à®®à®¤":6011,"Ġà®®à®£à®±":6012,"SE":6013,"...]":6014,"Ġmur":6015,"Ġmov":6016,"ĠFM":6017,"åĪ":6018,"adurai":6019,"Ġ;)":6020,"à¦":6021,"à®¯à®µà®Ļ":6022,"ĠWater":6023,"à®¤à®®à®ķ":6024,"Ġà®Ĳà®İà®¸":6025,"ĠMa":6026,"à®ıà®£":6027,"Ġsweet":6028,"Ġà®¿":6029,"à¯Ģ)":6030,"à®ħà®°à®ª":6031,"plication":6032,"ĠPower":6033,"ĠDep":6034,"Nov":6035,"Ġ1969":6036,"kk":6037,"ĠLife":6038,"ursday":6039,"igal":6040,"à®£à®¯à®ķ":6041,"âĢĿ,":6042,"emes":6043,"Ġà®µà®Łà®¤":6044,"Ġà®®à®±à®µà®°":6045,"à¯į.]":6046,"à®Ĳà®®":6047,"à¯įâĢ¦âĢ¦":6048,"icles":6049,"à®ªà®°à®²":6050,"ayalal":6051,"è¯":6052,"Ġ1965":6053,"Ġà®ķà®µà®°à®ª":6054,"igarh":6055,"watch":6056,"à®ħà®µà®ļ":6057,"Am":6058,"Ġ×":6059,"Ġperm":6060,"upload":6061,"achine":6062,"Ele":6063,"à®ħà®·":6064,"Ġà®ªà®°à®Ļ":6065,"120":6066,"ality":6067,"atore":6068,"Ġà®³à®¤":6069,"Ġactor":6070,"à®ªà®¯à®²":6071,"Ġà®®à®²à®ª":6072,"ĠThiruv":6073,"à®°à®¤à®ļ":6074,"1980":6075,"ĠWhats":6076,"ãĢĤ":6077,"stitute":6078,"yrics":6079,"à®ħà®±à®®":6080,"unty":6081,"Ġinterest":6082,"tam":6083,"Ġeng":6084,"ger":6085,"à¯ĩâĢ¦.":6086,"ĠNEWS":6087,"UL":6088,"Ġà®Ĵà®³à®µ":6089,"less":6090,"eter":6091,"jith":6092,"ĠNa":6093,"irect":6094,"elopment":6095,"ii":6096,"ĠJaipur":6097,"Ġà®ħà®²à®±à®²":6098,"Ġhealth":6099,"anthan":6100,"Ġdif":6101,"ĠFull":6102,"Ġà®ªà®ļà®²":6103,"à®ľà®ķà®®":6104,"à®®à®¯à®ķ":6105,"ĠAt":6106,"ĠNCR":6107,"ĠLa":6108,"Ġà®ļà®°à®ļ":6109,"ĠPDF":6110,"pm":6111,"Ġdep":6112,"ĠTAMU":6113,"Ġà®ļà®¤à®Ļ":6114,"inc":6115,"elebr":6116,"Ġeven":6117,"ĠPortal":6118,"ĠAhmedabad":6119,"ĠSrilanka":6120,"Ġposted":6121,"ĠDist":6122,"à®°à®·à®°":6123,"Ġà®ķà®ĥà®ª":6124,"TER":6125,"udd":6126,"åľ":6127,"à¯ģ!!!":6128,"etails":6129,"XX":6130,"é©¬":6131,"à®®à®°à®£":6132,"unt":6133,"Fl":6134,"à®®à®ķà®°à®®":6135,"obs":6136,"Ġà®ªà®°à®µà®ļà®¤":6137,"à®Łà®¯à®ª":6138,"à®¯à®©à®¤":6139,"Ġbeautiful":6140,"à®¤à®¯à®Ļ":6141,"Ġà®¨à®¯à®µà®ŀ":6142,"ĠCare":6143,"ĠMost":6144,"Ġreview":6145,"Ġ170":6146,"à®Ĵà®ķ":6147,"ĠGod":6148,"ĠChandigarh":6149,"1996":6150,"atte":6151,"ï¼Į":6152,"âĢĻ.":6153,"ison":6154,"à®ĵà®ļ":6155,"à®ķà®Łà®ķà®®":6156,"à®¾.,":6157,"Ġbre":6158,"à®ªà®ľ":6159,"à®°à®£à®°":6160,"hits":6161,"top":6162,"imbatore":6163,"oice":6164,"ration":6165,"Ġcinema":6166,"Ġà®īà®ªà®ļ":6167,"à®¯à®©à®Ļ":6168,"Ð¾ÑĢ":6169,"Ġà®µà®°à®Ļ":6170,"ĠSo":6171,"ĠBuy":6172,"udh":6173,"ADMK":6174,"ĠPhotos":6175,"ĠTwitter":6176,"à®¯à®²à®£":6177,"avy":6178,"Ø¹":6179,"iri":6180,"ĠAustral":6181,"à®īà®Łà®®":6182,"Ġà®µà®Łà®®à®°":6183,"à®°à®ķà®²":6184,"alanis":6185,"arthik":6186,"âĢĿ.":6187,"aly":6188,"reme":6189,"Ġyoung":6190,"ĠGroup":6191,"aves":6192,"à®°à®µà®²":6193,"Ġà®°à®ĥà®ª":6194,"Ġflowers":6195,"Î±":6196,"igation":6197,"Ġà®®à®²à®¤":6198,"à¯į??":6199,"à®²à®µà®°à®¤":6200,"à®Ĵà®£":6201,"à¯į..\"":6202,"icer":6203,"eme":6204,"akumar":6205,"1991":6206,"Ġ1968":6207,"Ġà®Ĩà®¤à®®":6208,"icide":6209,"à®°à®ķà®µ":6210,"Ġà®¤à®Łà®¯à®Ļ":6211,"à¯ĩ..!":6212,"Ġimport":6213,"ĠDi":6214,"ĠWindows":6215,"uploads":6216,"à®¯à®®à®³":6217,"Ġdef":6218,"Ġthem":6219,"images":6220,"ĠKumar":6221,"ĠHar":6222,"âĸ":6223,"Ġnadan":6224,"hai":6225,"ĠCitizen":6226,"Ġhome":6227,"Ġà®ħà®Łà®²":6228,"(\"":6229,"à®ļà®ļà®ª":6230,"à®µà®°à®£":6231,"à®ªà®°à®£":6232,"à¯ģ?'":6233,"à¯ģ...\"":6234,"Ġ1962":6235,"richy":6236,"acy":6237,"ĠÙħ":6238,"Ġ000":6239,"atter":6240,"Ġà®ħà®±à®µà®´":6241,"à®¿âĢĻ.":6242,"Ġà®®à®©à®®à®ķ":6243,"ĠSl":6244,"à¯ģ',":6245,"ä¸ī":6246,"ĠSpecial":6247,"à®¨à®²à®µ":6248,"ĠCH":6249,"Ġà®İà®®à®°":6250,"ĠRel":6251,"à®ķà®Łà®ª":6252,"ĠCongress":6253,"ites":6254,"Ġà®Ķà®µ":6255,"ĠFriday":6256,"à®¾?)":6257,"let":6258,"à®®à®±à®¨":6259,"à¯ĭà¯į":6260,"à®©à®°à®¤":6261,"Ġà®Ĩà®ķà®ļ":6262,"As":6263,"à®³à®ķà®°":6264,"Ġdi":6265,"ems":6266,"xy":6267,"à®©à®ķà®®":6268,"Ġà®īà®²à®ķà®±":6269,"Im":6270,"Ġ119":6271,"Ġà®²à®®":6272,"Ġà®īà®Łà®²à®®":6273,"Ġgold":6274,"Ġà®īà®³à®°":6275,"âĢĮ.":6276,"\")":6277,"à®ĩà®ŀ":6278,"plements":6279,"Ġfood":6280,"ti":6281,"ware":6282,"Ġà®¨à®ķà®®":6283,"uring":6284,"Ġref":6285,"ĠÃł":6286,"ault":6287,"uru":6288,"Ġ1940":6289,"Ġ{\\":6290,"à®°à®ĥà®ª":6291,"..âĢĿ":6292,"à¯į}.":6293,"Ġwrit":6294,"ries":6295,"1999":6296,"à®¨à®ļ":6297,"Ġ650":6298,"ization":6299,"1987":6300,"Ġstudents":6301,"Ġsal":6302,"ĠKa":6303,"riage":6304,"Ġtwo":6305,"ĠBro":6306,"imag":6307,"ĠâĢĭâĢĭ":6308,"Ġà®ªà®²à®ļ":6309,"Ġà®ĵà®Łà®¤":6310,"athu":6311,"ĠSC":6312,"Ġà®Łà®²":6313,"Ġblog":6314,"ined":6315,"pdf":6316,"ĠRE":6317,"ried":6318,"Ġlanka":6319,"iction":6320,"à®¹à®°à®©":6321,"Ġ1957":6322,"à®²à®´à®ķà®°":6323,"à®ľà®Ł":6324,"ĠWork":6325,"ights":6326,"Ġ),":6327,"ī²":6328,"Ġ(\"":6329,"180":6330,"Ġ103":6331,"à®°à®ªà®²à®®à®Ł":6332,"Ġorder":6333,"Ġà®¨à®²à®ª":6334,"Ġpet":6335,"ĠÐº":6336,"Ġà®Ĩà®ķà®¤":6337,"ĠNA":6338,"ikk":6339,"Ġthrough":6340,"Ġ220":6341,"Ġnanjil":6342,"æĸĻ":6343,"à®ķà®®à®°":6344,"IND":6345,"ugan":6346,"ĠVallalar":6347,"Ġear":6348,"à®ħà®°à®Ļ":6349,"stall":6350,"Ġsing":6351,"ze":6352,"Ġà®®à®ķà®®":6353,"ender":6354,"CT":6355,"Ġcor":6356,"Ġà®µà®Łà®ªà®ķ":6357,"Ġà®ķà®©à®²":6358,"ellaw":6359,"Ġnaanjil":6360,"Ġbody":6361,"rowser":6362,"ĠActor":6363,"ĠÐ´":6364,"Ġright":6365,"Ġà®İà®©à®±":6366,"Ġà®ķà®´à®ķà®ª":6367,"Ġtre":6368,"Ġà®ªà®°à®®à®ķ":6369,"ĠPlatform":6370,"Ġconf":6371,"ĠChild":6372,"Ġ102":6373,"Ġdon":6374,"æĹ":6375,"Ġ115":6376,"Ġlink":6377,"Ġparty":6378,"lex":6379,"ĠAndroid":6380,"ataka":6381,"Ġà®īà®¤à®µà®µ":6382,"ĠNumber":6383,"Ġà®ªà®£à®¯à®®":6384,"ilk":6385,"osc":6386,"Eng":6387,"à¤¿":6388,"MP":6389,"à¯ģ.âĢĻ":6390,"Ġà®Īà®°à®²":6391,"orrow":6392,"ards":6393,"ĠElect":6394,"ait":6395,"scri":6396,"1983":6397,"Ġadmin":6398,"à®¿âĢ¦.":6399,"ĠScience":6400,"Ġtake":6401,"à¯ģâĢĻ.":6402,"à®¹à®Ł":6403,"nadan":6404,"Ġà®®à®©à®°":6405,"ĠTir":6406,"ĠAmer":6407,"Ġdown":6408,"à¯ģâĢĿ,":6409,"stru":6410,"Ġà®¤à®ķà®©à®®":6411,"à®¾..!":6412,"ĪĴ":6413,"à®¿:-":6414,"hys":6415,"Ġinvest":6416,"Ġ112":6417,"Me":6418,"Ġà®ħà®®à®°à®ļ":6419,"Ġ1800":6420,"ankar":6421,"ĠØ¨":6422,"asa":6423,"OP":6424,"ĠStalin":6425,"AND":6426,"mk":6427,"Ġdays":6428,"Ġey":6429,"ĠComputer":6430,"We":6431,"Ġà®¯à®²":6432,"iving":6433,"%)":6434,"uild":6435,"à®īà®ķ":6436,"à®ķà®£à®ªà®¤":6437,"å¤§":6438,"ainment":6439,"text":6440,"Ġà®·à®Ł":6441,"ä½":6442,"à®ªà®Łà®±":6443,"Ġ240":6444,"ĠTHE":6445,"Ġcre":6446,"ulture":6447,"à¯¬":6448,"à®Łà®Łà®ķ":6449,"à®ĥà®ªà®©":6450,"ural":6451,"athan":6452,"Ġà®¤à®°à®®à®±":6453,"ĠMS":6454,"MA":6455,"Ġir":6456,"à¯ĪâĢ¦.":6457,"à®ļà®ªà®¤":6458,"elibrary":6459,"358":6460,"ges":6461,"imagelibrary":6462,"à®¤à®µà®ª":6463,"Ġthought":6464,"lines":6465,"Ġà®ªà®°à®µà®ļ":6466,"nic":6467,"Ġà®ĩà®©à®¨":6468,"Ġà®Ĩà®©à®µ":6469,"ised":6470,"Ġneed":6471,"Ġà®ħà®ķà®°à®®":6472,"Ġ118":6473,"à®®à®ļà®Ļ":6474,"à®¯à®°à®³à®µ":6475,"à®°à®ªà®²à®ª":6476,"ĠClass":6477,"OD":6478,"à®¯à®ķà®Ļ":6479,"Ġà®Īà®¤":6480,"Ġà®īà®¤à®µà®ķ":6481,"NEWS":6482,"à®ķà®µà®©à®®":6483,"Ġlocal":6484,"--------------------------------":6485,"Ġà®ĩà®Łà®µ":6486,"ĠBigg":6487,"à®¿.)":6488,"à®µà®®à®£":6489,"Ġ1945":6490,"Ġ356":6491,"World":6492,"Ġà®¤à®²à®µ":6493,"ĠNagar":6494,"à®ªà®©à®Ļ":6495,"ĠBh":6496,"ohn":6497,"Ġthir":6498,"à®µà®ļà®©à®®":6499,"âĢĺâĢĻ":6500,"ãģĦ":6501,"à®ļà®¯à®ª":6502,"Ġà®ļà®©à®Ļ":6503,"à¯ĤâĢĻ":6504,"..!!":6505,"à®ķà®©à®ķ":6506,"Se":6507,"Ġà®Ĭà®ļà®²":6508,"Ġ>>":6509,"BiggBoss":6510,"EU":6511,"umari":6512,"à®¾.....":6513,"Ġà®īà®¤à®¯à®ļ":6514,"ĠBar":6515,"irthday":6516,"for":6517,"fore":6518,"Ġà®ħà®µà®ª":6519,"enef":6520,"Ġquestion":6521,"1970":6522,"Ġrele":6523,"ĠChannel":6524,",.":6525,"Ġà®¤à®µà®ļ":6526,"akistan":6527,"Ġà®ķà®®à®´":6528,"PC":6529,"à®¤à®¯à®µ":6530,"åĩ":6531,"irm":6532,"ĠWill":6533,"utiv":6534,"à®¾à¯Ī":6535,"Ġ1973":6536,"ÐµÑĤ":6537,"OV":6538,"band":6539,"ĠBoss":6540,"ider":6541,"Ġà®±à®¤":6542,"Ġalso":6543,"à®¹à®®à®Ł":6544,"ĠThursday":6545,"ĠInt":6546,"cent":6547,"Ì³":6548,"ĠTuesday":6549,"ĠPlay":6550,"ĠTele":6551,"Ġstat":6552,"Ġsystem":6553,"ending":6554,"ĠBLOG":6555,"nap":6556,"Ġpower":6557,"à¯ģâĢ¦..":6558,"((":6559,"à®¤à®ªà®¤":6560,"Ġà®ĩà®ļà®ķ":6561,"Ġmoney":6562,"ellawatte":6563,"à®µà®®à®Ł":6564,"ĠNot":6565,"udutiv":6566,"ungudutiv":6567,"à®¤à®°à®²":6568,"itics":6569,"ploy":6570,"Ġå¤©å¤©":6571,"Ð±":6572,"à®ħà®µà®©à®¤":6573,"Ġà®Ĩà®ļà®©à®®":6574,"Ġà®·à®ª":6575,"ĠLink":6576,"Ġà®ħà®®à®°à®©":6577,"à®¾???":6578,"à¯į?!":6579,"Ġ):":6580,"COME":6581,"Ġà®ħà®´à®ķà®©":6582,"ises":6583,"armers":6584,"åŃ":6585,"Ġà®µà®¤à®±":6586,"ĠMet":6587,"à®ĥà®µ":6588,"Ġà®īà®¤à®µà®²":6589,"Ġown":6590,"ĠApartment":6591,"ociation":6592,"Ġà®ħà®´à®µ":6593,"ĠAk":6594,"aturday":6595,"Ġà®ªà®µà®³":6596,"Ġdownload":6597,"Ġnow":6598,"Ġgen":6599,"istant":6600,"à¯ĢâĢĻ":6601,"à®³à®°à®Ļ":6602,"atrim":6603,"Ġminister":6604,"harm":6605,"è®ºåĿĽ":6606,"à®±à®ķà®Ł":6607,"Ġà®ħà®°à®ļà®ķ":6608,"ĠPR":6609,"Ġest":6610,"ĠRaja":6611,"Ġlaunch":6612,"ham":6613,"à¯Ī.)":6614,"à¯ģ.'":6615,"Ġà®ļà®ķà®²à®°":6616,"ĠSonkar":6617,"EE":6618,"à®³à®³":6619,"Ġtalk":6620,"Ġbig":6621,"à®²à®¯à®©":6622,"ills":6623,"ĠRooms":6624,"VD":6625,"Ġà®ļà®©à®µà®°":6626,"Ġà®µà®³à®°à®ķ":6627,"ĠWelcome":6628,"uthu":6629,"Ġà®®à®°à®ķà®¤":6630,"à¯ĪâĢĻâĢĻ":6631,"Ġà®¸à®ª":6632,"ouch":6633,"Ġpm":6634,"å¿ĥ":6635,"à¯ģ.!":6636,"Ġtamilnadu":6637,"Ġcrore":6638,"ĠMadurai":6639,"Ġair":6640,"ground":6641,"displaystyle":6642,"ores":6643,"æĬ¥":6644,"à®ļà®£à®¤":6645,"ĠPeople":6646,"ĠOfficial":6647,"ohan":6648,"uj":6649,"Ġà®ĵà®¹":6650,"cient":6651,"à®ªà®¯à®®":6652,"Ġ107":6653,"upp":6654,"opp":6655,"1998":6656,"Ð¾Ð»":6657,"ĠSuper":6658,"Ġà®Ĩà®´à®ª":6659,"ĠCauvery":6660,"à®®à®Łà®²":6661,"à®µà®ªà®ķ":6662,"Ġà®ªà®°à®ķ":6663,"Ġà®Ĩà®Łà®µ":6664,"ĠPay":6665,"ĠBal":6666,"101":6667,"Ġ('":6668,"Ġ123":6669,"à¯Ģ...":6670,"à¯į,'":6671,"ĠMusic":6672,"Î¿":6673,"à¯į!âĢĻâĢĻ":6674,"Ġà®¨à®Łà®©à®ķ":6675,"Ġ?âĢĿ":6676,"ĠKarunanidhi":6677,"home":6678,"Ġhelp":6679,"RC":6680,"ĠMr":6681,"NE":6682,"Notes":6683,"Ġlive":6684,"ĠExpress":6685,"Ġà®®à®©à®µà®°":6686,"ĠNar":6687,"Ġà®ĩà®²à®µà®ļà®Ļ":6688,"Pr":6689,"WEL":6690,"off":6691,"Ctrl":6692,"Ġà®¸à®¨":6693,"Ġbeh":6694,"Ġà®®à®ķà®°à®¨":6695,"à®´à®ķà®ª":6696,"à¯į,...":6697,"Ġà®Ĩà®£à®µà®¤":6698,"ĠNe":6699,"ĠPosted":6700,"è§":6701,"à®¤à®°à®ļà®©":6702,"Ġà®Ĭà®Łà®²":6703,"Ġdid":6704,"à®ķà®¨à®²":6705,"Ġà®ļà®®à®¯à®ķ":6706,"à®ķà®ļà®ķ":6707,"Ġ113":6708,"phone":6709,"UV":6710,"à®±à®µà®ķ":6711,"æľº":6712,"Ð°ÑĤ":6713,"ATH":6714,"oph":6715,"æ³":6716,"acher":6717,"Ġmag":6718,"ious":6719,"raz":6720,"Ġ1964":6721,"Aug":6722,"Ġà®°à®£à®¤":6723,"à®ĩà®±à®ķ":6724,"thy":6725,"adoss":6726,"?'":6727,"NA":6728,"Ġnext":6729,"sur":6730,"Ġà®¯à®±":6731,"Ġà®¤à®°à®ļ":6732,"à®µà®©à®ķ":6733,"à®Ĥ":6734,"à®°à®£à®µ":6735,"Bl":6736,"Copyright":6737,"ĠNF":6738,"ĠAdd":6739,"rishnan":6740,"Ġà®ķà®²à®©":6741,"Ġà®ĵà®²à®®":6742,"à®ªà®µà®°à®¤":6743,"edy":6744,"emale":6745,"ican":6746,"123":6747,"ases":6748,"avar":6749,"angam":6750,"ĠResearch":6751,"ĠWednesday":6752,"à¯į.?":6753,"æĿ":6754,"vert":6755,"OAD":6756,"ces":6757,"Ġà®¨à®ķà®°à®µ":6758,"Ġfull":6759,".......":6760,"Ġ124":6761,"ĠPur":6762,"Ġpay":6763,"raw":6764,"Ġà®®à®¹à®°":6765,"Ġ365":6766,"ĠDirector":6767,"Ġeleph":6768,"Ġà®ķà®³à®©":6769,"à®ķà®°à®±":6770,"à®¾.?":6771,"Ġmen":6772,"ĠBusiness":6773,"utch":6774,"Ġur":6775,"à®ªà®¤à®°":6776,"New":6777,"Ġà®Ĵà®°à®³à®µ":6778,"Ġmade":6779,"ĠFrom":6780,"ĠCenter":6781,"cat":6782,"âĢĶâĢĶâĢĶâĢĶâĢĶâĢĶâĢĶâĢĶ":6783,"«ĺ":6784,"Ġà®İà®ĥà®ķ":6785,"ĠGandhi":6786,"ĠPhone":6787,"à®ľà®²à®Ł":6788,"Ġdirector":6789,"Ġbro":6790,"box":6791,"Ġevery":6792,"scribe":6793,"WELCOME":6794,"Ġà®ħà®ķà®£":6795,"aga":6796,"Dr":6797,"Ġà®ħà®´à®ķà®ª":6798,"à¯įÂ":6799,"ĠRem":6800,"Ġmatch":6801,"ĠChristian":6802,"Ġhead":6803,"Ġà®ªà®²à®®à®Łà®Ļ":6804,"Ġà®Ĩà®ªà®°à®£à®®":6805,"Indian":6806,"olar":6807,"Ġlo":6808,"Ġà¯§":6809,"Ġrain":6810,"ÑĪ":6811,"Ġà®ļà®ķà®²à®¤":6812,"iance":6813,"à®¿âĢĵ":6814,".........":6815,"à®Łà®°à®ļ":6816,"Ġbus":6817,"à®®à®Łà®¤":6818,"ĠSar":6819,"Ġà®ļà®°à®µà®£à®ª":6820,"Ġspecial":6821,"ography":6822,"à®ļà®®à®¯":6823,"Ġinformation":6824,"à¯į,âĢĻ":6825,"Ġset":6826,"ahoo":6827,"Ġprof":6828,"ĠFOR":6829,"ĠActress":6830,"Ġ1952":6831,"à®ıà®Ł":6832,"avid":6833,"Ġvijay":6834,"ĠINDI":6835,"à®¿_":6836,"ula":6837,"================":6838,"ĠMot":6839,"Ġlakh":6840,"Ġ142":6841,"lobal":6842,"aasan":6843,"ĠInstitute":6844,"quest":6845,"ĠMonday":6846,"CD":6847,"df":6848,"Ú©":6849,"à®´à®ķà®ķ":6850,"Ġfile":6851,"ĠEvent":6852,"ĠÄ":6853,"à®®à®°à®°":6854,"upee":6855,"ences":6856,"ocument":6857,"yp":6858,"Ġext":6859,"Ġà®µà®¤à®Ļ":6860,"Ġà®ħà®©à®¸":6861,"ĠCook":6862,"Ġà®µà®©à®ľ":6863,"Ñĸ":6864,"Ġà®¨à®ķà®¤":6865,"arya":6866,"appadi":6867,"Ġà®µà®Łà®ªà®´à®©":6868,"à®ķà®±à®ª":6869,"ĠStart":6870,"ĠKathaigal":6871,"atrimony":6872,"ĠFin":6873,"ĠKoh":6874,"Ġà®īà®´à®²":6875,"à®¯à®²à®µ":6876,"Ġ1949":6877,"à®ļà®¸à®°":6878,"à®¨à®¯à®®":6879,"à¯į.âĢľ":6880,"Ġà®¹à®¸à®©":6881,"ĠPet":6882,"Ġ109":6883,"inking":6884,"Ġfine":6885,"tntam":6886,"à¯ģ!âĢĻ":6887,"à¯į?''":6888,"ĠDaily":6889,"osit":6890,"Ġview":6891,"æĪ":6892,"Ġ1924":6893,"à¥ĩ":6894,"ĠAdv":6895,"Ġà®°à®²":6896,"125":6897,"Ð¾Ð¼":6898,"ĠTeachers":6899,"à®®à®°à®£à®®":6900,"Ġà®Ĭà®³":6901,"Ġ320":6902,"Ġelection":6903,"Ġ1958":6904,"Ġtips":6905,"endra":6906,"Ġà®ªà®¯à®ªà®ķ":6907,"BE":6908,"Ġhar":6909,"ĠGTN":6910,"bot":6911,"à¯ģ,\"":6912,"outu":6913,"ĠEnter":6914,"108":6915,"Ġ175":6916,"à¯Ī!âĢĿ":6917,"SA":6918,"ĠEl":6919,"Ð¾Ð´":6920,"clud":6921,"Ġmet":6922,"engal":6923,"Ġ122":6924,"ĠLane":6925,"à¯įà¯Īà®¿":6926,"GR":6927,"ald":6928,"osition":6929,"TNPSC":6930,"adem":6931,"akshmi":6932,"à®£à®®à®¯à®®":6933,"à®¤à®¯à®ķ":6934,"Ġà®ļà®®à®¤à®°":6935,"onn":6936,"Ġob":6937,"Ġvid":6938,"sy":6939,"Ġes":6940,"Ġï¿½ï¿½ï¿½":6941,"Ġ1966":6942,"Ġà®Ĵà®©à®ķ":6943,"à®ĩà®´":6944,"ĠPER":6945,"anks":6946,"ten":6947,"à®ªà®³à®ª":6948,"Ġannounc":6949,"à®°à®ķà®ķ":6950,"Ġà®Ĳà®¯à®¤":6951,"onom":6952,"à®°à®ķà®Łà®©à®¤":6953,"Ġbest":6954,"iva":6955,"vel":6956,"110":6957,"à®ļà®°à®©":6958,"à®Łà®µà®Ļ":6959,"Ġmake":6960,"à¯ĭâĢĮ":6961,"Ġà®µà®²à®¯à®ķ":6962,"Ġ106":6963,"var":6964,"à®¤à®®à®³":6965,"ĠCup":6966,"ĠId":6967,"etter":6968,"à®ªà®©à®°à®²":6969,"Ġà®ªà®Łà®²à®¤":6970,"ĠMin":6971,"ollywood":6972,"ĠWomen":6973,"ĠBathrooms":6974,"lean":6975,"Full":6976,"ray":6977,"Ġà®¨à®µà®¤":6978,"à®ªà®ļà®Ļ":6979,"Ġtest":6980,"ĠGo":6981,"Ġ117":6982,"ĠHistory":6983,"990":6984,"ĠID":6985,"bit":6986,"æĺ":6987,"ĠDOW":6988,"oid":6989,"à®İà®µà®©":6990,"Ġ..!":6991,"Ġ1961":6992,"etween":6993,"à®ļà®®à®°":6994,"erry":6995,"à®ľà®¯à®ļ":6996,"à®©à®®à®²":6997,"oods":6998,"Ġà¯¨":6999,"Ġkaanthan":7000,"Ġlook":7001,"oys":7002,"adio":7003,"ball":7004,"ĠFile":7005,"ully":7006,"ells":7007,"ashing":7008,"pert":7009,"à®³à®°à®¤":7010,"à®©à®°à®ŀ":7011,"alap":7012,"ĠTime":7013,"Ġwife":7014,"à¯į):":7015,"à®®à®£à®ļ":7016,"akam":7017,"Ġà®®à®ª":7018,"à®ªà®£à®ķ":7019,"à®¹à®¹":7020,"ĠSMS":7021,"ains":7022,"public":7023,"Ġà®®à®¯à®ª":7024,"à®ľà®ľ":7025,"à®īà®²à®ķà®ª":7026,"Ġroad":7027,"script":7028,"Ġà®¨à®³à®©":7029,"Ġgive":7030,"ĠExam":7031,"date":7032,"à®¾''":7033,"à®³à®¤à®±":7034,"Ġ1917":7035,"Ġmight":7036,"ĠJay":7037,"ĠCommission":7038,"google":7039,"Ġtax":7040,"Ġhot":7041,"Ġuse":7042,"ĠCentre":7043,"wiss":7044,"ÑĨ":7045,"à®ļà®©à®°":7046,"Ġà®ļà®®à®ª":7047,"à®¾à¯ĩ":7048,"à®ļà®±à®¤":7049,"à¯Ģà¥°":7050,"che":7051,"à®ķà®µà®ļà®®":7052,"Ġà®³à®°":7053,"Ġu":7054,"à®¿''":7055,"ĠRev":7056,"à¤¨":7057,"à®²à®®à®£":7058,"à®Ĩà®¤à®²":7059,"Ġmother":7060,"ĠView":7061,"à®ħà®µà®³à®¤":7062,"aja":7063,"Î¹":7064,"à®ļà®²à®Ł":7065,"Ġcricket":7066,"Ġbec":7067,"ĠLtd":7068,"antha":7069,"DS":7070,"Ġà®ķà®¯à®µà®°":7071,"Ġ1954":7072,"à®ļà®ķà®²":7073,"à¯ĭ....":7074,"ĠVanniOnline":7075,"Ġexpl":7076,"1995":7077,"Ġà®ķà®²à®¤":7078,"Ġà®ĩà®°à®µà®²":7079,"1989":7080,"oscope":7081,"à¯įà¯ĩ":7082,"Ġland":7083,"à®ħà®°à®ļà®©":7084,"ĠYour":7085,"Ġid":7086,"à®¸à®Ļ":7087,"ĠUpd":7088,"ÑģÐº":7089,"ĠUnc":7090,"à¯ģ//":7091,"adesh":7092,"Ġcalled":7093,"Ġà®ħà®´à®¤":7094,"Â¡Â¢":7095,"BN":7096,"youtu":7097,"ÏĦ":7098,"à®²à®ļà®®à®¯à®®":7099,"Ġà®ĩà®¹":7100,"Ġmarket":7101,"ĠChief":7102,"NLOAD":7103,"Ġprotect":7104,"ĠAustralia":7105,"Ġà®°à®ķà®¤":7106,"à®ħà®°à®£":7107,"Ġà®ľà®¹":7108,"ĠPrab":7109,"eyan":7110,"Tagged":7111,"à®ķà®ķà®®":7112,"à®ķà®±à®µà®Ļ":7113,"ila":7114,"Ġstate":7115,"160":7116,"ference":7117,"];":7118,"à¯®":7119,"à®ķà®°à®£à®®":7120,"Ġà®®à®°à®ļ":7121,"aji":7122,"æ°´":7123,"uf":7124,"ĠSer":7125,"Ġ126":7126,"1960":7127,"Ġ{{":7128,"ways":7129,"Ġà®īà®³à®¤":7130,"ĠSH":7131,"Ġshow":7132,"à®²à®µà®³":7133,"Ġtop":7134,"aterial":7135,"æĢ":7136,"Ġer":7137,"Ġgu":7138,"?!":7139,"Ġà®īà®µà®°":7140,"à®ĩà®¤à®´":7141,"Ġfamily":7142,"Ġ135":7143,"Ñİ":7144,"à®µà®¤à®¤":7145,"ategor":7146,"ergy":7147,"ify":7148,"trans":7149,"NG":7150,"Ġà®°à®ľà®©":7151,"ĠAf":7152,"asik":7153,"ĠEX":7154,"rin":7155,"Ġà®ļà®©à®®":7156,"Ġà®ĩà®Łà®µà®ļà®¤":7157,"à®²à®µà®°à®Ļ":7158,"à®ħà®µà®ļà®°":7159,"Phone":7160,"Ġimportant":7161,"AMIL":7162,"ccess":7163,"CS":7164,"sm":7165,"à®´à®©à®©":7166,"ĠHindu":7167,"Ġli":7168,"1997":7169,"ĠCentral":7170,"à®£à®°à®¤":7171,"Ġà®¨à®²à®µ":7172,"Ġbright":7173,"Ġrest":7174,",âĢĿ":7175,"RL":7176,"à®°à®®à®°":7177,"à®ķà®£à®ª":7178,"ãģĹ":7179,"ĠSupport":7180,"Ġrelease":7181,"à¯Ī!\"":7182,"ĠState":7183,"à®¯à®ªà®°":7184,"Ġ139":7185,"nam":7186,"wh":7187,"Ġà®īà®µ":7188,"ĠTemple":7189,"ĠSy":7190,"raj":7191,"Ġ10000":7192,"And":7193,"Ġà®Ĩà®ľ":7194,"à¯į?,":7195,"Ġhair":7196,"Ġ[...]":7197,"Ġ1400":7198,"Ġspe":7199,"It":7200,"Ġ236":7201,"1992":7202,"ĠRajinikanth":7203,"tion":7204,"à®¯à®µà®ķ":7205,"ĠSep":7206,"Ġ116":7207,"ĠThiru":7208,"cel":7209,"à®ļà®®à®²":7210,"utton":7211,"IA":7212,"TA":7213,"à®°à®ķà®³":7214,"à®¾âĢĻ.":7215,"ugg":7216,"8888":7217,"ired":7218,"Ġlanguage":7219,"Ġà®Ĩà®²à®®à®°à®¤":7220,"à¯Ń":7221,"èī²":7222,"à®¤à®®à®Ļ":7223,"Ġmust":7224,"Ġ???":7225,"ĠEngland":7226,"à®ľà®¹":7227,"ley":7228,"Ġpa":7229,"ĠAuto":7230,"facebook":7231,"Ġboss":7232,"Ġà®°à®®à®´":7233,"ðŁĴ":7234,"black":7235,"enk":7236,"Ġwhere":7237,"Ġweekly":7238,"Ġà®İà®´à®²":7239,"ita":7240,"Ġ1963":7241,"++++":7242,"leep":7243,"ape":7244,".-":7245,"Village":7246,"à®®à®©à®ª":7247,"ĠTraining":7248,"asy":7249,"ĠKalv":7250,"Ġdisc":7251,"ĠDOWNLOAD":7252,"à®ªà®®à®¯à®®":7253,"ĠMachine":7254,"ifest":7255,"etting":7256,"ĠVa":7257,"1984":7258,"rivate":7259,":))":7260,"ç«":7261,"erman":7262,"ĠIPL":7263,"Ð¹":7264,"à®ħà®Łà®ķ":7265,"...!":7266,"Ġkur":7267,"earing":7268,"Ġà®ĩà®®à®¯à®®":7269,"Ġà®Ĩà®ļà®©":7270,"à®İà®Łà®ª":7271,"à®ľà®¯à®¨à®ķà®°":7272,"utes":7273,"ondon":7274,"Col":7275,"à®ļà®ļà®©":7276,"à®ľà®ķà®¤":7277,"strology":7278,"Ġwin":7279,"Ġfish":7280,"raft":7281,"à®¨à®Łà®ķ":7282,"legal":7283,"à®¯à®£à®°":7284,"ĠNorth":7285,"Ġne":7286,"head":7287,"ĠSaturday":7288,"Ġway":7289,"Man":7290,"Ġà®¤à®ļà®®":7291,"oroscope":7292,"ĠSa":7293,"attle":7294,"amakkal":7295,"Ġoffice":7296,"Ġà®¤à®ļà®°à®¤à®©":7297,"<<":7298,"Dek":7299,"side":7300,"åĬ":7301,"à®°à®¤à®µà®°":7302,"Ġà®µà®²à®¯":7303,"unctions":7304,"Ġkama":7305,"peri":7306,"ruit":7307,"TJ":7308,"ba":7309,"Ġà®ļà®²à®©":7310,"Ġwell":7311,"ĠDiv":7312,"Ð¸ÑĤ":7313,"Ġsmall":7314,"rome":7315,"à¯¯":7316,"à®¸à®Ł":7317,"Dekho":7318,"Ð·":7319,"Ùģ":7320,"à®¹à®ķ":7321,"Ġant":7322,"adha":7323,"tures":7324,"à®ĩà®³à®µà®°à®ļ":7325,"hter":7326,"è´":7327,"ura":7328,"ĠLove":7329,"fr":7330,"Ġà®ķà®¤à®®":7331,"à®¤à®®à®£":7332,"Ġfire":7333,"Ġcompl":7334,"Ġplace":7335,"Ġstudent":7336,"ĠâĤ¹":7337,"à®Łà®ķà®²":7338,"à®³à®£":7339,"Ġà®¨à®µà®°à®¤":7340,"anna":7341,"çº":7342,"à®ļà®®à®¨":7343,"ĠSL":7344,"Ġheart":7345,"Ġsuicide":7346,"son":7347,"icip":7348,"ĠLaw":7349,"Ġ111":7350,"illed":7351,"sub":7352,"à¯Īà®¿":7353,"Ġà®ħà®²à®ª":7354,"alt":7355,"Ġà®Ĩà®²à®©":7356,"Ġ114":7357,"àµį":7358,"gl":7359,"å¯":7360,"Ġà®Ĩà®µà®Ł":7361,"à®ľà®©à®Ļ":7362,"Ġà®ħà®±à®ļ":7363,"Ġ(?)":7364,"ĠLED":7365,"à®®à®¨à®ªà®°":7366,"new":7367,"Ã§":7368,"thu":7369,"ĠMp":7370,"Ġà®ļà®ķà®¸":7371,"ĠRa":7372,"à¯ĩ!âĢĻ":7373,"Ð½Ñĭ":7374,"à®ħà®µà®¤":7375,"Ġà®īà®£à®°à®¤":7376,"ĠGirl":7377,"alls":7378,"à¯ģ\".":7379,"è¿":7380,"ĠPriceDekho":7381,"Ġ234":7382,"à®¤à®¹":7383,"à®¾?âĢĻâĢĻ":7384,"Ġthese":7385,"olid":7386,"ĠBlack":7387,"ategorized":7388,"éĢ":7389,"ĠÐ¼":7390,"Ġà®ķà®±à®¨":7391,"ĠEmail":7392,"BSNL":7393,"à®¯à®ŀ":7394,"Ġà®¨à®Łà®©à®Ļ":7395,"IST":7396,"Ġbefore":7397,"Ø©":7398,"ĠFire":7399,"ï¿½ï¿½ï¿½ï¿½ï¿½ï¿½ï¿½":7400,"Ġà®¤à®·":7401,"ĠPRO":7402,"ĠDef":7403,"Ġdead":7404,"elling":7405,"à®®à®ķà®µ":7406,"Ġà®µà®²à®¯à®®":7407,"à®ĵà®ª":7408,"De":7409,"Ġà®ĵà®®à®¨":7410,"ĠALL":7411,"Ġson":7412,"ĠVish":7413,"à®ħà®°à®ļà®°":7414,"à®Ĭà®Łà®ķà®Ļ":7415,"eedsam":7416,"-)":7417,"arning":7418,"Ġà®ħà®µà®©à®µà®©":7419,"TO":7420,"arl":7421,"asamy":7422,"Ġofficial":7423,"Ġèĭ":7424,"Ġword":7425,"Ġà®ħà®µà®ļà®°à®ļ":7426,"1994":7427,"Ġseries":7428,"kalvi":7429,"Ġà®µà®©à®Ļ":7430,"itz":7431,"ĠSupeedsam":7432,"embly":7433,"à¤¯":7434,"ĠBookmark":7435,"ĠADMK":7436,"Ġà®ªà®¤à®°":7437,"Ġago":7438,"à®´à®£":7439,"Ġ1953":7440,"ĠIP":7441,"à¯ĭ?âĢĿ":7442,"ption":7443,"ĠManager":7444,"arajan":7445,"One":7446,"Ġà®¤à®®à®¯à®¨":7447,"à®Łà®µà®¤":7448,"Ġ1959":7449,"ĠNav":7450,"Ġsch":7451,"à®²à®ķà®ķ":7452,"Ġrun":7453,"ociety":7454,"à®³à®®à®©":7455,"à®Łà®®à®²":7456,"Ġà®®à®°à®µ":7457,"illa":7458,"Ġsupplements":7459,"ĠCollege":7460,"à®ªà®°à®ªà®°à®ª":7461,"ĠMi":7462,"ĠNetwork":7463,"ured":7464,"ivo":7465,"ettai":7466,"à®µà®©à®µà®±":7467,"ĠTool":7468,"Ġwhite":7469,"ĠArch":7470,"ĠIllegal":7471,"Ġà®ıà®ķà®®à®©à®¤":7472,"Ġà®ħà®ĥà®ª":7473,"Ġfestival":7474,"puter":7475,"argin":7476,"Ġà®Ĩà®²à®®à®°à®®":7477,"vey":7478,"à®ķà®Łà®°":7479,"Ġà®Īà®¯":7480,"ĠNat":7481,"Ġï¿½ï¿½ï¿½ï¿½ï¿½ï¿½":7482,"Ġcountry":7483,"Ġetc":7484,"à®¯à®ļà®ķ":7485,"iver":7486,"ĠINDIA":7487,"Ġà®®à®ķà®ľà®°":7488,"Ġwords":7489,"Ġdata":7490,"à®²à®®à®Ł":7491,"à®³à®°à®µà®®":7492,"anet":7493,"uel":7494,"Ġà®ļà®®à®£à®®":7495,"iler":7496,"iesel":7497,"ridge":7498,"~~":7499,"à®¸à®ķ":7500,"âĢ²":7501,"Ġ161":7502,"ĠÐ¿ÑĢ":7503,"ĠBathroom":7504,"å¼Ģ":7505,"PU":7506,"uff":7507,"ĠCons":7508,"Ġ::":7509,"Ġbetween":7510,"à¯įâĢĶ":7511,"icy":7512,"à®Ĭà®Łà®ķà®µ":7513,"alanisamy":7514,"border":7515,"Ġà®ħà®©à®ķ":7516,"use":7517,"organ":7518,"ĠSunday":7519,"RS":7520,"Ġ190":7521,"1993":7522,"Ġà®ªà®°à®¤à®¨":7523,"ĠBooks":7524,"ĠAz":7525,"à®ĩà®©à®ª":7526,"à¯ģâĢ¦!":7527,"à®¤à®³à®°":7528,"à®µà®²à®ķà®ª":7529,"ournal":7530,"Ġà®ľà®©à®°à®ŀ":7531,"usband":7532,"Ġà®Ĭà®Łà®ķà®ķ":7533,"Ġadv":7534,"à®ĩà®²à®µà®ļ":7535,"kart":7536,"Ġà®İà®Łà®¤":7537,"à®²à®°à®Ļ":7538,"ãģ«":7539,"met":7540,"Ġ230":7541,"ĠRSS":7542,"ister":7543,"ÐµÐ»":7544,"uxury":7545,"Ġque":7546,"Ġà®īà®µà®ª":7547,"Ġdistrict":7548,"IE":7549,"Ġcare":7550,"Ð°Ð»":7551,"à®°à®ķà®ļ":7552,"à®ļà®ķà®ª":7553,"ental":7554,"ĠYouTube":7555,"gen":7556,"à®ķà®©à®°":7557,"à¯Ī......":7558,"Ġà®¨à®²à®ļ":7559,"Ġaway":7560,"ension":7561,"à®µà®ľ":7562,"Ġà®īà®°à®²":7563,"ĠGe":7564,"rip":7565,"aps":7566,"ĠDistrict":7567,"à®¿?âĢĿ":7568,"1986":7569,"ØŃ":7570,"ĠPass":7571,"à¯ģ!'":7572,"ĠHere":7573,"common":7574,"Ġà®ªà®¤à®©":7575,"à®¸à®¨":7576,"hanush":7577,"ĠKalvinews":7578,"-%":7579,"Įæīĭ":7580,"à®ķà®Łà®ļ":7581,"à¯Ī:-":7582,"à¯ĩ(":7583,"Ġà®ĵà®°à®£":7584,"ugal":7585,"ıå·":7586,"ĠCC":7587,"aker":7588,"Ġstring":7589,"ki":7590,"Ġà®ļà®µà®ª":7591,"Ġà®ľà®ªà®®":7592,"thup":7593,"à®īà®Łà®±":7594,"ĠUncategorized":7595,"Ġà®ĩà®³à®ļ":7596,"à¯ģ:âĢĵ":7597,"ĠShow":7598,"Ġchildren":7599,"à¯į!,":7600,"isation":7601,"aiv":7602,"Ġvideos":7603,"bi":7604,"à®°à®¹à®®":7605,"à®®à®°à®£à®¤":7606,"ĠCinem":7607,"Ġà®¨à®ķà®°à®ļ":7608,"Ġpri":7609,"Ġ225":7610,"ä¸Ńå½©ç¥¨":7611,"à®¿&":7612,"à®²à®ªà®¤":7613,"Nadu":7614,"ĠJayalal":7615,"ced":7616,"pungudutiv":7617,"Ġhad":7618,"ainews":7619,"ological":7620,"ner":7621,"à¯Ĩ.,":7622,"akkal":7623,"2020":7624,"ferent":7625,"Fi":7626,"Jul":7627,"Ġ(âĢľ":7628,"ĠWest":7629,"à®¯à®´à®ķà®©":7630,"à®ķà®ľà®©":7631,"ĠPH":7632,"aces":7633,"Re":7634,"UK":7635,"à®¤à®ķà®µ":7636,"ĠShe":7637,"ĠDip":7638,"arden":7639,"ĠSpace":7640,"Ġà®ķà®¤à®±à®²":7641,"à¯į...âĢĻâĢĻ":7642,"à¯į:))":7643,"à®¤à®ļà®·":7644,"Ġexplet":7645,"Ġblack":7646,"ĠQuestion":7647,"More":7648,"Part":7649,"à®³à®±à®µ":7650,"Ġà®ıà®®à®©":7651,"idth":7652,"isha":7653,"anga":7654,"Ġgoing":7655,"ĠDevelopment":7656,"åĵ":7657,"à¯Ģ..":7658,"Ġ(âĢĺ":7659,"ĠPorn":7660,"Ġver":7661,"ĠInterview":7662,"('":7663,"cy":7664,"à®ķà®´à®²":7665,"Google":7666,"ris":7667,"Ġà®Łà®Ł":7668,"à¯ģ?.":7669,"ira":7670,"ĠVol":7671,"ĠMas":7672,"ĠPat":7673,"uswiss":7674,"pungudutivuswiss":7675,"UD":7676,"à®ķà®µà®Ļ":7677,"Ġ210":7678,"ĠAward":7679,"ĠCOM":7680,"Ġsay":7681,"Ġfore":7682,"à®©à®®à®±":7683,"à®Ĩà®ĥà®ª":7684,"à®ªà®±à®ķ":7685,"Ġà®Łà®µà®²":7686,"ipkart":7687,"Ġexpletive":7688,"à®®à®ļà®¨":7689,"à®ķà®©à®©":7690,"Ġbuy":7691,"Ġ127":7692,"yal":7693,"à®ļà®®à®±":7694,"ĠShar":7695,"ĠCD":7696,"ĠDate":7697,"ished":7698,"Ġaccident":7699,"ıå·ŀäº":7700,"320":7701,"lite":7702,"à®ķà®²à®µà®°à®®":7703,"Ġcelebr":7704,"ĠKhan":7705,"Ġval":7706,"ĠShare":7707,"ĠKarn":7708,"board":7709,"ĠDon":7710,"Ġkamak":7711,"kan":7712,"loor":7713,"Ġaccount":7714,"ıå·ŀäºĮæīĭ":7715,"HI":7716,"vision":7717,"Ġà®Ĩà®²à®ª":7718,"realm":7719,"plit":7720,"conom":7721,"à¯Ī[":7722,"Ġà®°à®³":7723,"Ġser":7724,"ĠGiz":7725,"abar":7726,"uper":7727,"ĠManagement":7728,"ĠAIADMK":7729,"ĠFriendly":7730,"ler":7731,"Ġà¯Ĩà®¾":7732,"à®¯à®©à®µà®±":7733,"Ġà®ĵà®Łà®ķ":7734,"1988":7735,"Ġ2022":7736,"ãģ§":7737,"ĠÑĢ":7738,"Ġà®ĩà®©à®ļ":7739,"Ġà®·à®°à®¤":7740,"rack":7741,"CO":7742,"info":7743,"Ġsocial":7744,"à®Ĳà®¤à®°":7745,"ĠOrgan":7746,"Exclusive":7747,"ban":7748,"oni":7749,"alink":7750,"Ġ1946":7751,"Ġbeing":7752,"ĠFrance":7753,"}.":7754,"Ġloc":7755,"umm":7756,"$$":7757,"MB":7758,"Ð³":7759,"ĠÑĤ":7760,"Ġà®ļà®ķà®Ł":7761,"inakaran":7762,"Ġ1939":7763,"oul":7764,"1950":7765,"Ġà®īà®´à®©":7766,"Ġmurder":7767,"à®¿à®¾":7768,"Ġ1925":7769,"Ġà®µà®³à®¨":7770,"]:":7771,"Ġà®ľà®¯à®¤":7772,"Ġhospital":7773,"tal":7774,"à®µà®¯à®®":7775,"Ġ078":7776,"udget":7777,"Labels":7778,"TAMIL":7779,"VI":7780,"âĻ":7781,"é«ĺ":7782,"Ġ165":7783,"Ġtechn":7784,"actor":7785,"we":7786,"za":7787,"Ġà®ļà®¤à®®à®Ł":7788,"Ġà®ķà®²à®ķà®ķ":7789,"Ġà®²à®ª":7790,"Ġbusiness":7791,"à®±à®°à®ļà®°":7792,"ĠAND":7793,"ults":7794,"102":7795,"ivil":7796,"Ġ136":7797,"ĠData":7798,"1985":7799,"atural":7800,"\":":7801,"Ġtn":7802,"realmatrimony":7803,"Ġ133":7804,"ĠâĢº":7805,"à®ļà®®à®ķ":7806,"Ġeyes":7807,"themes":7808,"oney":7809,"Ġpath":7810,"ĠDem":7811,"ĠWhy":7812,"ĠØ¹":7813,"Ġà®Ĩà®ķà®®à®Ļ":7814,",,,,,,,,":7815,"à®°à®ķà®£à®¤":7816,"Ġà®ļà®Łà®ķ":7817,"à®ħà®Łà®ª":7818,"ĠCricket":7819,"Ġ121":7820,"akumari":7821,"test":7822,"à®©à®Łà®ķ":7823,"Ġà®ĩà®¯à®®":7824,"à®¯à®©à®ª":7825,"à®īà®³à®µ":7826,"ĠAP":7827,"ĠBhar":7828,"ĠRajini":7829,"Ġèĭıå·ŀäºĮæīĭ":7830,"à®£à®µà®ª":7831,"à¯į.âĢ¦":7832,"ĠSim":7833,"ume":7834,"à¯Ī?âĢĿ":7835,"ACK":7836,"Ġà®²à®ļ":7837,"ĠRupee":7838,"ĠWar":7839,"ivity":7840,"enefits":7841,"ĠFund":7842,"ides":7843,"Ġnon":7844,"duction":7845,"menu":7846,"ering":7847,"thers":7848,"à®ıà®ı":7849,"ĠDinamani":7850,"oli":7851,"à¯Ī',":7852,"ä¼ļ":7853,"750":7854,"Ġpe":7855,"elle":7856,"ĠPolitical":7857,"350":7858,"aser":7859,"Ġfin":7860,"à¯Ī.....":7861,"ãģ¦":7862,"Ġà®ħà®¯à®²à®µà®°":7863,"aughter":7864,"jay":7865,"à®°à®¯à®Ļ":7866,"à®¯à®ķà®µ":7867,"à®ķà®¤à®ķ":7868,"Ġsound":7869,"à®ļà®®à®¯à®Ļ":7870,"rike":7871,"ĠInternet":7872,"azh":7873,"Ġreleased":7874,"Ùĥ":7875,"à®®à®µà®©":7876,"Ġà®®à®³à®®":7877,"à®¯à®¤à®®":7878,"eni":7879,"Ġsand":7880,"à®ıà®Ļ":7881,"urch":7882,"ippu":7883,"airs":7884,"Ġmeeting":7885,"à®µà®ļà®©à®¤":7886,"Ġpoint":7887,"à®¾âĢ¦âĢĿ":7888,"Ġoffset":7889,"ĠForum":7890,"à®ķà®®à®ķ":7891,"Ġhand":7892,"umer":7893,"Ġproble":7894,"ALL":7895,"ĠGizbot":7896,"PF":7897,"à¯Īà¯Ĭ":7898,"à®ļà®²à®µ":7899,"ĠCustom":7900,"ĠProgram":7901,"scripts":7902,",\"":7903,"Ġà®ľà®¯à®¨":7904,"Ġà®¸à®Ļ":7905,"à®ķà®´à®ķà®ª":7906,"left":7907,"ĠmAh":7908,"1947":7909,"à¯ģ||":7910,"amav":7911,"ĠAPP":7912,"ĠMen":7913,"Ġwatch":7914,"used":7915,"ĠContact":7916,"à®ļà®¤à®µ":7917,"Ġà®īà®ľ":7918,"azon":7919,"ĠSeith":7920,"ading":7921,"akarthik":7922,"ĠWellawatte":7923,"Ð¾Ð³":7924,"Gr":7925,"aman":7926,"ĠSil":7927,"Ġ155":7928,"ĠâĢ¦..":7929,"psc":7930,"isc":7931,"utpa":7932,"Ġà®ħà®¹à®®à®Ł":7933,"ãĥ¼":7934,"à¯ģ&":7935,"à®¹à®¨":7936,"à¯į?)":7937,"ĠMov":7938,"à¤®":7939,"ength":7940,"SW":7941,"functions":7942,"à¯ģ.''":7943,"128":7944,"eph":7945,"ĠPrint":7946,"ĠPresident":7947,"à®ħà®®à®²":7948,"tnkalvi":7949,"ĠTechnology":7950,"à®¯à®´à®ķ":7951,"ĠPan":7952,"Ġkm":7953,"Qu":7954,"Ġsim":7955,"ĠKh":7956,"akash":7957,"Ġà®°à®¤à®¤":7958,"ĠHard":7959,"Ġà®¤à®µà®ķ":7960,"ĠAC":7961,"à¯ĭ?\"":7962,"overnor":7963,"à¯ĩ.....":7964,"araja":7965,"ouncil":7966,"oe":7967,"à®´à®°à®ļà®©":7968,"à®±à®©à®±":7969,"à¯ĩ.âĢĿ":7970,"ĠMicrosoft":7971,"Ġ7000":7972,"Ġcategory":7973,"Ġaction":7974,"ĠVar":7975,"Ð°ÑĢ":7976,"Oct":7977,"à®ļà®®à®¤":7978,"Ġcard":7979,"Ġmiss":7980,"Sur":7981,"à®¤à®£à®©":7982,"Ġà®Łà®ľà®©":7983,"ĠCal":7984,"ĠMark":7985,"Ġkey":7986,"Des":7987,"Key":7988,"ĠRet":7989,"ifestyle":7990,"aur":7991,"ji":7992,"words":7993,"Ġwant":7994,"ĠJava":7995,"127":7996,"fect":7997,"Ġopp":7998,"ophy":7999,"ians":8000,"ĠSmart":8001,"Ġpermalink":8002,"ĠKarnataka":8003,"Ġec":8004,"Ġà®ļà®°à®Ł":8005,"ĠCount":8006,"Ġvict":8007,"ffic":8008,"à¥Ģ":8009,"ĠBi":8010,"1982":8011,"TP":8012,"Ġfunction":8013,"ĠMK":8014,"à®ĥà®ªà®¤":8015,"à®¾',":8016,"Sri":8017,"Too":8018,"à®ľà®¯à®µ":8019,"à®¯à®©à®ķ":8020,"Ġà®Ĭà®°à®Łà®Ļ":8021,"ĠGl":8022,"Ġà¯©":8023,"à®¯à®£à®ķ":8024,"Ġà®ĩà®Łà®±":8025,"à®µà®´à®ķà®©":8026,"ella":8027,"ĠAv":8028,"åĮ":8029,"à®ļà®µà®°à®®":8030,"ĠLab":8031,"Ġ145":8032,"Ġul":8033,"à®ķà®©à®ļ":8034,"ĠSK":8035,"Ġfield":8036,"ĠBack":8037,"ĠDrive":8038,"Ġreport":8039,"My":8040,"ÙĤ":8041,"ĠSoftware":8042,"à¯į???":8043,"Ġpage":8044,"indi":8045,"à¯ĪâĢĻ.":8046,"oin":8047,"Ø§ÙĨ":8048,"å¹´":8049,"à®µà®°à®Ł":8050,"à®ªà®ķà®µà®¤":8051,"Ġ1955":8052,"ĠAdmin":8053,"All":8054,"à®³à®®à®¯à®®":8055,"eration":8056,"ĠTips":8057,"Ġbel":8058,"ĠKey":8059,"Ġprogram":8060,"National":8061,"Ġà®ľà®²à®®":8062,"Ġport":8063,"Ġ256":8064,"ĠâĢĻâĢĻ":8065,"à®¿`":8066,"à®¤à®²à®ķ":8067,"ĠMess":8068,"à¯ģ..âĢĿ":8069,"Ġlast":8070,"ĠStr":8071,"uge":8072,"à®µà®£à®®":8073,"Ġ?.":8074,"Ġà®ªà®³à®ªà®³à®ķ":8075,"?.":8076,"à®Łà®©à®ķ":8077,"ĠNamakkal":8078,"Ġdam":8079,"Ø§ÙĦ":8080,"ĠAssistant":8081,"'.":8082,"à®¯à®£à®ª":8083,"ĠSarkar":8084,"Ġpdf":8085,"Ġleader":8086,"Ġà®®à®°à®£à®ª":8087,"Ġter":8088,"Ġproject":8089,"à®°à®µà®ķ":8090,"à®¹à®Ļ":8091,"Ġ1942":8092,"Ġmot":8093,"Ġshort":8094,"ittle":8095,"Ġà®īà®¤à®¯à®©":8096,"1977":8097,"una":8098,"ĠUl":8099,"ukudi":8100,"Ġà®ľà®¯à®µà®°":8101,"ĠFront":8102,"poration":8103,"go":8104,"tainment":8105,"Â¨":8106,"à®ªà®°à®ļà®©":8107,"Ġà®ªà®ķà®±":8108,"irc":8109,"aving":8110,"à®ªà®³à®Ļ":8111,"Ġà®ķà®±à®ķ":8112,"à®¯à®°à®Ł":8113,"Ġà®īà®¤à®¯à®¤":8114,"ĠNan":8115,"ĠServices":8116,"Ġà®ħà®ĥ":8117,"ĠSettings":8118,"ĠPo":8119,"eve":8120,"!âĢĻ":8121,"Ê²":8122,"à¯į,(":8123,"Ġà®İà®´à®¤":8124,"à®ĵà®µà®°":8125,"144":8126,"Ġtrees":8127,"à®ķà®Łà®ķ":8128,"Ġ1918":8129,"Sw":8130,"rs":8131,"à®Łà®´":8132,"à¯Ī.(":8133,"ĠTET":8134,"aith":8135,"estions":8136,"Ò»Ð¤":8137,"Ġà®Ĩà®³à®µà®¨":8138,"=>":8139,"ref":8140,"ermalar":8141,"æľĪ":8142,"ĠCareer":8143,"CL":8144,"pad":8145,"255":8146,"ĠComputermalar":8147,"ĠSu":8148,"wali":8149,"Ġà®·à®µ":8150,"ĠBoard":8151,"à®©à®ķà®°à®®":8152,"ecut":8153,"à®µà®¹":8154,"ĠAssociation":8155,"Ġboy":8156,"ãģ¨":8157,"Ġåħ":8158,"ĠFlash":8159,"ĠBSNLEU":8160,"PA":8161,"rup":8162,"ising":8163,"Ġmost":8164,"ĠLev":8165,"Ġlaw":8166,"Ġ132":8167,"ector":8168,"Ġsomething":8169,"Ġà®¾":8170,"à®Ĳà®İà®¸":8171,"ĠLead":8172,"Ġrece":8173,"ĠAbout":8174,"éľ":8175,"Ġshar":8176,"Ġsongs":8177,"TY":8178,"à¯Ģ'":8179,"ora":8180,"ĠSocial":8181,"ĠAre":8182,"Ġinv":8183,"Ġappear":8184,"ĠCommunity":8185,"Ġvisit":8186,"à®ķà®ªà®¤":8187,"Ġ1951":8188,"apan":8189,"epend":8190,"ĠKollywood":8191,"Script":8192,"à¯į</":8193,"à®ļà®®à®¸":8194,"ĠCity":8195,"ĠMic":8196,"35801":8197,"tel":8198,"Îµ":8199,"à®¨à®°à®ļ":8200,"à¯ĩ!!!":8201,"à®ļà®¨à®²":8202,"Ġheroine":8203,"Ġmusic":8204,"win":8205,"ĠIf":8206,"uts":8207,"ĠUnd":8208,"ellig":8209,"à®£à®¨à®²à®©":8210,"Ġà®ķà®²à®µà®°":8211,"Ġkn":8212,"wa":8213,"Ġà®ķà®ħà®ª":8214,"Ġà®ħà®µà®®à®°":8215,"Ġà®ķà®Łà®ķà®®":8216,"à®Łà®ķà®ļ":8217,"Ð¸Ñı":8218,"Par":8219,"à¯Ĩ,":8220,"à¯ĭ;":8221,"Ġ550":8222,"ĠUp":8223,"UB":8224,"Ġnumber":8225,"ðŁĺĤðŁĺĤ":8226,"Ġà®Łà®¸":8227,"aigal":8228,"urg":8229,"ĠWashing":8230,"Ġreal":8231,"ithaa":8232,"allen":8233,"KAR":8234,"Ø²":8235,"à®Łà®¯à®°":8236,"à®ķà®¤à®©":8237,"à®Łà®²à®ķ":8238,"âĢĮ,":8239,"Ġforest":8240,"ĠCoimbatore":8241,"asikala":8242,"×Ļ":8243,"ç®":8244,"à¯ģ.âĢ¦":8245,"ĠCard":8246,"âĸ¬":8247,"130":8248,"YAR":8249,"à¯ĪâĢĭ":8250,"à¯į...âĢĻ":8251,"ĠPakistan":8252,"ops":8253,"Ham":8254,"rant":8255,"å¸":8256,"Ġà®ħà®ķà®ļ":8257,"Ġà®°à®£à®®":8258,"Ġà®µà®Łà®ķà®°":8259,"Ġwr":8260,"ĠRAM":8261,"104":8262,"ulam":8263,"çİĭ":8264,"Ê²Ã´":8265,"CI":8266,"à®ªà®¯à®±":8267,"Ġdark":8268,"à®ªà®£à®®à®¤":8269,"Ġà®¤à®ķà®µà®®":8270,"XT":8271,"à®¿]":8272,"Ġà®īà®£à®°à®ķ":8273,"Ġpublic":8274,"à®ľà®¯à®¨":8275,"à¯įâĢ¦âĢĻ":8276,"Ġ?\"":8277,"à®¾âĢĻâĢĻ":8278,"ĠUSB":8279,"akarthikeyan":8280,"Ġà®ļà®°à®ª":8281,"Ġpaper":8282,"Ġkamakathai":8283,"à®¯à®¤à®³à®ªà®¤":8284,"à®Łà®±à®ķ":8285,"à®²à®µà®Ł":8286,"à®ļà®²à®ķ":8287,"eness":8288,"ĠPundai":8289,"Ġmod":8290,"107":8291,"oothukudi":8292,"ĠFood":8293,"105":8294,"ĠÂ°":8295,"ĠStar":8296,"Ġchar":8297,"May":8298,"Ġwon":8299,"Ġaut":8300,"ĠGST":8301,"à®®à®¤à®°":8302,"Ġà®ħà®ķà®Ł":8303,"ĠCL":8304,"Ġcapt":8305,"chan":8306,"à¯ĩ..?":8307,"For":8308,"Ġà®¤à®ĥà®µ":8309,"rem":8310,"ĠDisc":8311,"ĠSubscribe":8312,"Ġsecond":8313,"à®ªà®Łà®°":8314,"Ġà®ªà®£à®µà®°à®¤":8315,"à®Ĩà®¤à®°à®µ":8316,"Ġtree":8317,"Ġpad":8318,"ĠDVD":8319,"à®ªà®¯à®£à®Ļ":8320,"à¯ĩ?âĢĻ":8321,"rown":8322,"Kar":8323,"oom":8324,"Ġfollow":8325,"140":8326,"ãģŁ":8327,"Ġspread":8328,"Ġinterview":8329,"coil":8330,"Ġà®ıà®±à®µ":8331,"à®¿!âĢĿ":8332,"ĠBSc":8333,"ĠDesign":8334,"nav":8335,"Ġà®ķà®±à®µ":8336,"à®ĩà®²à®Ł":8337,"240":8338,"Pol":8339,"à¯ģâĢľ":8340,"à®®à®±à®ķ":8341,"Ġà®®à®©à®©à®®":8342,"stand":8343,"ĠTamilar":8344,"ĠWi":8345,"ĠPublic":8346,"ĠQual":8347,"360":8348,"zh":8349,"à¯į.</":8350,"ĠCS":8351,"DA":8352,"minist":8353,"ply":8354,"Ġà®ªà®°à®µà®ļà®ª":8355,"ä¸Ńçī¹":8356,"Ġà®°à®ļà®¤":8357,"à®¤à®µà®´":8358,"ĠLondon":8359,"à®ľà®¯à®¤à®ļà®®":8360,"à®°à®ļà®°":8361,"à®¯à®®à®£":8362,"à®ĩà®©à®µ":8363,"Ġprom":8364,"Ġtown":8365,"Ġ304":8366,"ulthan":8367,"apore":8368,"ĠRespons":8369,"æķ":8370,"ĠLank":8371,"ĠLuxury":8372,"unk":8373,"Ġ.......":8374,"anyakumari":8375,"à®ªà®´à®¨":8376,"Ġà®ħà®ªà®¯":8377,"ikram":8378,"ycle":8379,"Ġ280":8380,"Ġà®µà®ļà®µ":8381,"Ġ152":8382,"ĠSecurity":8383,"Ġà®®à®³à®®à®³à®µ":8384,"Ġ192":8385,"imal":8386,"Ð½Ð¾":8387,"Con":8388,"ULL":8389,"di":8390,"Ġà®īà®³à®ª":8391,"Ġà¨":8392,"aar":8393,"à®ªà®Łà®²à®®":8394,"ĠPhil":8395,"Ġ8000":8396,"à®¿..!!":8397,"ĠMedical":8398,"ĠĠĠĠ":8399,"ĠâĤ¬":8400,"Ð¶":8401,"à¯ĪâĢĵ":8402,"à®ķà®°à®²":8403,"à®ķà®²à®µà®°à®¤":8404,"Ġà®ķà®²à®ļà®¤":8405,"à®ķà®©à®²":8406,"à¯į..,":8407,"Ġbecome":8408,"åıĳ":8409,"à¯Ī.//":8410,"asam":8411,"Ġ944":8412,"è¡":8413,"Ġà®¨à®²à®Ļ":8414,"à®¯à®¨à®®":8415,"Ġ/>":8416,"Ġretur":8417,"Ġjaffna":8418,"::":8419,"à®©à®Łà®°":8420,"Ġà®Ĩà®Ĩà®Ĩ":8421,"à®¯à®²à®®à®°":8422,"à®ªà®©à®ķ":8423,"ĠTimes":8424,"Ġ1919":8425,"Ġmess":8426,"andh":8427,"ĠEconom":8428,"VikatanExclusive":8429,"bed":8430,"çľ":8431,"à¯Ī_":8432,"à®µà®±à®Ł":8433,"à¯į...........":8434,"Ġ1926":8435,"ategories":8436,"UE":8437,"à¯ĩ''":8438,"Ġà®®à®ķà®°à®®":8439,"Ġlett":8440,"ancer":8441,"Ġà®ĩà®©à®µà®´":8442,"à¯į!-":8443,"ayanth":8444,"ĠOut":8445,"ĠONL":8446,"à¯ģ\",":8447,"alaxy":8448,"key":8449,"à®°à®µà®²à®°":8450,"atory":8451,"Ġà®ļà®©à®ļà®®":8452,"Ġà®¤à®°à®¨":8453,"Ġdue":8454,"ĠWeek":8455,"cean":8456,"ĠSingh":8457,"pic":8458,"Ġep":8459,"à®ħà®ķà®®":8460,"ĠCO":8461,"Ġsis":8462,"iger":8463,"à®µà®Łà®ļ":8464,"thod":8465,"Ġbrowser":8466,"/=,":8467,"çīĩ":8468,"à®¿à¯ĩ":8469,"ĠSem":8470,"Ġ143":8471,"Ġking":8472,"à°¿":8473,"à®°à®°à®ļà®©":8474,"anm":8475,"Ġ1905":8476,"Ġcamp":8477,"Ġwould":8478,"à¯ģ!)":8479,"à®ĵà®İà®¸":8480,"Ġà®µà®ļà®©à®ķà®°":8481,"Ġï»¿":8482,"Ġà®ķà®²à®ķà®¤":8483,"Ġà®ĵà®³":8484,"rel":8485,"ĠIC":8486,"ĠJust":8487,"ourse":8488,"Ġsuper":8489,"ĠCompany":8490,"Download":8491,"Î½":8492,"à®°à®Łà®°":8493,"à®µà®°à®¤à®°":8494,"ales":8495,"ĠKal":8496,"Ġvi":8497,"Ġà®ªà®°à®®à®©":8498,"acter":8499,"ĠSupreme":8500,"Ġ((":8501,"103":8502,"ootball":8503,"1981":8504,"okes":8505,"à®ļà®©à®©":8506,"Ġrequest":8507,"tu":8508,"à®·à®£à®©":8509,",,,":8510,"auty":8511,"ĠChina":8512,"ssue":8513,"ĠÃ£":8514,"ĠJunior":8515,"JU":8516,"ĠâĢŀ":8517,"Ġà®ķà®µà®£":8518,"ĠCtrl":8519,"à°¾":8520,"azine":8521,"à®ķà®µà®³":8522,"à®ĩà®µà®Ļ":8523,"à®·à®ļ":8524,"ouble":8525,"Ġà®ĥà®ªà®µ":8526,"uty":8527,"à®©à®²à®®à®±":8528,"Â£":8529,"éĩ":8530,"Ġà®ħà®Łà®ª":8531,"Ġcap":8532,"à¯ģ??":8533,"Ġ1300":8534,"ĠUnion":8535,"Ġclick":8536,"Ġincre":8537,"world":8538,"à®ķà®ķà®¤":8539,"Ġà®ªà®¤à®Ļ":8540,"ĠAjith":8541,"à¤Ĥ":8542,"Ġà®®à®°à®£à®ļ":8543,"agercoil":8544,"********************************":8545,"perience":8546,"FC":8547,"à¯ĭ(":8548,"à®ĩà®±à®ª":8549,"thik":8550,"Ġchange":8551,"link":8552,"margin":8553,"ĠAy":8554,"Ġarticleà®ķ":8555,"à®²à®®à®°":8556,"asing":8557,"1948":8558,"agh":8559,"Ġ1100":8560,"ĠâĪĴ":8561,"atti":8562,"Res":8563,"ily":8564,"ĠBas":8565,"Ġjew":8566,"ĠWhatsApp":8567,"à®¿}":8568,"ĠPaper":8569,"Ġà®·à®£":8570,"etic":8571,"ĠISBN":8572,"à¯Ĥ'":8573,"à®Łà®²à®µ":8574,"Ġwind":8575,"Ġface":8576,"Ġsisulthan":8577,"à®¾âĢĵ":8578,"Ġà®īà®¤à®¯à®£à®©":8579,"Ġ480":8580,"à®Ĳà®ı":8581,"Ġmem":8582,"anger":8583,"ancy":8584,"thupathi":8585,"ville":8586,"Ïģ":8587,"Ġ1600":8588,"ĠUr":8589,"Ġinteresting":8590,"Cinema":8591,"ducts":8592,"Ġà®µà®¯à®¨":8593,"Ġà®°à®®à®£à®©":8594,"à®²à®®à®²":8595,"ĠVs":8596,"åºĵ":8597,"âĸ¬âĸ¬":8598,"ca":8599,"à®¯à®²à®Ļ":8600,"Ġà®ĩà®µà®³à®¤":8601,"Ġ270":8602,"////////":8603,"Ġelect":8604,"yl":8605,"âĤ":8606,"å§":8607,"Ġà®ĩà®²à®ļ":8608,"Ġà®ļà®ķà®²à®®":8609,"ĠMod":8610,"oop":8611,"></":8612,"Ġgroup":8613,"ĠEngineering":8614,"\")[":8615,"Â´":8616,"à®ķà®¤à®²":8617,"ĠNow":8618,"à¯ģ...?":8619,"Ġ149":8620,"Ġ%>":8621,"399":8622,"nb":8623,"apettai":8624,"Ġstand":8625,"à®ªà®¯à®ª":8626,"ĠTrichy":8627,"Ġtrain":8628,"ession":8629,"Ġ<%":8630,"uclear":8631,"à®ªà®©à®ª":8632,"Ġà®ķà®µà®ļ":8633,"ĠWrit":8634,"à®ĵà®²":8635,"Ġmarriage":8636,"499":8637,"Ġà®¤à®°à®µà®²":8638,"1972":8639,"Ġ2030":8640,"otal":8641,"Ġ134":8642,"ãģª":8643,"Ġarticleà®ª":8644,"IVE":8645,"å°ı":8646,"Hamster":8647,"MC":8648,"Ġ1900":8649,"ends":8650,"iyam":8651,"ĠElection":8652,"éĽ":8653,"ola":8654,"ĠYar":8655,"Ġï¿½ï¿½ï¿½ï¿½ï¿½":8656,"lams":8657,"ĠParty":8658,"utcham":8659,"Off":8660,"à®Łà®ŀ":8661,"Ġà®Ĩà®±à®µ":8662,"Ġà®īà®£à®°à®ļ":8663,"ĠPress":8664,"hiw":8665,"à®²à®·":8666,"ĠCr":8667,"Ġfather":8668,"1971":8669,"Ġà®Ĭà®Łà®±":8670,"ĠHeadlines":8671,"cer":8672,"Ġ1938":8673,"Ġà®ķà®®à®£":8674,"ĠInf":8675,"Ð¾ÑĤ":8676,"Ġà®Ĵà®Łà®®":8677,"ilit":8678,"Ġ1911":8679,"add":8680,"304":8681,"Ð½Ð¸":8682,"ambaram":8683,"Ġå¤§":8684,"æĥ":8685,"à®¿!!!":8686,"à®°à®©à®®":8687,"à®®à®¤à®ķ":8688,"Ġà®ķà®µà®ļà®¤":8689,"Ġbaby":8690,"1978":8691,"ĠxHamster":8692,"ĠClick":8693,"à®¾!!!":8694,"à®²à®µà®ķ":8695,"ened":8696,"uration":8697,"1967":8698,"Ġtotal":8699,"à®ªà®´à®ļ":8700,"awatha":8701,"ãĤĴ":8702,"ĠReport":8703,"Ã½":8704,"Ġ044":8705,"ulation":8706,"Ġkalv":8707,"Ø¬":8708,"à®ķà®³à®ķà®°à®®":8709,"Ġsince":8710,"ĠGB":8711,"35800":8712,"IFA":8713,"à®°à®£à®®à®²":8714,"Ġbigg":8715,"111":8716,"à®īà®²à®ķà®³":8717,"Ġà®ļà®®à®°à®ļà®¤":8718,"Image":8719,"Cont":8720,"Vivo":8721,"ection":8722,"Ġà®ªà®©à®®":8723,"à®¨à®°à®®":8724,"à®°à®®à®ķ":8725,"à®²à®®à®±":8726,"ĠCap":8727,"ĠIM":8728,"à¯ĩ!'":8729,"Ġ147":8730,"ersion":8731,"Ġru":8732,"ERS":8733,"ÃĹ":8734,"Ġà®Ĩà®¯à®©à®°":8735,"ĠCall":8736,"Ġcustom":8737,"ĠLabels":8738,"Ġrev":8739,"à®Īà®´":8740,"ĠUs":8741,"Ġamma":8742,"Ġemploy":8743,"ĠParking":8744,"iod":8745,"à®ķà®¤à®¤":8746,"ĠRC":8747,"118":8748,"lands":8749,"ÐµÐ¼":8750,"Ġà®ķà®°à®£à®®":8751,"Ġ,,":8752,"oma":8753,"Ġ1929":8754,"Ġtall":8755,"ĠHospital":8756,"à®·à®¯à®®à®²":8757,"à®¿'.":8758,"quot":8759,"Ġpolitical":8760,"à®ªà®°à®µà®²":8761,"Ġà®¤à®©à®ļ":8762,"Ġà®ħà®³à®µà®³":8763,"Ġà®©à®®":8764,"Ġservice":8765,"Ġnight":8766,"ules":8767,"Ġ177":8768,"Ġà®ĩà®²à®µà®ļà®ķ":8769,"à®¾âĢ¦?":8770,"ĠOfficer":8771,"afe":8772,"Ġgets":8773,"å¿ĥæ°´":8774,"perties":8775,".;":8776,"oru":8777,"Ġ1910":8778,"ĠMath":8779,"106":8780,"ademy":8781,"Is":8782,"UC":8783,"Ġsun":8784,"Ġ153":8785,"Ġlog":8786,"abu":8787,"ãģĻ":8788,"Ġà®ķà®ľà®©":8789,"à¯į.--":8790,"à®¤à®²à®Ł":8791,"ĠNagercoil":8792,"ĠPuth":8793,"ĠLim":8794,"wiki":8795,"III":8796,"ĠONLINE":8797,"à®¤à®µà®©à®¤":8798,"Ġà®Ĳà®ľ":8799,"ĠNon":8800,"Ġhistory":8801,"idn":8802,"à¤µ":8803,"ãģĮ":8804,"ĠCareerindia":8805,"Ġà®ļà®¤à®ķ":8806,"à®Ĩà®ªà®¤":8807,"Ġ720":8808,"ĠBaby":8809,"irit":8810,"ayanthara":8811,"ni":8812,"vu":8813,"Ġà®ľà®©à®®":8814,"...âĢĿ":8815,"ags":8816,"anced":8817,"5000":8818,"WOR":8819,"Ġà®°à®¤à®®":8820,"Ġ1931":8821,"Ġma":8822,"Ġlight":8823,"Ġ137":8824,"åħ¬":8825,"Space":8826,"ĠSecret":8827,"Ġbeauty":8828,"Gu":8829,"dh":8830,"à¯įï»¿":8831,"à¯Ģà®¾à¯į":8832,"à®±à®µà®´":8833,"ĠSen":8834,"ĠCEO":8835,"149":8836,"Ġspeech":8837,"Ġbecause":8838,"à®ķà®´à®¤":8839,"Ġfram":8840,"Ġgovt":8841,"isease":8842,"ĠCinemapettai":8843,"gy":8844,"Ã¢":8845,"à®²à®µà®¨":8846,"Ġaunty":8847,"rial":8848,"Ġ4380":8849,"ÏĤ":8850,"Ġfrag":8851,"HD":8852,"Jan":8853,"NC":8854,"action":8855,"Ġà®Ĵà®¯à®°":8856,"alf":8857,"ĠNET":8858,"ĠVal":8859,"Ġ138":8860,"Ġstyle":8861,"ĠÐ±":8862,"ĠTeam":8863,"112":8864,"å¥ĸ":8865,"He":8866,"gar":8867,"mir":8868,"Ġà®ħà®°à®®":8869,"à¯Ī.[":8870,"ĠMeet":8871,"ĠFound":8872,"à®®à®¹à®¤":8873,"ĠPerches":8874,"âĢ¦âĢ¦.":8875,"unelv":8876,"liament":8877,"à¯įâĢ":8878,"à®®à®¤à®µ":8879,"à®²à®µà®¤":8880,"Ġà®®à®°à®µà®³":8881,"ĠâĢĺ,":8882,"Ġà®Īà®¨":8883,"Ġop":8884,"à¯Ī..!!":8885,"ĠÐ·":8886,"Ġbeg":8887,"Ġå¤©å¤©ä¸Ńå½©ç¥¨":8888,"Ġà®²à®ļà®¨":8889,"iff":8890,"ĠPlus":8891,"eepam":8892,"ĠRahul":8893,"ĠPal":8894,"å®¶":8895,"ĠStudy":8896,"à¯Ģà¯į":8897,"Ġupdated":8898,"SI":8899,"à®²à®µà®Ļ":8900,"à®ļà®¯à®®à®±":8901,"à®ħà®©à®¨":8902,"Ġ377":8903,"à°°":8904,"Ġphone":8905,"!'":8906,"à¯Ĺ":8907,"Ġà®ķà®³à®°":8908,"Ġà®¹à®¯":8909,"ĠLog":8910,"ĠWord":8911,"Ġgl":8912,"ugu":8913,"Ġå½":8914,"Sub":8915,"iat":8916,"ĠSat":8917,"à®Īà®ķ":8918,"unelveli":8919,"pol":8920,"à®ıà®±à®¤":8921,"Ġ850":8922,"137":8923,"berg":8924,"ĠJavaScript":8925,"inga":8926,"ĠTwo":8927,"Hub":8928,"rum":8929,"à®±à®µà®±à®®":8930,"à®¾..âĢĿ":8931,"icken":8932,"emplate":8933,"Hz":8934,"çĽ":8935,"Ġà®¤à®©à®²à®Ł":8936,"asar":8937,"Ġà®µà®³à®°à®¤":8938,")))":8939,"ĠYarld":8940,"Ġà¯Ģ":8941,"à¯į'-":8942,"Ġcur":8943,"Ġaward":8944,"ĠOper":8945,"avu":8946,"Ð¡":8947,"âĹ":8948,"à®¾Â¢":8949,"Ġà®µà®ª":8950,"à®¯à®®à®¤":8951,"à®İà®±":8952,"Ġduring":8953,"Ġà®®à®¤à®°à®¸":8954,"ooting":8955,"ei":8956,"à®¿......":8957,"Ġà®®à®µà®©":8958,"à®¿.....":8959,"ĠYoutube":8960,"embers":8961,"EY":8962,"wer":8963,"Ġà®ĵà®ªà®°":8964,"arb":8965,"ĠBig":8966,"Ġban":8967,"eman":8968,"à¯Ī::":8969,"Ġà®©à®¤":8970,"????????":8971,"à®ªà®±à®¤":8972,"Ġà®ħà®®à®°à®¤":8973,"November":8974,"Ġà®ĩà®°à®¨":8975,"Ġà®ħà®°à®±":8976,"à®ļà®®à®£":8977,"Ġfeel":8978,"heal":8979,"Ġstrong":8980,"Dec":8981,"page":8982,"yahoo":8983,"Ê½":8984,"Ġ215":8985,"ĠSnap":8986,"bb":8987,"Ġà®ĵà®®à®²":8988,"à®°à®£à®©":8989,"reed":8990,"ãĤĭ":8991,"UDI":8992,"à¯įà¯į":8993,"à®£à®°à®ª":8994,"Ġà®ļà®µà®°":8995,"à¯ģ,,":8996,"Ġà®Īà®´à®¨":8997,"ĠVas":8998,"Ġlyrics":8999,"ima":9000,"à¯ģ'.":9001,"ishw":9002,"orge":9003,"Ġà®¨à®Łà®©à®ª":9004,"rows":9005,"tamilnews":9006,"reatment":9007,"ottai":9008,"vt":9009,"Â¯":9010,"ÑĦ":9011,"Ġà®ķà®´à®²":9012,"ĠDE":9013,"ĠFully":9014,"ĠGreat":9015,"à¯ĩâĢ¦âĢĿ":9016,"Ġplan":9017,"Ġbehind":9018,"è½":9019,"Ġà®ħà®µà®©à®°":9020,"à®®à®£à®µ":9021,"Ġ131":9022,"earn":9023,"Ġ3500":9024,"à®ħà®¯à®°":9025,"Ġà®¯à®·":9026,"edic":9027,"Ġ1936":9028,"Ġà®µà®³à®µà®©":9029,"ĠUP":9030,"à®īà®²à®ķà®³à®µ":9031,"Gen":9032,"à®ªà®°à®°":9033,"à¯į);":9034,"English":9035,"GM":9036,"Video":9037,"bps":9038,"Ġorgan":9039,"Ġà®¨à®¯à®¤":9040,"ĠSelect":9041,"ĠWatch":9042,"ipe":9043,"Ġà®ľà®µà®ķà®°":9044,"ĠPlace":9045,"acts":9046,"Ġflood":9047,"èµĦ":9048,"ĠPaul":9049,"yan":9050,"à®ķà®ĩà®°":9051,"Ġà®ļà®¯à®¨":9052,"Ġà®ĵà®®à®©":9053,"Ġà®ľà®©à®ķ":9054,"rypt":9055,"ä¸ĭ":9056,"How":9057,"uct":9058,"Ġà¯ģ":9059,"inay":9060,"Ġà®¤à®Łà®¯à®µ":9061,"éľ¸":9062,"à®©à®®à®°":9063,"Ġ1921":9064,"ĠPhoto":9065,"FF":9066,"Ħæľº":9067,"à®ľà®°à®¤":9068,"ĠTamilNadu":9069,"à¯ģ...'":9070,"rishna":9071,"Id":9072,"Vir":9073,"Ø´":9074,"å¦":9075,"æŀ":9076,"à®®à®¤à®ļ":9077,"à®īà®·":9078,"ayer":9079,"ached":9080,"Ġ370":9081,"à®ķà®¤à®ª":9082,"à®ĩà®³à®¨":9083,"atri":9084,"ĠSir":9085,"Ġà®µà®©à®ļ":9086,"Ġtoo":9087,"124":9088,"Ġà®ħà®ķà®²à®ª":9089,"æľŁ":9090,"Ġ......[":9091,"Author":9092,"à®¯à®µà®²":9093,"Ġà®ħà®µà®¨":9094,"Ġà®ļà®®à®¯à®ļ":9095,"Ġ205":9096,"Ġgk":9097,"à¯įâĢ¦.âĢĿ":9098,"ixed":9099,"Ġà®ķà®ªà®³":9100,"Ġà®¤à®¹":9101,"Ġ1944":9102,"!,":9103,"...?":9104,"ili":9105,"Ġweb":9106,"ĠIAS":9107,"Ġgot":9108,"ĠURL":9109,"tection":9110,"GE":9111,"uation":9112,"à®īà®©à®¤":9113,"ĠSave":9114,"ĠMoh":9115,"Ġsearch":9116,"Ġcode":9117,"à®ħà®µà®°à®µà®°":9118,"SH":9119,"à®¾à®¾à®¿":9120,"Ġà®ĩà®¤à®¯à®¨":9121,"à®°à®µà®³":9122,"Ġ260":9123,"elled":9124,"à®ļà®ķà®µ":9125,"à¯ģ.âĢĻâĢĻ":9126,"amaveri":9127,"lab":9128,"à®ķà®ªà®ª":9129,"ĠCode":9130,"Ġthink":9131,"à¸²":9132,"à®¤à®µà®©à®®":9133,"ĠATM":9134,"isai":9135,"ĠChar":9136,"RA":9137,"inter":9138,"ona":9139,"iti":9140,"ãģ¾":9141,"Ð¾Ð½":9142,"appy":9143,"Ġask":9144,"Porn":9145,"cast":9146,"à®ļà®®à®©":9147,"story":9148,"ĠMaster":9149,"ĠÂ£":9150,"Ġà®°à®£à®µà®ķ":9151,"What":9152,"ĠProfile":9153,"sych":9154,"Or":9155,"à®¾à¯Ĩ":9156,"à®°à®¤à®Ł":9157,"à®¾?:":9158,"ĠPe":9159,"à¯ģ...âĢĿ":9160,"illi":9161,"BiggBossTamil":9162,"Ïĥ":9163,"à®¯à®®à®¯à®®":9164,"amera":9165,"rovers":9166,"Ġà®īà®´à®µà®©":9167,"ulai":9168,"ĠTRB":9169,"à¯ĢâĢĿ":9170,"ĠCBI":9171,"adai":9172,"Ġfacebook":9173,"Ġdiv":9174,"1956":9175,"1975":9176,"146":9177,"istry":9178,"çīĪ":9179,"à®¤à®³à®ª":9180,"Ġà®ªà®°à®µà®¤":9181,"Ġà®®à®°à®ķà®¤à®®":9182,"ori":9183,"asw":9184,"ĠInc":9185,"Ġmountains":9186,"GP":9187,"éģ":9188,"Ġà®ķà®£à®ª":9189,"à®¹à®®à®¤":9190,"à®°à®ªà®²à®¤":9191,"values":9192,"å¥³":9193,"Keywords":9194,"Ġà®ĩà®¤à®©à®Ł":9195,"Ġ1937":9196,"109":9197,"ĠEast":9198,"uma":9199,"à¯ĪâĢĿ.":9200,"Thir":9201,"attu":9202,"ambi":9203,"REE":9204,"à¯ĭ/":9205,"Ġà®ķà®²à®ļ":9206,"ench":9207,"à®ĩà®¤à®¯":9208,"ĠMac":9209,"Ġmedia":9210,"ukku":9211,"ĠÐ½Ð°":9212,"Ġå½©":9213,"mon":9214,"Ġà®ķà®ļà®Ļ":9215,"Ġà®®à®©à®µà®²":9216,"ĠMult":9217,"isk":9218,"Ġmuch":9219,"à®Īà®´à®®":9220,"ertific":9221,"amizh":9222,"Ġdifferent":9223,"LC":9224,"Ġsil":9225,"Ġbox":9226,"dr":9227,"ye":9228,"à®Łà®°à®ķ":9229,"à®ķà®²à®ļ":9230,"Ġblock":9231,"ĠHer":9232,"ãĥ³":9233,"Ġà®¤à®Łà®ª":9234,"Ġà®īà®²à®Ļ":9235,"Ġà®ĩà®¤à®¯à®ª":9236,"Ġ129":9237,"à®°à®³à®¯à®®":9238,"à¤ķ":9239,"Ġkathaigal":9240,"field":9241,"à®¿à®¾à¯į":9242,"à¯Ĩ...":9243,"à¯ģ.*":9244,"Ġà®¯à®¯":9245,"icate":9246,"ĠTamilsex":9247,"ultur":9248,"115":9249,"ĠYear":9250,"ĠiPhone":9251,"MeToo":9252,"MENT":9253,"à®°à®®à®³":9254,"à®¯à®®à®®":9255,"à®¯à®°à®ķ":9256,"ĠFestival":9257,"Ġoper":9258,"hiwela":9259,"MI":9260,"Äĵ":9261,"ä¿":9262,"à®¯à®µà®ļà®®":9263,"Ġtom":9264,"Ġpoll":9265,"Ġmind":9266,"ĠShort":9267,"ASI":9268,"ELL":9269,"Ġà®®à®²à®Ļ":9270,"ĠTax":9271,"à®£à®µà®°à®£":9272,"ĠPic":9273,"ĠLand":9274,"Ġà®µà®¸à®¨":9275,"akkam":9276,"imbu":9277,"ç«Ļ":9278,"Ġà®ªà®²à®µà®°":9279,"iting":9280,"à®¾...\"":9281,"à¯ĩ...!":9282,"ĠPerch":9283,"unny":9284,"220":9285,"Sarkar":9286,"width":9287,"ðŁĻ":9288,"à®²à®Łà®®":9289,"à®ĩà®©à®®":9290,"à®¤à®ļà®Ļ":9291,"à®µà®ľà®©":9292,"Ġà®µà®Łà®²":9293,"orial":9294,"Ġsa":9295,"Ġcut":9296,"Ġ999":9297,"Ġdaughter":9298,"Ġok":9299,"ĠLanguage":9300,"ĠFlipkart":9301,"Ġcompany":9302,"Facebook":9303,"NS":9304,"à®¾`":9305,"Ġà®ķà®²à®ļà®Ļ":9306,"à®²à®ªà®²":9307,"Ġinj":9308,"even":9309,"ruth":9310,"Act":9311,"à®ªà®·":9312,"à¯į,âĢ¦":9313,"Ġà®µà®²à®¯à®Ļ":9314,"à¯į?âĢĻâĢĻ":9315,"ĠMawatha":9316,"ĠAng":9317,"Ð¾Ð¹":9318,"ĠØ³":9319,"à®¨à®µà®°":9320,"ĠTha":9321,"450":9322,"à¯Ī.!":9323,"à®İà®®à®ķ":9324,"à¯į?...":9325,"ĠEv":9326,"split":9327,"à®Łà®°à®®":9328,"Ġà®ļà®®à®£à®¤":9329,"Ġside":9330,"Ġà®¤à®µà®±à®²":9331,"Ġfund":9332,"à®¿!\"":9333,"ĠTrump":9334,"åĽ¾åºĵ":9335,"IPL":9336,"ç¾":9337,"à®©à®´":9338,"ĠMA":9339,"ĠPC":9340,"Ġboard":9341,"Ġà®ªà®²à®©à®Ł":9342,"astic":9343,"ĠControl":9344,"ç»ı":9345,"à¯Īà®¾":9346,"Ġà®ħà®µà®²à®¨":9347,"à®¤à®µà®ļ":9348,"Ġwide":9349,"ĠRail":9350,"agal":9351,"uvan":9352,"ittee":9353,"Ġsuch":9354,"hitsCtrl":9355,"à®®à®²à®®":9356,"à¯Ĩà¯Ĺ":9357,"Ġ1928":9358,"ĠPerson":9359,"Ġplease":9360,"1965":9361,"vijay":9362,"qft":9363,"à®ªà®µà®ļ":9364,"ĠMem":9365,"135":9366,"ĠEntertainment":9367,"à®¿.âĢĿ":9368,"Ġdn":9369,"ailable":9370,"ãģ¯":9371,"Ġlocated":9372,"BF":9373,"Ġ................":9374,"Ġà®¤à®´à®²":9375,"Ġhuge":9376,"ota":9377,"osh":9378,"ĠProject":9379,"enger":9380,"mun":9381,"wal":9382,"ĠSeries":9383,"ĠCTR":9384,"adam":9385,"Ġ978":9386,"ĠKing":9387,"Ġ168":9388,"Ġgar":9389,"ĠInformation":9390,"erk":9391,"Ġà®Īà®´à®µ":9392,"ades":9393,"Ġà®·à®©":9394,"asm":9395,"ĠGovt":9396,"Ġlord":9397,"uture":9398,"1500":9399,"ffairs":9400,"kh":9401,"á¸":9402,"åĨ":9403,"à®ķà®®à®¯à®®":9404,"à®©à®®à®©":9405,"Ġà®ĵà®£à®®":9406,"Ġmp":9407,"Ġbuild":9408,"Ġinf":9409,"idence":9410,"ĠStand":9411,"à¤²":9412,"ozhi":9413,"ĠNEET":9414,"Mon":9415,"kumar":9416,"à®µà®ļà®©à®Ļ":9417,"Ġà®°à®®à®£à®°":9418,"Ġà®ĵà®°à®ķ":9419,"Ġà®ĩà®±à®µ":9420,"ĠNULL":9421,"ived":9422,"hael":9423,"!!!!!!!!":9424,"Kerala":9425,"à¯ģ,''":9426,"à®¤à®®à®ª":9427,"Ġà®¯à®ľ":9428,"Ġà®ĵà®·":9429,"Ġpundai":9430,"Ġmobile":9431,"Â»]":9432,"ĠÄĳ":9433,"Ġà®¸à®ľ":9434,"à¯į..Â»]":9435,"à®ıà®ľ":9436,"ĠGalle":9437,"222":9438,"Dinamalar":9439,"ÅŁ":9440,"Ġà®ĩà®°à®ª":9441,"ĠBBC":9442,"Ġà®ķà®Łà®²à®Ł":9443,"].(":9444,"à¸£":9445,"Ġà®ķà®¯à®®":9446,"Ġ340":9447,"ĠCre":9448,"Ġinclud":9449,"election":9450,"itorial":9451,".!":9452,"Ġà®ªà®´à®ķà®µ":9453,"à®ıà®²":9454,"ĠOS":9455,"077":9456,"Ġeffect":9457,"Ġ4380900":9458,"ycl":9459,"È«":9460,"Ë®":9461,"à¯Ĭà¯Ī":9462,"à®ħà®Łà®Ļ":9463,"à®ħà®²à®Ļ":9464,"Ġ512":9465,"Ġ1934":9466,"ĠMel":9467,"Ġbirthday":9468,"Ġ185":9469,"138":9470,"ajor":9471,"å½±":9472,"Ġeduc":9473,"ĠKohli":9474,"dro":9475,"à®°à®®à®°à®£à®®":9476,"Ġà®ļà®ķà®ľ":9477,"à®¾.âĢĿ":9478,"ĠPand":9479,"113":9480,".//":9481,"like":9482,"Ġà®ªà®Łà®ªà®Łà®µ":9483,"Ġà®ªà®£à®ļ":9484,"Ġà®Ĭà®ķà®Ļ":9485,"à®®à®°à®µ":9486,"ĠAudio":9487,"Ġsent":9488,"Ġsens":9489,"Ġslams":9490,"Ġhusband":9491,"ishwarya":9492,"Ġà®Ĩà®£à®µà®ķ":9493,"ato":9494,"rying":9495,"Ġprocess":9496,"ollar":9497,"ledge":9498,"EB":9499,"à®ªà®©à®©":9500,"ĠSociety":9501,"ĠBible":9502,"×Ļ×":9503,"OST":9504,"ga":9505,"tra":9506,"Ġ1908":9507,"Ġpers":9508,"ĠVer":9509,"ĠJohn":9510,"Ġstock":9511,"oda":9512,"Ġà®ļà®ķà®²à®µ":9513,"à¯į........":9514,"Ġà®ĥà®ªà®ķ":9515,"ecutive":9516,"ĠYarldeepam":9517,"Ùī":9518,"à®µà®´à®®":9519,"Ġà®ķà®µà®ļà®Ļ":9520,"Ġfinal":9521,"Ġà®µà®Łà®®à®¤":9522,"Ġimage":9523,"arget":9524,"fox":9525,"à®ĩà®ĵ":9526,"ĠSite":9527,"Ġà®ķà®©à®ķà®ļà®ª":9528,"ĠBill":9529,"aina":9530,"older":9531,"ITY":9532,"Ġsmart":9533,"ysis":9534,"à®ªà®²à®ļ":9535,"icon":9536,"Ġfast":9537,"ĠGames":9538,"Ð°Ð²":9539,"Ġtype":9540,"Ġwor":9541,"ĠLord":9542,"Ġ;-)":9543,"assan":9544,"à®İà®©à®¤à®°":9545,"Ġremov":9546,"à®¾).":9547,"à®®à®ķà®®":9548,"Ġà®Ĵà®°à®¤":9549,"à®¿âĢĻâĢĻ":9550,"Ġà¤ķ":9551,"ĠSales":9552,"keel":9553,"å±":9554,"å¾":9555,"à®®à®ļà®°":9556,"Ġà®ķà®ļà®¨":9557,"Ġà®ĩà®²à®¨":9558,"Ġà®ľà®¤":9559,"arat":9560,"1979":9561,"Series":9562,"ique":9563,"ÏĢ":9564,"à®¯à®²à®ķà®ª":9565,"ĠBus":9566,"Ġà®ĩà®´à®µ":9567,"aval":9568,"Ġarea":9569,"International":9570,"/?":9571,"BJP":9572,"GK":9573,"GO":9574,"bum":9575,"Ġpra":9576,"ĠHaasan":9577,"ermen":9578,"elvam":9579,"tv":9580,"à®³à®°à®®":9581,"à®¤à®©à®ļ":9582,"Ġà®®à®©à®īà®³":9583,"Ġfind":9584,"Ġ182":9585,"Ġthings":9586,"Ġ154":9587,"ĠJobs":9588,"ounter":9589,"acc":9590,"Left":9591,"Ġelephant":9592,"à®¯à®²à®ķà®Ļ":9593,"Ġà®ķà®©à®©":9594,"Ġdied":9595,"à®¨à®ķà®°à®ª":9596,"Dt":9597,"Â§":9598,"Ġà®ķà®ªà®Łà®®":9599,"ored":9600,"Ġsit":9601,"Ġcaus":9602,"Ġpur":9603,"ĠHuman":9604,"136":9605,"ained":9606,"à®°à®¹à®¤":9607,"ICK":9608,"iseithi":9609,"á¹Ń":9610,"à®µà®¯à®ª":9611,"à®²à®ķà®ļ":9612,"à®°à®ļà®²":9613,"ĠText":9614,"Ġ1913":9615,"Ġ164":9616,"Ġà®ªà®°à®®à®¹à®®":9617,"ĠMoney":9618,"à®£à®°à®ļ":9619,"inger":9620,"Ġà®Ĩà®²à®¨":9621,"ĠRest":9622,"ĠBel":9623,"Ġdie":9624,"avith":9625,"terlite":9626,"0000000000000000":9627,"ĠElectric":9628,"çĪ":9629,"Ġà®²à®¸":9630,"ĠCas":9631,"ĠVel":9632,"ĠKanyakumari":9633,"237":9634,"ANJU":9635,"Ø§Ø±":9636,"à¯ģâĢĺ":9637,"à®ªà®Łà®©":9638,"à®³à®µà®³":9639,"Ġà®ĵà®¸":9640,"Ġà®ķà®®à®²à®ķ":9641,"Ġgod":9642,"atsapp":9643,"ÐµÐ´":9644,"ĠAPPU":9645,"ĠTamilarul":9646,"Ġil":9647,"Ġriver":9648,"à®£à®³à®µ":9649,"Ġà®ªà®°à®°":9650,"1968":9651,"ĠEnt":9652,"Ġrecord":9653,"BD":9654,"à®Łà®ķà®³":9655,"à®ķà®³à®µà®©":9656,"à®Ĩà®ªà®°":9657,"ĠMc":9658,"Ġsite":9659,"Ġà®·à®ľà®°":9660,"ublished":9661,"Ġà®°à®®à®³":9662,"anning":9663,"Ã¨":9664,"à®¤à®´à®²":9665,"Ġà®Ĩà®Łà®ª":9666,"Ġwent":9667,"Ġà®Ĩà®µà®£à®ķ":9668,"ĠLo":9669,"ĠLyrics":9670,"ĠEN":9671,"urrency":9672,"ĠGoldTamil":9673,"FI":9674,"Ġà®īà®³à®±à®²":9675,"Ġà®µà®²à®ļ":9676,"ĠNad":9677,"ĠReal":9678,"elligence":9679,"PT":9680,"your":9681,"à®ŀà®®":9682,"Ġà®¤à®²à®ª":9683,"à®¯à®ķà®ļ":9684,"Ġ310":9685,"ĠGreen":9686,"ivu":9687,"114":9688,"icture":9689,"à®Īà®Īà®Īà®Ī":9690,"virutcham":9691,"hip":9692,"à¯ģ*":9693,"à¯ģ+":9694,"à¯ģ.......":9695,"eta":9696,"Ġ158":9697,"ĠGarden":9698,"Ġtoge":9699,"alla":9700,"à®Ĭà®Łà®ķ":9701,"ĠTer":9702,"Ġthree":9703,"ander":9704,"ĠKnow":9705,"ICE":9706,"çİĦæľº":9707,"ĠNavigation":9708,"Kh":9709,"SD":9710,"âĺ":9711,"à®¾à¥°":9712,"Ġà®ļà®²à®Ļ":9713,"à®ĩà®¯à®¨":9714,"ĠCamp":9715,"icine":9716,"itation":9717,"Ġcame":9718,"urns":9719,"ĠVi":9720,"ĠVid":9721,"çĶµ":9722,"ĠTeacher":9723,"Sun":9724,"à®ļà®°à®°":9725,"Ġ1935":9726,"à¯į..âĢĻ":9727,"1930":9728,"Ġ159":9729,"Ġà®Īà®´à®®à®ķ":9730,"Ġnanjilnadan":9731,"%;":9732,"dom":9733,"à®¾?//":9734,"à¯į!//":9735,"Ġà®Ĩà®±à®°":9736,"Ġà®Ĩà®±à®Ł":9737,"Ġsave":9738,"reg":9739,"1957":9740,"Ġ162":9741,"ĠUth":9742,"Ð°Ðº":9743,"Ġtogether":9744,"Blog":9745,"goo":9746,"à®ķà®³à®¯":9747,"Ġ420":9748,"190":9749,"Ġequ":9750,"à®ªà®³à®ķ":9751,"à®Łà®¤à®Ļ":9752,"iab":9753,"à®¾..!!":9754,"256":9755,"é«ĺæīĭ":9756,"size":9757,"à®ļà®£à®Ļ":9758,"à®´à®ķà®ļ":9759,"ils":9760,"ĠTamils":9761,"umn":9762,"Ġà®ªà®²à®¤à®Łà®µ":9763,"ouns":9764,"Ġwhy":9765,"ĠEdappadi":9766,"ĠNFTE":9767,"Ġà®ħà®ķà®ķ":9768,"Ġà®ħà®¤à®²":9769,"à®µà®²à®°à®£":9770,"amed":9771,"Ġdetails":9772,"ros":9773,"Ġchief":9774,"Ġà¯¬":9775,"Ð°Ð¼":9776,"ĠUnder":9777,"/.":9778,"och":9779,"Ġà®®à®ķà®µ":9780,"ĠSports":9781,"ĠReviews":9782,"Ġshare":9783,"ç¥ŀ":9784,"à®Ĩà®²à®¯à®¤":9785,"à¯į....!":9786,"ĠNETWOR":9787,"pay":9788,"Ġà®īà®¤à®ķ":9789,"Ġà®¯à®¸":9790,"à®īà®®à®°":9791,"âĢľâĢĿ":9792,"ĠIndust":9793,"234":9794,"ĠShop":9795,"Ġà®ĥà®ªà®¤":9796,"ïĥ":9797,"à¯į#":9798,"à®ļà®²à®©":9799,"ĠCase":9800,"Ġak":9801,"itted":9802,"Ġphotos":9803,"ĠCorporation":9804,"ĠAmerican":9805,"keelainews":9806,"à®¾?-":9807,"andid":9808,"Ġ189":9809,"à®ĥà®°":9810,"ĠExpl":9811,"Ġpolitics":9812,"Ġpostdate":9813,"ĠAccountant":9814,"âĤ¬":9815,"èµĦæĸĻ":9816,"Ġ330":9817,"ĠMuth":9818,"à®Ĳà®¤":9819,"Ġfall":9820,"Ġfarmers":9821,"Ġà®ĥà®ªà®¯à®°":9822,"168":9823,"AME":9824,"ECT":9825,"Ġnaanjilnadan":9826,"-\")[":9827,"à¯ģ!.":9828,"agan":9829,"iven":9830,"ĠInvest":9831,"ðŁĮ":9832,"Ġcondem":9833,"(\"-\")[":9834,"Ab":9835,"self":9836,"Â¸":9837,"à®©à®°à®ļ":9838,"Ġà®ķà®£à®¨":9839,"Ġfail":9840,"aim":9841,"ĠFamily":9842,"165":9843,"cious":9844,"ĠMadras":9845,"Ġà®ĵà®µà®²":9846,"agram":9847,"Ġ148":9848,"ĠUSA":9849,"Ġhappy":9850,"ÙĳÙİ":9851,"Ġä¸":9852,"Ġà´":9853,"à®°à®©à®¤":9854,"Ġà®ħà®©à®©":9855,"à®īà®¸":9856,"Ġà®īà®¯à®°à®Ļ":9857,"Ġtimes":9858,"Ġgrow":9859,"ĠWho":9860,"ances":9861,"Ġà®¨à®¯à®¨":9862,"Ġà®Ĩà®Ĩ":9863,"ĠDeep":9864,"139":9865,"235":9866,"po":9867,"à®ķà®³à®ļ":9868,"à¯Ģ?":9869,"à®ħà®ķà®°":9870,"à®³à®µà®Ļ":9871,"ĠCR":9872,"Ġsn":9873,"Ġcook":9874,"Ġcool":9875,"aiva":9876,"189":9877,"Ġrate":9878,"gg":9879,"à®©à®ªà®Ļ":9880,"à®¨à®°à®ķ":9881,"Ġà®µà®°à®¤à®©":9882,"..\"":9883,"Ġà®ķà®²à®ļà®®":9884,"Ġ1932":9885,"Ġ151":9886,"ĠAli":9887,"à¸Ļ":9888,"AVAI":9889,"GA":9890,"HA":9891,"æŃ":9892,"ĠBlock":9893,"ĠThere":9894,"itional":9895,"ĠApple":9896,"Ġtwitter":9897,"ĠCollector":9898,"åĵģ":9899,"Per":9900,"roll":9901,"ïģ":9902,"à®¨à®µà®ķ":9903,"Ġà®ħà®°à®µà®ķ":9904,"Ġà®īà®°à®ļà®²":9905,"Ġà®ĵà®£":9906,"Ġà®¹à®£":9907,"ĠAuthor":9908,"ĠIII":9909,"1974":9910,"cture":9911,"117":9912,"ĠChe":9913,"ued":9914,"à®®à®³à®®":9915,"ĠIV":9916,"ancial":9917,"Ġcollege":9918,"380":9919,"Ġsign":9920,"Ġfight":9921,"ĠBatt":9922,"Ġ222":9923,"Mah":9924,"é¢":9925,"Ġà®Ĩà®Łà®¤":9926,"à®¯à®²à®©":9927,"à®®à®©à®¨":9928,"Ġ\"(":9929,"Ġ1914":9930,"Ġpress":9931,"oles":9932,"ĠPlan":9933,"Ġminutes":9934,"ĠPERAVAI":9935,"Ġkalviseithi":9936,"Ġà®Ĩà®¤à®©":9937,"Ġà®µà®°à®µà®°":9938,"à®ĩà®Łà®Ļ":9939,"ilt":9940,"Ġden":9941,"idambaram":9942,"igion":9943,"osa":9944,"Ġjob":9945,"Ġ///":9946,".âĢĻ":9947,"ĠNet":9948,"Ġfemale":9949,"allery":9950,"Ġupdate":9951,"ertificate":9952,"Red":9953,"nect":9954,"ĠBrit":9955,"à®Īà®´à®ª":9956,"ĠÐ¡":9957,"men":9958,"Ġà®ħà®¤à®©à®¤":9959,"à®¯à®°à®©":9960,"Ġà®ªà®¤à®¨":9961,"ĠOld":9962,"Ġva":9963,"ugar":9964,"Ð¸Ð½":9965,"ĠÑĥ":9966,"ĠÚ©":9967,"ĠFurn":9968,"Ġperform":9969,"opping":9970,"ĠMotor":9971,"bol":9972,"à¯įï¿½":9973,"à®±à®®à®²":9974,"à®ļà®²à®ªà®¤":9975,"ĠKann":9976,"rime":9977,"ulf":9978,"ĠAbd":9979,"ĠSTAR":9980,"ocuments":9981,"à®±à®°à®¤":9982,"Ġ216":9983,"edi":9984,"Ġ1080":9985,"Ġret":9986,"170":9987,"Ġaround":9988,"Ġà¯Ń":9989,"æľī":9990,"ĠïĤ":9991,"à®ħà®µà®ļà®°à®®":9992,"no":9993,"à®¯à®°à®²":9994,"Ġ1943":9995,"Ġà®¨à®ķà®°à®ķ":9996,"Ġtext":9997,"Ġcontrol":9998,"Air":9999,"à®´à®ķà®©":10000,"à®©à®®à®¯à®®":10001,"ĠPhys":10002,"1949":10003,"ĠGan":10004,"icket":10005,"Ġsuccess":10006,"ĠAcademy":10007,"sung":10008,"à®ļà®ķà®ļ":10009,"Ġà®ĩà®©à®ħà®´":10010,"Ġà®¤à®µà®ª":10011,"ĠBox":10012,"à¯ģ!''":10013,"à¯ĩ!.":10014,"888":10015,"ķ×":10016,"...'":10017,"Ġ1906":10018,"ĠMiss":10019,"1962":10020,"appa":10021,"spir":10022,"²¾":10023,"Â¬":10024,"Ġroom":10025,"à®ľà®£":10026,"Ġ166":10027,"TET":10028,"Ġï¿½ï¿½ï¿½ï¿½ï¿½ï¿½ï¿½ï¿½":10029,"Day":10030,"sec":10031,"à®ķà®ļà®¤":10032,"ĠCON":10033,"ĠBoys":10034,"airav":10035,"surance":10036,"å§Ĳ":10037,"à®¤à®ľ":10038,"à®¯à®²à®¤":10039,"Ġ.\"":10040,"Ġbar":10041,"ema":10042,"Ġà®¤à®°à®®à®£":10043,"eva":10044,"Ġlearn":10045,"oke":10046,"kn":10047,"Ġà®ķà®²à®ķà®²à®µ":10048,"Ġà®¯à®®à®¹":10049,"ĠVive":10050,"145":10051,"à¯į....\"":10052,"Ġalle":10053,"Ġà®ĩà®¤à®¯à®ķ":10054,"alysis":10055,"ĠTable":10056,"Ġfans":10057,"ttext":10058,"116":10059,"à¯ĩ?'":10060,"159":10061,"anges":10062,"229":10063,"endof":10064,"ĠSuresh":10065,"119":10066,"301":10067,"à¯į,[":10068,"arch":10069,"ĠMGR":10070,"askar":10071,"Ġnad":10072,"avai":10073,"ibility":10074,"starttext":10075,"ĠCommun":10076,"endofvid":10077,"%.":10078,"299":10079,"Do":10080,"ĠHom":10081,"à¯ĪâĢĿ,":10082,"anner":10083,"Ġbooks":10084,"vs":10085,"Ġà®¨à®°à®ªà®²":10086,"Ġà®Ĩà®ķà®°":10087,"ĠEnd":10088,"ĠStat":10089,"Ġrespons":10090,"Ġphoto":10091,"Book":10092,"ĠTTV":10093,"asht":10094,"Ġà®ļà®£à®²":10095,"à±ģ":10096,"iterature":10097,"Ġprotected":10098,"ĠTools":10099,"Apr":10100,"Ġà®ħà®¤à®ª":10101,"à®ħà®ķà®®à®¤":10102,"ĠType":10103,"Ġ1941":10104,"ĠPL":10105,"Ġmark":10106,"Ġder":10107,"1969":10108,"Ġ146":10109,"iyal":10110,"ĠUnited":10111,"utter":10112,"To":10113,"lin":10114,"īéľ¸":10115,"à¯ĪÂ»":10116,"à®¤à®°à®µà®°":10117,"Ġà®ħà®£à®Ļ":10118,"Ġà®µà®Łà®ĩà®¨":10119,"Ġà®ļà®¤à®¯à®®":10120,"Ġsoon":10121,"Ġsleep":10122,"à®¾...'":10123,"Ð¾Ñģ":10124,"ARY":10125,"uthi":10126,"ENG":10127,"Ġstudy":10128,"Ġapplication":10129,"IK":10130,"MD":10131,"çĭ":10132,"ĠSearch":10133,"Ġà®Ĩà®³à®£":10134,"ĠDriv":10135,"129":10136,"Ġused":10137,"Ġà®ļà®°à®µà®£à®ªà®µà®©":10138,"At":10139,"Fr":10140,"Å«":10141,"à®²à®¤à®®":10142,"ĠRadio":10143,"à®¤à®ķà®®à®±":10144,"ĠBeauty":10145,"à®µà®£à®¤":10146,"à®¤à®®à®©à®®":10147,"à®ħà®¯à®²":10148,"à¯ĩà®¾.":10149,"ĠSorry":10150,"ĠAfter":10151,"ĠCouncil":10152,"Ġsir":10153,"à®Ĳà®Ļ":10154,"176":10155,"ended":10156,"EX":10157,"nag":10158,"Æ½":10159,"à®°à®µà®Ł":10160,"à®¾_":10161,"à®©à®¤à®¤":10162,"à®©à®´à®ķ":10163,"à®µà®¯à®ļ":10164,"Ġà®ªà®ļà®ª":10165,"ĠSR":10166,"Ġà®ķà®®à®ķ":10167,"iran":10168,"jun":10169,"à®ķd":10170,"Ġà®¤à®©à®Ļ":10171,"isode":10172,"Ġ141":10173,"atham":10174,"247":10175,"Ġarray":10176,"ĠØª":10177,"Tw":10178,"à®¤à®ķà®³":10179,"Ġà®ķà®¹":10180,"ĠAsh":10181,"Ġ1922":10182,"Ġsol":10183,"isu":10184,"ĠBad":10185,"ester":10186,"ability":10187,"Ġjud":10188,"Thenn":10189,"aterials":10190,"VanniOnline":10191,"ny":10192,"à®ħà®µà®ķ":10193,"akthi":10194,"351":10195,"eleb":10196,"uvar":10197,"Ġsecret":10198,"ĠPrime":10199,"FA":10200,"à®¯à®°à®ª":10201,"à®¤à®°à®ķà®£":10202,"Ġà®Ĩà®ķà®©":10203,"omas":10204,"ĠAunty":10205,"raud":10206,"Ġreason":10207,"abh":10208,"eyar":10209,"ĠAnt":10210,"Thennakam":10211,"3000":10212,"650":10213,"Ġ1915":10214,"Ġà®ķà®µà®°à®µ":10215,"umal":10216,"Ġà®ħà®ķà®²à®µ":10217,"åĽ½":10218,"ehicle":10219,"PR":10220,"lation":10221,"à¯ģ,.":10222,"à®ªà®°à®ļà®°":10223,"ĠSand":10224,"Ġsame":10225,"Ġà®ĩà®ļà®Ł":10226,"apuram":10227,"aba":10228,"istic":10229,"ĠIns":10230,"Ġfriends":10231,"ultural":10232,"hal":10233,"paper":10234,"à®µà®ķà®²":10235,"Ġà®ıà®Ĩà®°":10236,"Ġà®ļà®°à®¯":10237,"à®¾?..":10238,"Ġdocument":10239,"206":10240,"Ġ163":10241,"Ġ176":10242,"Ġstrike":10243,"Ġads":10244,"EA":10245,"Sm":10246,"Ã¥":10247,"ocus":10248,"ĠTNTJ":10249,"ruitment":10250,"à®²à®®à®¤":10251,"ĠAval":10252,"ooter":10253,"ikal":10254,"Back":10255,"Ġide":10256,"Ġà®ħà®¤à®©à®¤à®©":10257,"riya":10258,"à®Łà®£à®ķ":10259,"Ġgoogle":10260,"uti":10261,"Ġdoctor":10262,"à®ķà®µà®¤à®®":10263,"Go":10264,"à®¾âĢĭ":10265,"à®¾......":10266,"à®¤à®°à®ķà®Ļ":10267,"ĠSidd":10268,"Ġ1907":10269,"ĠFloor":10270,"roph":10271,"148":10272,"Ġé©¬":10273,"inner":10274,"background":10275,"Ġmedical":10276,"à®°à®®à®¯à®®":10277,"Ġà®ľà®ķà®©":10278,"Ġà®ļà®®à®±":10279,"à®ķà®´à®Ł":10280,"Ġà®Ĳà®ļà®ķ":10281,"Ġà®ªà®¯à®¸":10282,"Ġathir":10283,"Ġ167":10284,"Ġvari":10285,"istance":10286,"ANG":10287,"Ġleg":10288,"Stalin":10289,"ŀäºīéľ¸":10290,"){":10291,"LD":10292,"à®µà®ķà®µ":10293,"à®£à®¯à®ļ":10294,"Ġà®ķà®°à®ķà®°à®ª":10295,"Ġà®ªà®±à®®":10296,"Ġcould":10297,"ĠBOO":10298,"ention":10299,"Ġ203":10300,"ĠVanni":10301,"Ġ1008":10302,"Ġram":10303,"à®Ĭà®ķ":10304,"Ġ:)))":10305,"abarim":10306,"Leftin":10307,";-":10308,"Ġà®ªà®£à®Ļ":10309,"Ġà®®à®Łà®ª":10310,"à®°à®ķà®¸":10311,"à¯Į;":10312,"ĠBut":10313,"ĠWW":10314,"ĠðŁĺĤ":10315,"ria":10316,"à®Łà®°à®¤":10317,"Ġà®ħà®²à®ļà®ª":10318,"ummer":10319,"122":10320,"238":10321,"Ġbeat":10322,"AGA":10323,"çĶŁ":10324,"ĠPornHub":10325,"Ġà®¤à®¯à®°":10326,"à®²à®ķà®µà®¤":10327,"Ġheld":10328,"Ġdate":10329,"Ġlov":10330,"Ġleft":10331,"Ð°Ð·":10332,"ĠVishal":10333,"High":10334,"à®Łà®µà®²":10335,"à®ļà®¯à®°":10336,"Ġà®Ĩà®Łà®µà®©":10337,"Ġmillion":10338,"apers":10339,"Ġà®ķà®ļà®ķà®ļ":10340,"Ġstay":10341,"âĢ¦âĢ¦..":10342,"sl":10343,"Ñī":10344,"atives":10345,"à¯įâĢĻ-":10346,"itive":10347,"Ġda":10348,"Ġothers":10349,"çīĮ":10350,"xxx":10351,"Ġreturn":10352,"source":10353,"à®ĩà®·":10354,"à®Łà®²à®ª":10355,"Ġ301":10356,"onment":10357,"à¯į...,":10358,"Ġ1933":10359,"ĠDaw":10360,"Ġhands":10361,"à®Ĭà®±":10362,"quir":10363,"Trans":10364,"Ge":10365,"æĮ":10366,"à®¿},":10367,"à¯Ī,âĢĿ":10368,"à®ĩà®¤à®¯à®¤":10369,"ĠPoo":10370,"ĠDriver":10371,"agon":10372,"otion":10373,"Ġà®ªà®°à®µà®µ":10374,"ĠAnna":10375,"stitution":10376,"ĠResponses":10377,"éĻ":10378,"Ġà®ªà®°à®Ł":10379,"Ġ195":10380,"Ġpan":10381,"1973":10382,"Ġ2021":10383,"ĠKan":10384,"ĠHC":10385,"ĠWin":10386,"Ġkeep":10387,"Ġprov":10388,"Ġspamb":10389,"Ġà¯«":10390,"PDF":10391,"her":10392,"à®ªà®µà®ķ":10393,"à¯Ī.,":10394,"Ġà®ªà®´à®µ":10395,"irty":10396,"Ġlost":10397,"illai":10398,"æľĢ":10399,"IFTY":10400,"ĠAmerica":10401,"Ġspambots":10402,"uh":10403,"åİ":10404,"à®ķà®¯à®®":10405,"à®ķà®ļà®©":10406,"Ġà®İà®µà®³":10407,"Ġthreat":10408,"Ġhours":10409,"ette":10410,"Ram":10411,"à®Łà®ķà®µ":10412,"online":10413,"Ġself":10414,"rec":10415,"Ġà®ķà®©à®ķà®ļ":10416,"Ġmadurai":10417,"oose":10418,"Ġ!âĢĿ":10419,"153":10420,"Ġmean":10421,"Ġappro":10422,"Acc":10423,"joy":10424,"Ġà®ħà®®à®®":10425,"ĠMs":10426,"Ġsus":10427,"Ġthen":10428,"1920":10429,"1976":10430,"à®ĩà®¤à®©à®Ł":10431,"ivation":10432,"apuri":10433,"æĥħ":10434,"Modi":10435,"à®¤à®īà®°":10436,"à®µà®©à®ļ":10437,"Ġà®İà®´à®ķ":10438,"omi":10439,"ĠHoroscope":10440,"Ġproblem":10441,"ening":10442,"ici":10443,"Ġcover":10444,"urt":10445,"ĠShah":10446,"ĠPostà®ķ":10447,"Ġplant":10448,"ĠSpeech":10449,"æĺ¯":10450,"à§":10451,"Ġà®®à®ĩà®ķ":10452,"ado":10453,"Ġsep":10454,"Ġcoll":10455,"à®ķà®±à®µà®©":10456,"ĠGalaxy":10457,"Ġloss":10458,"Ġâĸ":10459,"DMK":10460,"Post":10461,"à¯įà®¿":10462,"à®·à®¨":10463,"Ġà®Ĭà®ķà®®":10464,"Ġà®¤à®°à®©":10465,"à®¯à®µà®£":10466,"Ġà®ķà®¤à®ķà®¤à®ª":10467,"aged":10468,"ĠKoo":10469,"ĠJournal":10470,"iqu":10471,"ĠMillion":10472,"ĠFed":10473,"Ġ2025":10474,"à¯įâĢ¦?":10475,"bert":10476,"ISH":10477,"ĠLaunch":10478,"Ġà®¤à®ľ":10479,"à®¯à®ķà®Ł":10480,"Ġà®ĵà®Łà®®":10481,"à®ĩà®¤à®¯à®®":10482,"à®ıà®±à®ķ":10483,"Ġfeat":10484,"1940":10485,"Ġstar":10486,"Ġà®ĩà®²à®µà®ļà®ª":10487,"ANK":10488,"Â¥":10489,"à®°à®·à®©":10490,"Ġà®ĩà®Łà®²":10491,"à®ķà®µà®®":10492,"à®Ĩà®·":10493,"Ġ187":10494,"Ġà®ªà®µà®³à®®":10495,"ellai":10496,"aiyin":10497,"à®ĩà®²à®µà®ļà®®":10498,"ĠBrok":10499,"310":10500,"kur":10501,"Ġà®¤à®Łà®ķ":10502,"à®°à®£à®ķà®°":10503,"Ġà®¤à®Łà®¯à®®":10504,"à¯į;,":10505,"ĠLearn":10506,"Ġannounced":10507,"Ġ1923":10508,"itude":10509,"Ġhold":10510,"aig":10511,"chennai":10512,"Ġ?!":10513,"126":10514,"Ġvol":10515,"assment":10516,"ĠAccess":10517,"ĠStudent":10518,"venue":10519,"ĠÙĦ":10520,"Ġ1912":10521,"ĠPud":10522,"1964":10523,"Ġ[]":10524,"ĠXXX":10525,"ĠThirum":10526,"CA":10527,"Ġà®ķà®ľà®ķ":10528,"Ġà®¹à®¯à®ķ":10529,"Ġdu":10530,"ç®Ĺ":10531,"face":10532,"Ġà®¤à®©à®°":10533,"race":10534,"orders":10535,"wan":10536,"ĠSol":10537,"Ġ.(":10538,"osis":10539,"à¤¦":10540,"Ġleave":10541,"ega":10542,"Ġcollector":10543,"ĠThiruvar":10544,"ĠJayalalithaa":10545,"à®³à®ŀ":10546,"Ġà®¸à®©":10547,"Ġ1909":10548,"Ġdet":10549,"ples":10550,"rica":10551,"rities":10552,"Ġgoes":10553,")-(":10554,"BA":10555,"Ġà®ļà®ķà®ª":10556,"à®İà®ŀ":10557,"Ġà®Ĳà®µ":10558,"amalai":10559,"Ġà®ķà®´à®ķà®ķ":10560,"ĠYO":10561,"ĠKarthik":10562,"ÐºÐ¸":10563,"ĠStudents":10564,"Teacher":10565,"ĠMagazine":10566,"Ġathirvu":10567,"VP":10568,"à®¾à®¾":10569,"Ġà®ķà®²à®Ł":10570,"à®¿.!":10571,"igns":10572,"à¤¸":10573,"297":10574,"orning":10575,"adhal":10576,"à®¿[":10577,"Ġà®Łà®¯à®¸":10578,"state":10579,"Ġ157":10580,"Ġtamilsex":10581,"ternal":10582,"ĠSingapore":10583,"nbsp":10584,"BBC":10585,"IY":10586,"Ġà®¤à®ķà®®":10587,"Ġ275":10588,"456":10589,"Ġparticip":10590,"ĠApplication":10591,"ä¹Ī":10592,"à®©à®°à®Ļ":10593,"à®®à®©à®ķ":10594,"à¤ª":10595,"Ġcomple":10596,"à®¾âĢ¦..":10597,"à¥ģ":10598,"à¯ĩâĢĻ,":10599,"Ġusing":10600,"åħŃ":10601,"Ġobject":10602,"den":10603,"Å¡":10604,"à®¿||":10605,"à®©à®µà®ķ":10606,"à®£à®ķà®¤":10607,"à®ļà®°à®Ļ":10608,"Ġhard":10609,"Ġ20000":10610,"ĠÂ´":10611,"Ġaccept":10612,"vironment":10613,"elebrities":10614,"BM":10615,"lar":10616,"Ãº":10617,"æµ":10618,"à¯ģ.........":10619,"Ġà®ħà®´à®ķà®®":10620,"à¯į!...":10621,"à®İà®©à®ª":10622,"ĠFish":10623,"ĠEqu":10624,"à¯ģ;.":10625,"Ġà®±à®©":10626,"Ġà®ħà®ľà®¨":10627,"133":10628,"itting":10629,"Ġcheck":10630,"Ġang":10631,"à®µà®°à®ļà®©":10632,"Ġ\",":10633,"Ġfiled":10634,"Ġbudget":10635,"1945":10636,"avin":10637,"health":10638,"à®ķà®®à®µ":10639,"à®¤à®²à®µ":10640,"Ġà®ıà®ľà®©":10641,"Ġà®²à®ľ":10642,"ĠSan":10643,"Ġà®·à®¹":10644,"Ġclear":10645,"Ġhuman":10646,"à¯įâĢ¦âĢ¦.":10647,"osophy":10648,"Ġ1700":10649,"Ġtalks":10650,"October":10651,"ĠPictures":10652,"Ġà®ªà®ĥà®ª":10653,"Ġà®ľà®µà®Ł":10654,"Ġà®²à®©":10655,"Ġterm":10656,"ĠEarth":10657,"Ġleaves":10658,"Ġà®ļà®¹à®¸":10659,"Ġpresident":10660,"Hy":10661,"da":10662,"Ġà®īà®ªà®©":10663,"ĠSens":10664,"icode":10665,"Ġ156":10666,"Ġà®±à®®":10667,"249":10668,"ĠØ±":10669,"ĠDepartment":10670,"à®ķà®µà®©à®¤":10671,"à¯į\"\"":10672,"Ġà®ļà®©à®²":10673,"Ġ188":10674,"akrishnan":10675,"Ġgiven":10676,"flu":10677,"à¯Ī!!!":10678,"Ġà®µà®©à®ķ":10679,"Ġà®Ĩà®ķà®®à®®":10680,"Ġà®ªà®Łà®ļ":10681,"à®ķà®²à®µà®°à®Ļ":10682,"à®īà®¨":10683,"ĠSab":10684,"stamil":10685,"ĠRavi":10686,"Ġfac":10687,"Ġfeet":10688,"empt":10689,"ĠOver":10690,"Ġnov":10691,"åħ¨":10692,"ç½ĳç«Ļ":10693,"Ġcomplaint":10694,"Ġà®ħà®°à®ļà®ª":10695,"Ġà®ĵà®Łà®²":10696,"amma":10697,"stagram":10698,"ĠMain":10699,"à°²":10700,"DR":10701,"hra":10702,"ually":10703,"à®¯à®ħà®°à®ļ":10704,"Ġà®µà®¯à®±":10705,"esan":10706,"Ġwealth":10707,"ĠGlobal":10708,"uli":10709,"æľ¬":10710,"Ġscreen":10711,"à®ħà®®à®°à®°":10712,"deal":10713,"pan":10714,"Ġans":10715,"Ġà®ĵà®µà®©":10716,"Ġins":10717,"303":10718,"Ġ25000":10719,"152":10720,"TEACHER":10721,"ĠPradesh":10722,"ĠReading":10723,"ĠVirat":10724,"ĠScheme":10725,"/%":10726,"mit":10727,"Ġà®İà®ľ":10728,"à¯į?:":10729,"Ġà®ªà®°à®®à®¤":10730,"raman":10731,"oken":10732,"Ġappoint":10733,"ĠDeath":10734,"HO":10735,"ring":10736,"Ġbased":10737,"à®Ĩà®°à®ŀ":10738,"à¯ģ..\"":10739,"under":10740,"DPI":10741,"alapathy":10742,"Ġletter":10743,"âŀ":10744,"à®¸à®µà®®":10745,"Ġà®ħà®°à®³":10746,"à®ħà®ķà®¨":10747,"Ġà®ħà®ªà®¯à®®":10748,"à¯į...''":10749,"Ġ1927":10750,"Ġcup":10751,"à¯Įà¯į":10752,"ĠTamilNews":10753,"Ġhor":10754,"à®©à®²à®Ł":10755,"ersal":10756,"achin":10757,"alaim":10758,"Ġclose":10759,"ĠÙģ":10760,"ĠØ§ÙĦÙĦ":10761,"ĠUpdates":10762,"ĠSeithigal":10763,"èĢ":10764,"éĥ":10765,"à®ħà®°à®ķ":10766,"ĠFast":10767,"Ġnar":10768,"à®Īà®ļ":10769,"ogn":10770,"Ġlevel":10771,"Ġoffer":10772,"ĠWeekly":10773,"rat":10774,"Ġà®ĩà®¤à®ª":10775,"alee":10776,"à®Ĳà®©":10777,"ĠKore":10778,"142":10779,"à®ľà®®à®µ":10780,"ache":10781,"ĠHotel":10782,"ĠPrabh":10783,"aivam":10784,"Ġeconom":10785,"ĠFoundation":10786,"à®Łà®®à®±":10787,"Ġà®ħà®´à®²":10788,"à®°à®ļà®¤":10789,"thumb":10790,"Ġà®ĩà®Łà®¨":10791,"à¯ģ?!":10792,"Ġà®ĩà®®à®¯à®¤":10793,"à®ĩà®³à®ŀ":10794,"Story":10795,"æĸ°":10796,"Met":10797,"SR":10798,"vis":10799,"à¯Ĥ...":10800,"Ġà®²à®µà®Ļ":10801,"ĠMicro":10802,"iram":10803,"Ġkamal":10804,"Ġyouth":10805,"ARD":10806,"Ġå½©ç¥":10807,"Ne":10808,"ky":10809,"may":10810,"sw":10811,"à¯ĩ.!":10812,"ĠNO":10813,"Ġ245":10814,"248":10815,"ĠðŁĳ":10816,"omet":10817,"ste":10818,"Ġ636":10819,"Ġà®Ĭà®°à®±":10820,"1966":10821,"ĠGet":10822,"perty":10823,"iddle":10824,"harmapuri":10825,"Be":10826,"à®ļà®¯à®ķ":10827,"à®¯à®¨à®²à®µ":10828,"eeth":10829,"Ġarticleà®¤":10830,"OGY":10831,"å¿«":10832,"incip":10833,"åŃĲ":10834,"à®¸à®¹":10835,"atu":10836,"adav":10837,"ĠRuss":10838,"ĠEur":10839,"Ġstop":10840,"ĠSource":10841,"à®©à®µà®ª":10842,"ĠAsp":10843,"agu":10844,"Ġnational":10845,"________________________________":10846,"Ġmovies":10847,"åĩĨ":10848,"can":10849,"à®¨à®ŀ":10850,"à¯ĢâĢĮ":10851,"Ġà®īà®¯à®°à®µ":10852,"oly":10853,"ĠOb":10854,"iki":10855,"inder":10856,"Ġà®īà®ªà®ķà®°à®£à®®":10857,"Ag":10858,"mission":10859,"à®ķà®Łà®¹à®°":10860,"Ġmah":10861,"Ġdirect":10862,"ida":10863,"Ġ2050":10864,"ĠLight":10865,"aken":10866,"overy":10867,"angai":10868,"ĠØ¯":10869,"Nm":10870,"ĠPanch":10871,"Ġtv":10872,"Ġposs":10873,"ĠFollow":10874,"change":10875,"rier":10876,"à¯ĩ...'":10877,"à®¿?\"":10878,"engue":10879,"ÙĪØ±":10880,"ĠLinked":10881,"ĠEXAM":10882,"à®¿âĢĺ":10883,"Ġà®ªà®²à®ļà®°à®ķ":10884,"à®ļà®²à®Ļ":10885,"Ġmal":10886,"Ġbattle":10887,"avam":10888,"à¯į....âĢĿ":10889,"ugam":10890,"ĠAmb":10891,"ãĢĢ":10892,"ĠViral":10893,"ĠSamsung":10894,"Ġvisited":10895,"225":10896,"Braz":10897,"UG":10898,"à®¤à®¯à®ª":10899,"Ġà®®à®ļà®ķ":10900,"ĠâĢĽ":10901,"orin":10902,"edu":10903,"ĠBang":10904,"Ġhel":10905,"Ġaffect":10906,"ARE":10907,"Ġarticleà®ļ":10908,"utham":10909,"Ġactiv":10910,"AKK":10911,"ribution":10912,"åľ¨":10913,"Sing":10914,"lication":10915,"à®īà®®à®¤":10916,"ĠSound":10917,"ĠND":10918,"Ġmale":10919,"ĠDuration":10920,"ĠWoman":10921,"ĠInstall":10922,"uggle":10923,"riculture":10924,"vention":10925,"Ġtomorrow":10926,"à®µà®Łà®¤":10927,"Ġà®¤à®ķà®¤":10928,"Ġà®ĩà®ĥà®ª":10929,"à¯ģ.]":10930,"à®ķà®²à®¯":10931,"amin":10932,"ĠPlease":10933,"Ġpen":10934,"asc":10935,"aikal":10936,"Ġoil":10937,"rap":10938,"ĠShankar":10939,"ART":10940,"oj":10941,"à®£à®ªà®Ł":10942,"Ġà®Ĩà®®à®£à®ķ":10943,"Ġà®Ĳà®ĵà®İà®¸":10944,"Ġ1904":10945,"Ġpop":10946,"osed":10947,"redit":10948,"Ãª":10949,"Ġà®ıà®¸":10950,"iling":10951,"Ġsad":10952,"Ġtir":10953,"Ġpain":10954,"anta":10955,"ĠYog":10956,"ĠEnergy":10957,"Ġlet":10958,"ĠProcess":10959,"ampion":10960,"ASIRI":10961,"fic":10962,"ford":10963,"à¯ĤâĢĮ":10964,"Ġà®ªà®Łà®ªà®Łà®¤":10965,"Ġà®ªà®°à®µà®ķ":10966,"ĠProm":10967,"ĠBan":10968,"ĠIssue":10969,"185":10970,"370":10971,"333":10972,"Ġanother":10973,"Feb":10974,"gi":10975,"model":10976,"à®®à®£à®°à®²":10977,"Ġbal":10978,"ements":10979,"155":10980,"ubai":10981,"ĠStore":10982,"Ð¸Ðµ":10983,"à®ĩà®³à®µà®°à®ļà®°":10984,"oa":10985,"Ġà®ħà®¤à®ķà®³à®®":10986,"Ġà®ıà®ķà®²":10987,"ĠVI":10988,"à®¾!âĢĻ":10989,"à¯Ī?\"":10990,"Ġrap":10991,"Ġcontin":10992,"ĠISIS":10993,"struction":10994,"abarimala":10995,"AGAASIRI":10996,"AGAASIRIYAR":10997,"à®ħà®¤à®°":10998,"à®ħà®±à®¨":10999,"Ġà®µà®´à®µ":11000,"rew":11001,"andy":11002,"ĠViber":11003,"ĠEp":11004,"otional":11005,"175":11006,"Ġjobs":11007,"Ġcentral":11008,"Sec":11009,"fig":11010,"Ã·":11011,"à®ªà®¤à®Ł":11012,"Ġà®ªà®Łà®ªà®Łà®ķ":11013,"à®ļà®¤à®¨":11014,"à®Ĵà®ļ":11015,"ĠCond":11016,"Ġcu":11017,"à¯ģ?''":11018,"Ġaudio":11019,"à¯ĭ?âĢĻ":11020,"âĨĲ":11021,"TAMILAGAASIRIYAR":11022,")(":11023,",;":11024,"PI":11025,"à®¨à®Łà®©à®®":11026,"ĠTor":11027,"Ġ..?":11028,"------":11029,"AGE":11030,"Ġaddress":11031,"FT":11032,"à®®à®¯à®Ļ":11033,"Ġà®ħà®©à®¤":11034,"Ġà®¹à®°à®ª":11035,"Ġcost":11036,"Ġmaking":11037,"airam":11038,"ivery":11039,"ables":11040,"à®Łà®¯à®®à®²":11041,"itions":11042,"Ð»Ñı":11043,"Ġstarted":11044,"reedom":11045,"à®Łà®ĥà®ª":11046,"âĢ³":11047,"Ġà®¸à®µ":11048,"à®Ĳà®ľ":11049,"ĠDom":11050,"Ġdisease":11051,"ĠFREE":11052,"ague":11053,"Ġgives":11054,"Ġ224":11055,"epl":11056,"Ġspace":11057,"ĠTrail":11058,"!.":11059,"kia":11060,"à®²à®ķà®³":11061,"à®¨à®²à®ª":11062,"à®µà®®à®¯à®®":11063,"ĠNeg":11064,"rect":11065,"ĠNewsAug":11066,"ellow":11067,"span":11068,"eals":11069,"Inter":11070,"Co":11071,"Ġà®µà®²à®Ļ":11072,"ĠGR":11073,"comes":11074,"à®ĩà®°à®ŀ":11075,"Ġvillage":11076,"ĠSEKAR":11077,"OB":11078,"van":11079,"Ġà®ķà®ļà®Ł":11080,"Ġà®¤à®µà®©":11081,"Ġà®ĵà®¤à®ª":11082,"ĠRoll":11083,"Ġvan":11084,"à®¾'.":11085,"ialog":11086,"ashion":11087,"Ġemail":11088,"Ġelephants":11089,"JACK":11090,"ĠMass":11091,"Ġwish":11092,"Ġ174":11093,"à®µà®²à®ķà®ķ":11094,"Ġalong":11095,"Ġofficer":11096,"ĠWhen":11097,"ception":11098,"Em":11099,"ME":11100,"à®ªà®³à®°":11101,"à®¨à®¯à®¤":11102,"ĠRights":11103,"Ġnetwork":11104,"abled":11105,"anned":11106,"ĠFinance":11107,"Ġframes":11108,"Ġå½©ç¥ŀäºīéľ¸":11109,"font":11110,"à¯ĩ}":11111,"inary":11112,"ĠSet":11113,"à¯į...)":11114,"à®¯à®µà®°à®®":11115,"à®¤à®ļà®ķ":11116,"ĠOK":11117,"Ġ[[":11118,"istor":11119,"tual":11120,"à¯ĩ).":11121,"Ġà®ıà®²à®µ":11122,"Ġà®Īà®¯à®®":11123,"this":11124,"ĠMor":11125,"Ġpat":11126,"Ġ169":11127,"à®ĵà®¹":11128,"utic":11129,"äºĮ":11130,"Ġbreak":11131,"');":11132,"TTE":11133,"ĠSays":11134,"Ġ1903":11135,"tty":11136,"à®ªà®¯à®©à®°":11137,"à®Īà®®":11138,"ãģĭ":11139,"Ġexperience":11140,"Ġà®īà®ªà®¤à®²":11141,"Äģn":11142,"Ã£o":11143,"emples":11144,"Cent":11145,"FL":11146,"à¯ĩ.,":11147,"ads":11148,"Ġsat":11149,"usion":11150,"143":11151,"à®¿...!":11152,"à¯į.):":11153,"appu":11154,"Ġflower":11155,"Ġallow":11156,"Ġcommission":11157,"ĠMichael":11158,"Rah":11159,"ds":11160,"pass":11161,"à¯Ī&":11162,"à®±à®°à®ļ":11163,"ĠMall":11164,"ĠPen":11165,"Ġpark":11166,"179":11167,"Ġ284":11168,"endtext":11169,"365":11170,"ITC":11171,"Ġindust":11172,"Ġdesign":11173,"ĠFormat":11174,"Ġavailable":11175,"Ġappeared":11176,"ĠLimited":11177,"×¼":11178,"à®©à®µà®²":11179,"à®ªà®ļà®²":11180,"Ġà®ıà®µà®²à®°":11181,"à®ħà®Łà®°":11182,"Ġseek":11183,"Ġcrit":11184,"Ġà®Ĩà®²à®¯à®ª":11185,"ĠDNA":11186,"Ġ!\"":11187,"ĠJack":11188,"à®ħà®¤à®©à®Ł":11189,"ĠÐ³":11190,"Ð»Ð¸":11191,"Ġstrength":11192,"ðŁĻı":11193,"pet":11194,"à¯ģ.?":11195,"ĠSasikala":11196,"ĠAL":11197,"Ġbas":11198,"ĠArun":11199,"attinam":11200,"à°¨":11201,"ATA":11202,"Ġincluding":11203,"Î·":11204,"ĠFan":11205,"207":11206,"Ġ178":11207,"141":11208,"BSE":11209,"OSH":11210,"ĠSalem":11211,"Dh":11212,"eth":11213,"à®¿.-":11214,"Ġbetter":11215,"ĠHu":11216,"Ġnever":11217,"Ġlot":11218,"à®¾..?âĢĿ":11219,"259":11220,"233":11221,"inistry":11222,"JACKIE":11223,")\"":11224,"Free":11225,"SO":11226,"à®ĩà®°à®ķ":11227,"ĠSU":11228,"Ġlab":11229,"Ġgave":11230,"à¯į(?)":11231,"Ġkam":11232,"184":11233,"ĠThoothukudi":11234,"35809":11235,"Ġà®ħà®ķà®®à®ķ":11236,"Ġsuff":11237,"ĠCCTV":11238,"allenge":11239,"do":11240,"ming":11241,"à®ªà®±à®¨":11242,"à®³à®´à®ķà®°":11243,"à®īà®¤à®¯":11244,"ĠTiles":11245,"ĠNH":11246,"Ġinternet":11247,"à®ĵà®¤":11248,"ĠAsian":11249,"ĠScreen":11250,"Ġruns":11251,"à®ªà®£à®ª":11252,"à¯Ĥ)":11253,"à®®à®©à®©":11254,"amous":11255,"à®®à®°à®ªà®£":11256,"ĠAffairs":11257,"asp":11258,"ĠIr":11259,"ĠLic":11260,"ĠNokia":11261,"Kamal":11262,"Of":11263,"à®©à®Łà®ª":11264,"Ġà®ĩà®©à®°":11265,"Ġà®İà®±à®Ļ":11266,"Ġà®īà®µà®¨":11267,"Ġà®ĵà®®à®®":11268,"à®¤à®µà®°à®®":11269,"esw":11270,"158":11271,"à®¾...!":11272,"ĠTrending":11273,"Ġissues":11274,"TF":11275,"Ġill":11276,"à®£à®²à®¤":11277,"à¯ģ.-":11278,"à®ĩà®°à®ļ":11279,"à®ĩà®ħà®¤":11280,"Ġà®Īà®´à®ķ":11281,"Ġà®īà®Łà®²à®³à®µ":11282,"Ġbi":11283,"Ġbad":11284,"1952":11285,"ĠKn":11286,"Ġlooking":11287,"147":11288,"erve":11289,"aiyan":11290,"Ã³n":11291,"Ġfront":11292,"à®°à®³à®ª":11293,"à®µà®ªà®Ł":11294,"ĠSund":11295,"ĠMax":11296,"Ġmass":11297,"Ġhit":11298,"Ð°Ñı":11299,"à¥ĭ":11300,"ĠPostà®ª":11301,"Ġcloud":11302,"type":11303,"wordpress":11304,"?''":11305,"Â¾":11306,"Ġ\\\\":11307,"Ġtitle":11308,"ĠDhanush":11309,"Ġ15000":11310,"à°Ĥ":11311,"Ġexp":11312,"Dev":11313,"LED":11314,"pre":11315,"âĪĴ":11316,"à¯ĭâĢ¦.":11317,"à®Ļà®ķ":11318,"à®®à®²à®©":11319,"à®İà®²à®ķ":11320,"Ġà®ļà®°à®µà®£à®ķ":11321,"Ġà®¤à®£à®²":11322,"121":11323,"à®¾!'":11324,"Ġà®ªà®µà®³à®ª":11325,"Ġcomes":11326,"Ġà®ķà®´à®ķà®ļ":11327,"Ġarticleà®µ":11328,"Ġready":11329,"à¯ĪâĢ¦âĢĿ":11330,"/////":11331,"/)":11332,"?,":11333,"ney":11334,"æł":11335,"è·":11336,"à®©à®ļà®ª":11337,"à®¨à®¸":11338,"Ġà®®à®±à®µà®©":11339,"omatic":11340,"Ġ950":11341,"Ġà®µà®³à®ļà®°à®µ":11342,"Ġ247":11343,"essional":11344,"Ġà®ªà®ķà®²à®µà®©":11345,"ðŁı":11346,"Ġruined":11347,"PE":11348,"nh":11349,"çĲ":11350,"à®°à®ķà®£":11351,"Ġà®¯à®µ":11352,"esus":11353,"Ġ1901":11354,"ĠPalanisamy":11355,"Ġ021":11356,"Ġkind":11357,"ĠProtest":11358,"ÑģÑı":11359,"Ġå¹":11360,"ĠTech":11361,"Äģl":11362,"ĠMonth":11363,"ĠMBBS":11364,"ĠDiwali":11365,"æĹ¶":11366,"TeacherTN":11367,"Del":11368,"VU":11369,"Ġà®ķà®³à®ķ":11370,"à®ļà®®à®²à®°":11371,"à¯ĢâĢ¦":11372,"Ġlarge":11373,"Ġindian":11374,"Ġseason":11375,"ĠSr":11376,"ĠBE":11377,"aidu":11378,"ĠGram":11379,"Ġstore":11380,"pres":11381,"Ġteacher":11382,"Ġdelicate":11383,"dict":11384,"sa":11385,"è£":11386,"Ġà®İà®Łà®®":11387,"Ġà®ıà®³à®©":11388,"ilet":11389,"Ġ567":11390,"icers":11391,"ĠPad":11392,"ĠRos":11393,"Ġbo":11394,"iru":11395,"imate":11396,"TamilEn":11397,"ymbol":11398,"à¥¤à¥¤":11399,"iritual":11400,"à®ħà®²à®°":11401,"Ġthick":11402,"ĠVan":11403,"Ġrasi":11404,"à¯Ī...!":11405,"ãĤĬ":11406,"à®¤à®ķà®µà®²à®±":11407,"Ġamb":11408,"Ġà®ļà®ªà®¤à®¤":11409,"à¯Ģ(":11410,"Ġà®ªà®°à®¤à®®":11411,"Ġfarm":11412,"ãģ£":11413,"åĽĽ":11414,"Ġperfect":11415,"wareness":11416,"Ġeducation":11417,"PH":11418,"à®¤à®ļà®°":11419,"Ġà®ļà®µà®Ł":11420,"Ġà®¨à®¹":11421,"à¯į,,,":11422,"à®µà®®à®¤":11423,"à¯į!!!!":11424,"Ġcity":11425,"Ġwalk":11426,"Ġaff":11427,"Ġlow":11428,"131":11429,"endar":11430,"ĠÐļ":11431,"Ġcomedy":11432,"afety":11433,"å½©åĽ¾":11434,"ronics":11435,"Ġpresent":11436,"Ġspeaks":11437,"à®ķà®ľà®®":11438,"à®¤à®ļà®°à®¸":11439,"à®Łà®®à®ļ":11440,"à®ķà®Łà®µà®©":11441,"aters":11442,"Ġà®ķà®®à®²à®®":11443,"à®Ĳà®İà®®":11444,"ĠDetails":11445,"akar":11446,"ivid":11447,"Ġgame":11448,"134":11449,"Ġ4500":11450,"roversy":11451,"216":11452,"Pet":11453,"Ġà®ħà®°à®ļà®²":11454,"Ġà®Īà®Łà®©":11455,"Ġcal":11456,"Ġcopy":11457,"Ġfew":11458,"Ġ172":11459,"ĠStyle":11460,"Ġwhile":11461,"elete":11462,"Ġimp":11463,"ĠWhatsapp":11464,"padding":11465,"280":11466,"radi":11467,"à®ļà®¤à®°":11468,"à®ħà®²à®ķ":11469,"Ġ(-":11470,"andi":11471,"Ġ184":11472,"208":11473,"alli":11474,"Ġà®ªà®ķà®µà®©":11475,"Ġarticleà®®":11476,"ĠXX":11477,"ORT":11478,"Ġclassified":11479,"Ġà®µà®´à®µà®´à®ª":11480,"El":11481,"VM":11482,"uice":11483,"Ġà®ķà®ªà®®":11484,"à®©à®¤à®¯":11485,"erland":11486,"Ġà®µà®Łà®µ":11487,"oms":11488,"elt":11489,"Ġgossip":11490,"ãĤĤ":11491,"ĠEdit":11492,"ucherry":11493,"aught":11494,"Ġà®Ĭà®£":11495,"onus":11496,"ĠAns":11497,"ico":11498,"Ġpor":11499,"Ġ206":11500,"uls":11501,"156":11502,"à®¿âĢĿ,":11503,"ERT":11504,"................................":11505,"AW":11506,"Ass":11507,"function":11508,"mal":11509,"à¯ģ--":11510,"Ġà®¤à®©à®²":11511,"à®¹à®³":11512,"ĠTamiz":11513,"Ġà®ªà®ļà®¯":11514,"ĠKm":11515,"à®ķà®¨à®¨":11516,"Ġ303":11517,"205":11518,"allikat":11519,"ĠNanayam":11520,"Ġfragrant":11521,"mod":11522,"Ġà®µà®°à®²à®ķ":11523,"à®Ĩà®Łà®®":11524,"inata":11525,"ĠTim":11526,"Ġple":11527,"ĠKAL":11528,"ainst":11529,"Ġearth":11530,"@@":11531,"Not":11532,"SM":11533,"ves":11534,"à®²à®ĥ":11535,"à®Ĳà®¯à®°":11536,"ĠRate":11537,"ĠRob":11538,"ĠBR":11539,"ĠGovernor":11540,"ĠKur":11541,"ĠEr":11542,"article":11543,"ashmir":11544,"ronic":11545,"åĲĪ":11546,"TamilEnfo":11547,"Ġà®®à®¯à®©":11548,"à¯į.âĢĭ":11549,"ĠTalk":11550,"ouk":11551,"child":11552,"ums":11553,"anne":11554,"Ø§Ø":11555,"appan":11556,"ĠRock":11557,"á¹ī":11558,"Ġpetition":11559,"Black":11560,"uan":11561,"Ġà®²à®¹":11562,"ĠMadh":11563,"Ġlim":11564,"rac":11565,"ervation":11566,"Ġsecurity":11567,"%),":11568,")âĢĿ":11569,"Ġenc":11570,"Ġà®ħà®¤à®µ":11571,"Ġà®ľà®ļ":11572,"Ġà®²à®°":11573,"ĠâĢĺ.":11574,"Ġà®ķà®¤à®ķà®³":11575,"Ġdeb":11576,"1954":11577,"ĠOR":11578,"ÐµÐº":11579,"ä¸į":11580,"Ġà®ªà®°à®¤à®µà®°":11581,"Ð¾Ð³Ð¾":11582,"Ap":11583,"Di":11584,"Don":11585,"ià®¯":11586,"Å¾":11587,"Åį":11588,"×ķ×":11589,"ĠPoint":11590,"à®Ĳà®¯à®ª":11591,"Ġmuth":11592,"Ġbhp":11593,"Ġdom":11594,"roc":11595,"ikes":11596,"ĠJio":11597,"Ġrice":11598,"245":11599,"ĠAnti":11600,"ĠGrand":11601,"OLOGY":11602,"ĠPrescription":11603,":#":11604,"Gl":11605,"à©":11606,"æĶ":11607,"à®·à®®à®¤":11608,"Ġà®¨à®®à®¹":11609,"ĠNIFTY":11610,"Ġcm":11611,"Ġà®Ĭà®´à®²à®±":11612,"ifty":11613,"eps":11614,"ĠâĢ¦âĢ¦":11615,"anged":11616,"ASH":11617,"Comments":11618,"well":11619,"Ġä¹":11620,"à®ķà®¯à®²":11621,"ĠBoy":11622,"bery":11623,"aysia":11624,"Ġintro":11625,"Ġrights":11626,"à®ĩà®±à®Ļ":11627,"ĠCelebrities":11628,"adhar":11629,"Ġsorrow":11630,"ĠBrah":11631,"ando":11632,"à¯įà¯Ĩà®¿":11633,"Ġleaders":11634,"ĠChildren":11635,"ient":11636,"more":11637,"uction":11638,"à®£à®µà®ļ":11639,"âĢ©":11640,"à®ªà®¤à®Ļ":11641,"à®®à®²à®ķ":11642,"à®¹à®£":11643,"Ġ325":11644,"ĠArab":11645,"Ġtable":11646,"Ġround":11647,"Ġmanagement":11648,"Ġupdates":11649,"ĠPetrol":11650,"ç¾İ":11651,"ĠFurnished":11652,")âĢİ":11653,"Non":11654,"mode":11655,"iable":11656,"ĠEUR":11657,"187":11658,"books":11659,"ĠKarate":11660,"Ġà®¸à®¹à®¸":11661,"down":11662,"madurai":11663,"à®¤à®®à®©à®¤":11664,"ĠCou":11665,"itness":11666,"Ġhike":11667,"aign":11668,"avas":11669,"utions":11670,"Ġ246":11671,"157":11672,"Ġstation":11673,"ĠStation":11674,"attala":11675,"ĠAspire":11676,"allikattu":11677,"Ġà®ļà®²à®®":11678,"à®ļà®°à®Ł":11679,"Ġà®±à®ķ":11680,"ĠExt":11681,"Ġcolor":11682,"John":11683,"à®Łà®µà®ķ":11684,"à¯į.âĢĺ":11685,"ĠâĢį":11686,"à®ħà®ļà®²":11687,"Ġ380":11688,"à®¾.!":11689,"itis":11690,"Ġcou":11691,"Ġmodi":11692,"ential":11693,"ources":11694,"à®ĵà®°à®³à®µ":11695,"Art":11696,"Ġconduct":11697,"DE":11698,"\\'":11699,"Ļ½":11700,"Ġ1916":11701,"Ġsem":11702,"Ġsoftware":11703,"Ġfiles":11704,"177":11705,"257":11706,"Ġyoutube":11707,"à®¤à®°à®¨":11708,"atta":11709,"Ġ.âĢĿ":11710,"à®Ĳà®µ":11711,"ĠRamal":11712,"ĠFore":11713,"Ġlittle":11714,"ĠJud":11715,"owing":11716,"Ġ235":11717,"ifi":11718,"ĠStates":11719,"à¯ĩ...\"":11720,"awei":11721,"à®¿âĢ¦âĢĿ":11722,"Ġà®£à®®":11723,"à®µà®Łà®®à®°":11724,"ĠAsia":11725,"å¼ı":11726,"Ġstatue":11727,"Aut":11728,"pi":11729,"à®Łà®ªà®°":11730,"à®Ĵà®Ļ":11731,"Ġ194":11732,"ĠCBC":11733,"ĠRBI":11734,"Ġocean":11735,"ĠGM":11736,"abs":11737,"Ġproduc":11738,"ĠPrakash":11739,"Ġteach":11740,"à¨¿":11741,"Ġdemand":11742,"uticorin":11743,"moz":11744,"à®ªà®Łà®£":11745,"Ġà®Ĵà®Łà®©":11746,"Ġà®®à®ķà®¤à®¤":11747,"edit":11748,"Ġà®İà®®à®¤à®°":11749,"1963":11750,"ĠGerman":11751,"132":11752,"777":11753,"ĠÙĨ":11754,"Ġà®ľà®²à®¨":11755,"à®ķà®£à®©":11756,"ĠAlex":11757,"ĠDATE":11758,"Ġdaily":11759,"ĠKov":11760,"ĠHER":11761,"Ġspec":11762,"Ġsexual":11763,"ASS":11764,"Ġworkers":11765,"uzz":11766,"Ġviral":11767,"gam":11768,"à¯ĭ!!":11769,"à¯Ĥ!":11770,"à®Łà®®à®¤":11771,"Ġà®ļà®®à®°à®ļà®Ļ":11772,"à®Ĩà®°à®£":11773,"Ġà®®à®Łà®¨":11774,"ĠSign":11775,"Ġà®ķà®´à®£":11776,"1958":11777,"239":11778,"heel":11779,"Ġtravel":11780,"unning":11781,"PN":11782,"ging":11783,"å©":11784,"åĴ":11785,"Ġä¸Ģ":11786,"à¯į.!!":11787,"Ġà®ħà®°à®ļà®®à®°à®¤":11788,"à®ªà®®à®£":11789,"ators":11790,"ĠRK":11791,"Ġmembers":11792,"ĠDam":11793,"olic":11794,"à®Ĭà®®":11795,"Ġjokes":11796,"Ġshock":11797,"âĢ¦âĢ¦âĢ¦":11798,"å¹³":11799,"BO":11800,"rpm":11801,"æİ":11802,"Ġ1902":11803,"ĠPas":11804,"Ġ?)":11805,"Ġ186":11806,"Ġ1857":11807,"Ġkerala":11808,"Ġ50000":11809,"Ġorig":11810,"Ġenem":11811,"Ġblood":11812,"ĠBlue":11813,"Arutpa":11814,"Ġkathaikal":11815,"à®ĵà®ĵà®ĵà®ĵ":11816,"ĠTelevision":11817,"Kom":11818,"Pa":11819,"Rep":11820,"[[":11821,"Ġà®¯à®µà®©":11822,"Ġà®ļà®°à®£à®¤":11823,"Ġcell":11824,"unj":11825,"à¯Ī!âĢĻ":11826,"uddy":11827,"à®Ĭà®©":11828,"Ġquestions":11829,"ĠDhoni":11830,"Ġstatement":11831,"Ġclassifieds":11832,"224":11833,"cs":11834,"cell":11835,"Ġ214":11836,"ĠâĢľ(":11837,"Ġhits":11838,"1961":11839,"apattinam":11840,"ennis":11841,"ILL":11842,"Ġheavy":11843,"Ġpersons":11844,"kurippu":11845,"Car":11846,"TT":11847,"Î²":11848,"à®¿Â¡Â¢":11849,"ĠTerm":11850,"1931":11851,"ĠThat":11852,"à¯į}.(":11853,"à¯Ī\".":11854,"ALS":11855,"à®Ĩà®Ĩà®Ĩ":11856,"reative":11857,"Ġsamayalkurippu":11858,"Photo":11859,"Plus":11860,"à®ľà®ľà®ľà®ľ":11861,"Â¼":11862,"à¯ģ`":11863,"aries":11864,"Ġ367":11865,"ĠMother":11866,"ĠEffect":11867,"ĠJapan":11868,"223":11869,"ĠTirup":11870,"ĠThiruArutpa":11871,"eyarchi":11872,"cm":11873,"à®¿+":11874,"à¯ĩâĢĻâĢĻ":11875,"Ġà®Ĭà®°à®£":11876,"à®³à®®à®¯":11877,"erem":11878,"Ġwait":11879,"ĠHand":11880,"Ġà®Ĭà®Łà®ķà®ļ":11881,"ĠÐ°":11882,"eget":11883,"Ġà¤¸":11884,"ĠImages":11885,"æĪĲ":11886,"Siv":11887,"super":11888,"ç§":11889,"à®µà®¤à®¨":11890,"inet":11891,"Ġà®¤à®Łà®ķà®³à®ª":11892,"ĠTom":11893,"Ġtouch":11894,"ĠLast":11895,"Ġ239":11896,"Ð¾Ð±":11897,"ĠAmazon":11898,"Ġmonths":11899,"æĹ¥":11900,"Ġà®ħà®ĥà®±":11901,"UI":11902,"download":11903,"low":11904,"Ã¸":11905,"Î¼":11906,"áĥ":11907,"à®ĩà®´à®ª":11908,"aru":11909,"Ġà¯Ĩà®¿":11910,"ĠFlat":11911,"Ġà®®à®²à®ļà®²à®ķ":11912,"Ġplayer":11913,"Ġrecipe":11914,"Ġå¤§åıĳ":11915,"Char":11916,"Pad":11917,"hop":11918,"à¯Ī.âĢĻ":11919,"Ġà®ħà®ªà®ļ":11920,"à®īà®¤à®Ł":11921,"Ġ430":11922,"ĠNRI":11923,"ĠLike":11924,"164":11925,"Ġ274":11926,"à¯ĭ!\"":11927,"ĠUnivers":11928,"ĠPolitics":11929,")...":11930,"6000":11931,"MW":11932,"à¯ģ=":11933,"à®®à®¯à®ª":11934,"Ġà®ļà®µà®°à®®":11935,"à®Ĩà®´à®®":11936,"Ġà®Īà®°à®ķ":11937,"à®ļà®²à®°":11938,"ĠClean":11939,"ĠNag":11940,"ĠPath":11941,"Ġpast":11942,"1953":11943,"à®ľà®©à®©":11944,"?!)":11945,"PG":11946,"div":11947,"ius":11948,"ku":11949,"mAh":11950,"pal":11951,"Ġà®ħà®ªà®ķ":11952,"à®°à®£à®ļ":11953,"ĠTree":11954,"ĠSO":11955,"Ġà®ľà®©à®ķà®°":11956,"Ġwearing":11957,"ĠRay":11958,"ĠOpp":11959,"ĠHel":11960,"à®ĩà®²à®£":11961,"ovo":11962,"Ġ173":11963,"ĠUm":11964,"ĠArmy":11965,"Ø§Øª":11966,"Ġexpress":11967,"ĠSiva":11968,"ictionary":11969,"umerology":11970,"Brazos":11971,"à®²à®¹":11972,"Ġà®ħà®ķà®µà®²":11973,"Ġà®Łà®£":11974,"à¯į!).":11975,"Ġà®¤à®µà®Ļ":11976,"Ġdest":11977,"ĠFIFA":11978,"uran":11979,"istics":11980,"ĠUser":11981,"169":11982,"âĢ¦âĢ¦âĢ¦âĢ¦âĢ¦âĢ¦âĢ¦âĢ¦":11983,"Ġtrack":11984,"æĢ§":11985,"Ġà®¸à®ĥà®ª":11986,"alse":11987,"edding":11988,"Ġbow":11989,"ĠGar":11990,"Ġvoice":11991,"ĠThanks":11992,"Ġprovid":11993,"ãĢĳ":11994,"à¯į..!!âĢĿ":11995,"ÑģÑĤÐ²":11996,"Description":11997,"list":11998,"yam":11999,"year":12000,"à®®à®¯à®¤":12001,"Ġà®ļà®ĥà®ª":12002,"Ġà®ħà®µà®³à®°":12003,"Ġà®īà®£à®µà®ķ":12004,"Ġ|-":12005,"Ġmoon":12006,"umai":12007,"236":12008,"ording":12009,"..........":12010,"448":12011,"rices":12012,"ĠÃ©":12013,"Ġà®ĩà®³à®µà®Ł":12014,"æĸ¹":12015,"à®Ĭà®Ĭà®Ĭà®Ĭ":12016,"Ġcreate":12017,"ĠNETWORKS":12018,"body":12019,"cue":12020,"à®Ķ":12021,"Ġà®ħà®¤à®©à®°":12022,"Ġà®ķà®Łà®ļ":12023,"à®ľà®ķà®Ļ":12024,"stant":12025,"à®²à®©à®±":12026,"Ġmilk":12027,"Ġfun":12028,"ĠFB":12029,"Ġotha":12030,"emistry":12031,"Ġgreen":12032,"Ġ272":12033,"355":12034,"Ġà®°à®£à®ļ":12035,"inayagar":12036,"aan":12037,"hib":12038,"Ãķ":12039,"Æ°":12040,"à³":12041,"èĥ":12042,"Ġà®µà®³à®ķ":12043,"Ġà®īà®¯à®°à®ª":12044,"Ġbenefits":12045,"195":12046,"Ġ202":12047,"ĠKam":12048,"174":12049,"254":12050,"à®īà®¯à®°à®®":12051,"Ġalways":12052,"ãĢĲ":12053,"Ġtweet":12054,"Ġrelief":12055,"á¹Ł":12056,"airamuthu":12057,"gress":12058,"Ú¯":12059,"Ġ**":12060,"Ġà®®à®·":12061,"à®ķà®°à®¸":12062,"à®ĩà®³à®µ":12063,"Ġà®ªà®°à®ªà®°":12064,"à®µà®¨à®¤":12065,"ĠIE":12066,"Ġdog":12067,"Ġà®ħà®µà®ļà®°à®¨":12068,"à°ķ":12069,"Ġrob":12070,"Ġassembly":12071,"çĶµå½±":12072,"Sup":12073,"def":12074,"Ġà®Ĩà®²à®ķ":12075,"à®¤à®µà®¨":12076,"Ġtele":12077,"Ġcurrent":12078,"ĠLeg":12079,"Ġnone":12080,"à®ªà®°à®®à®ļ":12081,"quare":12082,"ï¼Ī":12083,"ï¼ī":12084,"Ġsounds":12085,"à®µà®ļà®©":12086,"à®ªà®°à®Ł":12087,"à®¤à®µà®°à®²":12088,"ĠSin":12089,"ĠModel":12090,"Ġ9000":12091,"Ġhy":12092,"Ð°Ñģ":12093,"à®¿\",":12094,"ãĤ¹":12095,"ĠClasses":12096,"Ġà®ľà®ķà®¨":12097,"onstr":12098,"ĠSterlite":12099,"Ġ193":12100,"ĠBO":12101,"iring":12102,"ĠGame":12103,"Ġjoin":12104,"å®Ŀ":12105,"Rajinikanth":12106,"Ġrajini":12107,"labelled":12108,"èĩ":12109,"à®ķà®ªà®Łà®µ":12110,"âĢĤ":12111,"à®µà®©à®²":12112,"Ġà®ħà®®à®°à®ķ":12113,"aire":12114,"166":12115,"ï¿½ï¿½ï¿½ï¿½ï¿½ï¿½ï¿½ï¿½ï¿½":12116,"Ġ290":12117,"Î¯":12118,"à®ķà®°à®¯":12119,"Ġà®¯à®¹":12120,"ĠCivil":12121,"ĠCategories":12122,"rey":12123,"eland":12124,"Ġkud":12125,"===":12126,"Ø§Ùħ":12127,"ICS":12128,"Ġà¯Īà¯Ĭ":12129,"ĠSeason":12130,"à¯ĩ.\"":12131,"à¯į...//":12132,"ĠRight":12133,"ĠFont":12134,"Ġà®ĩà®®à®¯":12135,"emical":12136,"ĠStock":12137,"angana":12138,"ugadoss":12139,"ĠØ£":12140,"hya":12141,"Ġdesire":12142,"ĠSKUP":12143,"loma":12144,"à®¤à®·":12145,"Ġà®ªà®£à®¯à®ķ":12146,"à®Ĩà®¤à®°":12147,"enes":12148,"à¯į.........":12149,"Ġsiv":12150,"ï¿½...":12151,"1955":12152,"coming":12153,"à®¾...âĢĿ":12154,"246":12155,"ĠYoung":12156,"Ġà®Ķà®°à®Ļ":12157,">>>":12158,"å¼Ģå¥ĸ":12159,";}":12160,"Windows":12161,"high":12162,"à®£à®±à®¤":12163,"à®Łà®¤à®®":12164,"à®ľà®©à®ª":12165,"Ġà®Ĩà®£à®µ":12166,"olf":12167,"Ġ183":12168,"Ġà®±à®µ":12169,"ãĤī":12170,"Ġdepartment":12171,"Ġjewels":12172,";;":12173,"QL":12174,"ez":12175,"à®ļà®¹":12176,"Ġà®ĩà®²à®µà®ļà®¤":12177,"âĢĿ)":12178,"ĠSee":12179,"ĠSUV":12180,"Ġcad":12181,"228":12182,"377":12183,"ĠAdminist":12184,"actory":12185,"ĠFridge":12186,"rad":12187,"Âª":12188,"Î»":12189,"à®ķà®®à®²à®°":12190,"à®¤à®®à®¤à®¤":12191,"Ġ434":12192,"ĠNight":12193,"Ġpal":12194,"Ġinstall":12195,"ĠHours":12196,"Ġjail":12197,"åıĮ":12198,"Ġesc":12199,"yclone":12200,"ls":12201,"à®¨à®ķà®²":12202,"à®©à®°à®°":12203,"à®¯à®®à®°à®¤":12204,"Ġà®®à®¤à®¨":12205,"tham":12206,"Ġsouth":12207,"Ġbang":12208,"Ġ208":12209,"1200":12210,"Ġcomputer":12211,"387":12212,"onds":12213,"INGS":12214,"á¾Ĳ":12215,"Ġcenter":12216,"Ġvidhai":12217,"Item":12218,"%-":12219,"230":12220,"à®ļà®°à®ª":12221,"à¯į!..":12222,"ĠSDPI":12223,"Ġà®Ĩà®±à®±":12224,"ĠED":12225,"Ġà®±à®ª":12226,"ocol":12227,"rivacy":12228,"'-":12229,".]":12230,"ao":12231,"à¯ģ>":12232,"à®ªà®¯à®¤":12233,"à®ŀà®¤":12234,"ĠMD":12235,"à¯į..)":12236,"ĠPG":12237,"Ġmom":12238,"Ġmail":12239,"Ġfive":12240,"1959":12241,"akanth":12242,"athur":12243,"ithan":12244,"à®£à®±à®Ł":12245,"oushi":12246,"ĠShouk":12247,"Ġgirls":12248,"IGH":12249,"ĠMurugan":12250,"Ġviol":12251,"Ġinjured":12252,"ĠAbdul":12253,"MR":12254,"ktop":12255,"àª":12256,"Ġ\".":12257,"Ġprivate":12258,"aked":12259,"Ġlos":12260,"Ġreach":12261,"226":12262,"à¯Ī'.":12263,"ocation":12264,"ĠKohinata":12265,"ĠMinoru":12266,"ĠShoukoushi":12267,"550":12268,"Vis":12269,"bh":12270,"time":12271,"Ãĺ":12272,"æ±":12273,"ĠÑĩ":12274,"à®´à®µà®¨":12275,"à®ķà®µà®Ł":12276,"enz":12277,"ĠCine":12278,"ĠMatch":12279,"Ġpara":12280,"Ġà®ķà®©à®ª":12281,"Ġdro":12282,"uses":12283,"Ġkal":12284,"çĶ¨":12285,"à¸²à¸":12286,"BOSH":12287,"Ġà®ªà®¹à®¤":12288,"Ġà®ħà®µà®µ":12289,"anies":12290,"ĠMohan":12291,"oub":12292,"Ġauthor":12293,"ĠÐŁ":12294,"477":12295,"Ġeat":12296,"ĠMovies":12297,"Health":12298,"Øµ":12299,"éĹ":12300,"à®³à®¹à®¸":12301,"à®ļà®µà®²":12302,"à®¯à®ķà®±":12303,"Ġfav":12304,"à®¾..\"":12305,"269":12306,"ĠIndians":12307,"inese":12308,"Computer":12309,"Ġvalue":12310,"craft":12311,"km":12312,"Ġ217":12313,"ĠPack":12314,"Ġscript":12315,"Ġboth":12316,"1917":12317,"rog":12318,"Ġ243":12319,"arter":12320,"essor":12321,"ello":12322,"à¯į.\"\"":12323,"ĠArut":12324,"Ġ390":12325,"ITH":12326,"Ġrail":12327,"URAM":12328,"ĠImage":12329,"å·¥":12330,"æ³¢":12331,"$$$$":12332,"ĠSilva":12333,"light":12334,"æĻ":12335,"éĺ":12336,"Ġà®ķà®Łà®µà®¤":12337,"Ġà®Ĩà®°à®ª":12338,"alakshmi":12339,"Ġ'(":12340,"Ġà®ĵà®Łà®ļ":12341,"ĠMail":12342,"ito":12343,"Ġfour":12344,"Ġà®īà®ªà®¯à®®":12345,"à®¿..?":12346,"Ġchicken":12347,"Ġemb":12348,"Phil":12349,"ĠRaman":12350,"Ġcaption":12351,"airavini":12352,"Kairavini":12353,"not":12354,"à®®à®ªà®¤":12355,"Ġà®ļà®ķà®°":12356,"à®¯à®µà®ļ":12357,"enth":12358,"Ġspl":12359,"osm":12360,"188":12361,"Ġshop":12362,"à¯į..!âĢĿ":12363,"ĠArrest":12364,"35808":12365,"aptop":12366,"Ġkaraiyin":12367,"Elect":12368,"known":12369,"radius":12370,"Ġkaraiyinile":12371,"gin":12372,"è¨":12373,"Ġq":12374,"Ġà®ķà®¯à®¤":12375,"Ġ(!)":12376,"à®īà®®à®ķ":12377,"à¯į..//":12378,"à®Ĳà®Ĳ":12379,"Ġther":12380,"Ġbran":12381,"1944":12382,"203":12383,"Ġgames":12384,"erselvam":12385,"inda":12386,"udan":12387,"Ġcompet":12388,"ä»Ĭ":12389,"ractice":12390,"ositive":12391,"ÙĢ":12392,"à¯įÂ·":12393,"à¯ģâĢĶ":12394,"à®¤à®°à®µà®¤":12395,"Ġà®®à®°à®¨":12396,"atar":12397,"Ġà®īà®ªà®¯à®¤":12398,"ĠFarmers":12399,"roy":12400,"Ġà®¤à®Łà®µà®µ":12401,"à®īà®¤à®¯à®¨":12402,"ĠForce":12403,"Ð°Ð´":12404,"THIR":12405,"Ġpetrol":12406,"88888888":12407,"Ġtechnology":12408,"çĪ±":12409,"Published":12410,"WS":12411,"hot":12412,"nu":12413,"»Ħ":12414,"Ïħ":12415,"æĭ":12416,"Ġip":12417,"Ġà®ļà®µà®ķ":12418,"Ġà®¨à®µà®ª":12419,"Ġà®İà®ķà®¤":12420,"à®ħà®ªà®°":12421,"ĠAction":12422,"ĠPrivate":12423,"abhar":12424,"quire":12425,"Ġà®Ĩà®ªà®°à®£":12426,"Ġå¥":12427,"aids":12428,"ÐµÐ¹":12429,"ĠSivakarthikeyan":12430,"ĠNEBOSH":12431,"Ġsepar":12432,"ĠRamalinga":12433,";.":12434,"bhp":12435,"âľ":12436,"Ġà®ıà®µà®²à®©":12437,"à®¤à®®à®¯à®®":12438,"Ġà®ħà®±à®©":12439,"Ġà®ħà®ªà®²":12440,"inar":12441,"à®°à®ļà®£":12442,"ically":12443,"Ġtreatment":12444,"Ġbirth":12445,"ĠDirect":12446,"Ġstill":12447,"à®¿âĢĿ.":12448,"ormal":12449,"dd":12450,"jid":12451,"Îº":12452,"à®²à®©à®®":12453,"à®³à®¨à®°":12454,"à®ļà®·":12455,"Ġà®ħà®ĩà®ħà®¤":12456,"à®¤à®²à®³":12457,"à®¤à®®à®µ":12458,"à¯ĩà®¾ÂŃ":12459,"ĠSSL":12460,"Ġsale":12461,"Ġfear":12462,"ĠFm":12463,"Ġ255":12464,"iment":12465,"Ð¾ÑģÑĤ":12466,"ANT":12467,"ãĤ¤":12468,"Ġà¯®":12469,"ITE":12470,"total":12471,"à¯ĩ),":12472,"Ġ324":12473,"ĠSelf":12474,"Ġdiesel":12475,"1942":12476,"agiri":12477,"ĠOru":12478,"ĠKap":12479,"ĠKisu":12480,"ationship":12481,"ĠTheory":12482,"bott":12483,"ĠSethupathi":12484,"ĠJustice":12485,"à¯ĬÂ¢":12486,"Ġà®ħà®°à®µà®®":12487,"ĠâĢª":12488,"Ġ299":12489,"Ġà®µà®³à®°à®ļ":12490,"ĠRain":12491,"173":12492,"annan":12493,"uki":12494,"ĠAdig":12495,"ĠEditor":12496,".'":12497,"à®·à®Ł":12498,"Ġ328":12499,"onet":12500,"Ġ640":12501,"Ġsports":12502,"Ġdies":12503,"194":12504,"email":12505,"ĠOur":12506,"ĠKad":12507,"ivel":12508,"à¯ĩ?!":12509,"ĠYes":12510,"pped":12511,"Ġcommunity":12512,"á¾ŀ":12513,"####":12514,"Ġloan":12515,"block":12516,"à®ªà®¯à®¨":12517,"à®³à®ªà®¤":12518,"Ġà®Ĩà®¯à®®":12519,"à®ķà®®à®ª":12520,"à®ľà®ªà®Ł":12521,"oring":12522,"ĠCross":12523,"192":12524,"232":12525,"275":12526,"Ġà®¨à®ķà®°à®®à®¯à®®":12527,"Ã¡s":12528,"à®Łà®¤à®¤":12529,"Ġà®ªà®²à®Ļ":12530,"à®¯à®ªà®ķ":12531,"ĠBody":12532,"Ġtool":12533,"akasa":12534,"172":12535,"227":12536,"ĠProv":12537,"à°¸":12538,"à¯ģ},":12539,"à®£à®µà®ķ":12540,"à®Ĩà®ŀ":12541,"à¯ĩà®¾âĢĮ":12542,"ĠMart":12543,"Ġwast":12544,"à¯ģâĢ¦âĢ¦":12545,"ĠChange":12546,"Ġ375":12547,"ĠåĽ":12548,"ÙİÙĳ":12549,"ĠAssembly":12550,"ÑĨÐ¸":12551,"enkat":12552,"Ã¯":12553,"à®¤à®ļà®®":12554,"à®ħà®¯à®©":12555,"Ġà®²à®¯à®¤":12556,"à®Łà®µà®ª":12557,"ĠPon":12558,"à®Ĳà®¯à®©":12559,"ĠLCD":12560,"ĠJob":12561,"Ġ179":12562,"à®Īà®ļà®©":12563,"Ġï¿½ï¿½ï¿½ï¿½ï¿½ï¿½ï¿½":12564,"ĠPHP":12565,"Ġemployees":12566,"ĠUthayan":12567,"Äį":12568,"à¯Ī//":12569,"à®¯à®®à®ķ":12570,"ining":12571,"Ġà®ħà®ļà®Ļ":12572,"ĠMont":12573,"Ġcanc":12574,"ĠGPS":12575,"ĠIndex":12576,"OND":12577,"Tagstamil":12578,"Ã¼r":12579,"ĠTwitterShare":12580,"ufact":12581,"Super":12582,"Ã±":12583,"à¯Īà¯į":12584,"à¯ĪâĢľ":12585,"à¯ĪâĢĺ":12586,"à¯Ĩà®¾âĢĮ":12587,"Ġà®īà®¯à®°à®Ł":12588,"Ġcandid":12589,"Ġfeed":12590,"ĠBirthday":12591,"1946":12592,"Ġà®Ĩà®´à®Ļ":12593,"151":12594,"268":12595,"366":12596,"prakasa":12597,"ACT":12598,"akku":12599,"ĠFacebookShare":12600,"++++++++":12601,"Karunanidhi":12602,"ĠAdigalar":12603,"\">":12604,"car":12605,"sup":12606,"à¯ģï»¿":12607,"Ġà®ħà®´à®ķà®²":12608,"Ġà®¸à®¯":12609,"Ġà®¸à®®à®°":12610,"Ġsy":12611,"Ġpub":12612,"à¯ģ?)":12613,"à®°à®³à®¯à®¤":12614,"ĠHis":12615,"204":12616,"498":12617,"uvil":12618,"ohli":12619,"umbers":12620,"Ġà®ħà®ļà®®à®¨":12621,"Raja":12622,"ĠLinkedin":12623,"ĠArutprakasa":12624,"à®°à®ķà®Ł":12625,"iny":12626,"Ġà®ªà®³à®ªà®³à®µ":12627,"ĠMSc":12628,"à®¯à®µà®°à®²":12629,"Ġhom":12630,"196":12631,"rote":12632,"444":12633,"Ð¸Ð¼":12634,"adhaar":12635,"çĭĹ":12636,"KR":12637,"à®£à®¯à®°":12638,"âĢļ":12639,"001":12640,"à®µà®²à®ļ":12641,"irai":12642,"ÑĢÑĥ":12643,"äºĶ":12644,"Ġcommun":12645,"UND":12646,"erious":12647,"ĠVallalarSpace":12648,"Amer":12649,"part":12650,"à®¾.\"":12651,"Ġturn":12652,"Ġwins":12653,"ĠOol":12654,"riy":12655,"à¯Ī\",":12656,"rich":12657,"hari":12658,"Ġshooting":12659,"Ġarms":12660,"Int":12661,"ĠWhite":12662,"aiko":12663,"ĠMBA":12664,"ĠGirls":12665,"ĠThiruvarutpa":12666,"kit":12667,"kai":12668,"Ġà®ħà®°à®ļà®ļ":12669,"à®Łà®²à®©":12670,"à®²à®ķà®£à®Ļ":12671,"ilter":12672,"Ġpack":12673,"ĠVoice":12674,"ĠKamakathai":12675,"186":12676,"anging":12677,"555":12678,"ĠProperties":12679,"Special":12680,"ĠOrder":12681,"ĠOFF":12682,"Click":12683,"Ġsky":12684,"Ġterror":12685,"ainaadu":12686,"Bre":12687,"Ġà®ļà®ķà®®à®©":12688,"à®°à®®à®µ":12689,"Ġà®ħà®²à®µ":12690,"Ġà®ĵà®°à®Ł":12691,"alu":12692,"Ġ440":12693,"Ġ660":12694,"ĠLong":12695,"Ġversion":12696,"à®Ĭà®µ":12697,"à®Ĭà®ļ":12698,"459":12699,"efore":12700,"tnpsc":12701,"ribute":12702,"ĠDawah":12703,"720":12704,"à®ļà®µà®ª":12705,"âĢ¬":12706,"ĠSelv":12707,"itra":12708,"Ġà®·à®µà®°":12709,"Ġbed":12710,"elam":12711,"iding":12712,"oos":12713,"Ġ302":12714,"anti":12715,"achment":12716,"à°Ł":12717,"à¯ĭ..?":12718,"irmala":12719,"ĠThaainaadu":12720,"gu":12721,"with":12722,"Åĳ":12723,"à¯ĤâĢĿ":12724,"inion":12725,"à®ıà®´à®°":12726,"Ġage":12727,"ĠKEY":12728,"Ġless":12729,"ellite":12730,"ĠAmit":12731,"Ka":12732,"NET":12733,"à®°à®Łà®ķ":12734,"Ġà®ħà®°à®ļà®¤":12735,"Ġà®ªà®°à®ªà®°à®µ":12736,"ĠCPM":12737,"ĠMow":12738,"ĠHelp":12739,"aved":12740,"à®ħà®°à®ļà®®":12741,"178":12742,"ishal":12743,"strong":12744,"fi":12745,"æ´":12746,"Ġà®ĵà®İà®¸":12747,"ĠTri":12748,"Ġmult":12749,"ĠIPS":12750,"Ġles":12751,"ĠEM":12752,"otah":12753,"Ġ232":12754,"ĠExecutive":12755,"ornia":12756,"Ġcontent":12757,"Can":12758,"rc":12759,"{{":12760,"à®µà®³à®Ļ":12761,"Ġà®¯à®µà®©à®°":12762,"inux":12763,"ĠMir":12764,"image":12765,"378":12766,"ÐºÐ°":12767,"Ġ:))))":12768,"ĠSerial":12769,"Colombo":12770,"ĠHardware":12771,"ruption":12772,"ĠSemalt":12773,"IB":12774,"kg":12775,"é¾":12776,"à¯ĩ......":12777,"Ġà®ĩà®²à®µà®Ļ":12778,"à®ħà®©à®²":12779,"à®Ĩà®²à®¯":12780,"Ġà®¹à®¨":12781,"Ġcross":12782,"Ġpalan":12783,"ĠImp":12784,"Ġhoroscope":12785,"ĠThank":12786,"167":12787,"ĠOnly":12788,"à®ķà®©à®®à®´":12789,"enna":12790,"ĠUnlabelled":12791,"Ġà®Ĳà®¤à®°à®ļà®©":12792,"Ġà®ļà®°à®µà®£à®®":12793,"ĠSnapdeal":12794,"Upd":12795,"ning":12796,"work":12797,"à®©à®ķà®µ":12798,"à®£à®°à®Ł":12799,"à¯Ĥ..":12800,"Ġà®ĩà®°à®ļà®©":12801,"à®¤à®°à®ļà®®":12802,"Ġà®®à®£à®Ļ":12803,"ĠMam":12804,"Ġselect":12805,"à¯ģ:)":12806,"ĠGa":12807,"ĠWOR":12808,"Ġgetting":12809,"Ġcoming":12810,"achi":12811,"ANCE":12812,"ĠiOS":12813,"ĠISO":12814,"Ġkills":12815,"åĲĹ":12816,"4000":12817,"Dis":12818,"ML":12819,"Mal":12820,"Mad":12821,"settings":12822,"æ²":12823,"Ġà®īà®¹à®¤":12824,"à®®à®²à®ļ":12825,"Ġà®¤à®©à®µà®°à®µ":12826,"ĠNAME":12827,"ĠIIT":12828,"andout":12829,"osph":12830,"Ġ273":12831,"286":12832,"290":12833,"488":12834,"à¯ĪâĢ¦..":12835,"ATTI":12836,"ĠSpe":12837,"35807":12838,"ĠCommittee":12839,"ĠAccounts":12840,"ĠRahman":12841,"à®ļà®Łà®ķ":12842,"à®£à®°à®®":12843,"Ġà®ħà®°à®©":12844,"inna":12845,"à¯į..'":12846,"Ġthous":12847,"Ġbit":12848,"rik":12849,"309":12850,"ĠÂ¹":12851,"utr":12852,"Ġyet":12853,"359":12854,"ISS":12855,"ĠArticles":12856,"å¤©å¤©":12857,"Ġmuslim":12858,"ĠRailway":12859,"ĠBrokers":12860,"ĠMowval":12861,"otahena":12862,"à®¨à®Łà®®":12863,"Ġà®Ĵà®µà®°":12864,"Ġà®ĩà®²à®µ":12865,"à®¿.\"":12866,"à¯į:.":12867,"ĠMob":12868,"Ġthinking":12869,"ayout":12870,"à¯ģ!âĢĻâĢĻ":12871,"à¯ģ???":12872,"htm":12873,"ango":12874,"Ġéĩ":12875,"ĠMasjid":12876,"Sam":12877,"Ġ.!":12878,"ĠAB":12879,"ĠCell":12880,"Ġhon":12881,"209":12882,"Ġâľ":12883,"ASA":12884,"Ġæ¸":12885,"ushka":12886,"à¯¦à¯¦à¯¦":12887,"Ġregist":12888,"Ġà¯©à¯¨":12889,"LU":12890,"jee":12891,"à®µà®ķà®Ł":12892,"ĠGRO":12893,"Ġve":12894,"ĠÂ¼":12895,"163":12896,"à®°à®¹à®Ļ":12897,"368":12898,"ĠRoyal":12899,"ãĤĮ":12900,"irds":12901,"+)":12902,"AO":12903,"Open":12904,"Õ¾":12905,"Ġî":12906,"Ġà®Ĩà®²à®¤":12907,"Ġ212":12908,"Ġà®ªà®£à®ªà®²à®®":12909,"à®±à®µà®ŀ":12910,"ĠMR":12911,"ĠField":12912,"Ġlic":12913,"Ġà®ļà®ķà®²à®ķà®²":12914,"Ġplans":12915,"à®īà®²à®ķà®®à®¯à®®":12916,"ĠSexual":12917,"Ġà®Ĩà®ļà®©à®µ":12918,"ĠLankan":12919,"!''":12920,")[":12921,"lifestyle":12922,"à®ķà®¯à®±":12923,"à®¨à®´":12924,"à¯Ĩ-":12925,"à¯Ĥà®¾à¯į":12926,"Ġà®ªà®²à®ķà®²":12927,"à®µà®Łà®¨":12928,"Ġpalanisamy":12929,"Ġ171":12930,"apy":12931,"Ġstatus":12932,"iller":12933,"à¯ĩ...?":12934,"Ã©s":12935,"ĠArts":12936,"Ġindex":12937,"Ġblue":12938,"à®ļà®µà®¤à®¤":12939,"ĠDehiwela":12940,"iam":12941,"à®®à®®à®ķ":12942,"à®µà®ķà®³":12943,"à®Ĩà®²à®®":12944,"Ġput":12945,"ĠBrowser":12946,"ĠBuild":12947,"ĠWind":12948,"oty":12949,"Ġ223":12950,"pha":12951,"Ġchari":12952,"haran":12953,"à¯ĭ!âĢĿ":12954,"ickets":12955,"Ġentert":12956,"ĠAirtel":12957,"Ġpersonal":12958,"bottom":12959,"Att":12960,"rance":12961,"à®ķà®®à®²à®®":12962,"à®¤à®²à®ª":12963,"Ġà®Ĳà®µà®ķ":12964,"Ġburn":12965,"aiah":12966,"ided":12967,"iah":12968,"Ġrpm":12969,"asters":12970,"375":12971,"Ġenjoy":12972,"idden":12973,"ĠPhilosophy":12974,"Time":12975,"friend":12976,"Ø°":12977,"Ġ213":12978,"à¯į)-":12979,"Ġsar":12980,"Ġsend":12981,"ĠBach":12982,"Ġ285":12983,"270":12984,"ĠEngine":12985,"Ġunderstand":12986,"andoutCinema":12987,"La":12988,"à®¿Â»":12989,"Ġà®ªà®²à®¹":12990,"Ġà®ļà®®à®£à®ķ":12991,"Ġ412":12992,"ĠVikram":12993,"ĠKOV":12994,"otography":12995,"Ġkad":12996,"Ġ226":12997,"258":12998,"ĠÐĴ":12999,"Ġchannel":13000,"490":13001,"ãĥ«":13002,"active":13003,"ĠDisk":13004,"Tech":13005,"Ins":13006,"Reg":13007,"à¯ģ,âĢĻ":13008,"à®Łà®°à®£":13009,"à®Ĩà®µà®£":13010,"Ġ322":13011,"ĠMake":13012,"adies":13013,"Ġmm":13014,"ĠHa":13015,"à®¾âĢĿ,":13016,"à¯į.///":13017,"wards":13018,"Editorial":13019,"ependence":13020,"Ġworship":13021,"ĠTamizhag":13022,"à¯ģ|":13023,"à®²à®ħà®µà®ķ":13024,"à®ªà®µà®²":13025,"à®ļà®¤à®¤":13026,"Ġ435":13027,"Ġtakes":13028,"à®ıà®ŀ":13029,"ĠRun":13030,"ĠON":13031,"à¯ĭ?'":13032,"Ġdeep":13033,"ĠAlt":13034,"Ġà®ĥà®ªà®©":13035,"Ġsea":13036,"ĠFormer":13037,"Ġelse":13038,"itzerland":13039,"ĠQuality":13040,"à®ĩà®´à®¨":13041,"Ġà®ªà®±à®Ļ":13042,"à®¹à®ļ":13043,"à®ªà®®à®°à®¤":13044,"ĠCast":13045,"à¯įâĢĿ-":13046,"ĠParam":13047,"ĠBengal":13048,"ĠDavid":13049,"à¯ģ?,":13050,"Ġdocuments":13051,"1939":13052,"opean":13053,"ugs":13054,"285":13055,"iyang":13056,"ÐµÑģ":13057,"Ġoru":13058,"ĠPosts":13059,"ulla":13060,"ĠConsult":13061,"Actress":13062,"FN":13063,"PO":13064,"September":13065,"pir":13066,"à®¿âĢľ":13067,"à¯Ģ\"":13068,"à®Łà®®à®Ļ":13069,"Ġà®īà®³à®ļ":13070,"atra":13071,"ĠSEC":13072,"Ġtem":13073,"197":13074,"uda":13075,"ĠInandoutCinema":13076,"merce":13077,"ĠEmploy":13078,"ïĥĺ":13079,"GS":13080,"hol":13081,"ua":13082,"Ø®":13083,"à¯į,âĢĭâĢĭ":13084,"à®°à®®à®¨":13085,"Ġà®ļà®®à®¯à®²à®±":13086,"Ġà®®à®©à®µà®³à®°":13087,"à®İà®¤à®©":13088,"Ġà®¹à®°à®®":13089,"arian":13090,"Ġà®Ĩà®°à®ķ":13091,"à®ıà®İà®ļ":13092,"agi":13093,"Ġ181":13094,"154":13095,"404":13096,"ocr":13097,"Har":13098,"IZ":13099,"IAL":13100,"NO":13101,"Rec":13102,"à®²à®®à®ķà®³":13103,"Ġà®ķà®²à®ķà®Ļ":13104,"ĠNation":13105,"ĠHR":13106,"Ġà®ļà®²à®©à®¤":13107,"à®¿!âĢĻ":13108,"à¯į''.":13109,"449":13110,"ĠðŁĴ":13111,"ĠMedium":13112,"Ġdiffic":13113,"Oneindia":13114,"ĠNativ":13115,"ĠBattinews":13116,"EG":13117,"MM":13118,"à¯įÂ¢":13119,"à®ķà®´à®ļ":13120,"Ġà®īà®¤à®±à®²":13121,"ĠCSS":13122,"ĠGas":13123,"Ġnan":13124,"308":13125,"ĠWife":13126,"ĠJe":13127,"Ġchest":13128,"Ġje":13129,"Ġ:-(":13130,"rimary":13131,"kkum":13132,"Ġserial":13133,"Guard":13134,"eplanet":13135,"åĴĮ":13136,"ĠNativeplanet":13137,"fire":13138,"rent":13139,"Ġol":13140,"Ġà®īà®³à®¨":13141,"amer":13142,"ĠSD":13143,"Ġtel":13144,"Ġmodel":13145,"1938":13146,"!!)":13147,"à®ĥà®±":13148,"onto":13149,"annamalai":13150,"Ġåį":13151,"================================":13152,"æŀľ":13153,"quiry":13154,"à®ķà®·à®©":13155,"Ġà®ªà®°à®µà®ļà®¨":13156,"Ġà®°à®ļà®µ":13157,"eline":13158,"à¯ģ?...":13159,"iaomi":13160,"à®¿âĢ¦!":13161,"engers":13162,"ãĥ»":13163,"Ġpred":13164,"Ġxxx":13165,"Ġrock":13166,"ĠBedroom":13167,"Ġattacked":13168,"ĠNarendra":13169,"Ġwrong":13170,"Ġmessage":13171,"Ġâĸº":13172,"Us":13173,"ned":13174,"trichy":13175,"à®ķà®µà®ļ":13176,"Ġà®ħà®´à®ķà®´à®ķ":13177,"ĠNm":13178,"ĠPS":13179,"Ġclean":13180,"Ġà®ķà®©à®ķà®®":13181,"à®Ĳà®Ĩà®°":13182,"Ġfont":13183,"Ġfilled":13184,"ĠBa":13185,"Ġdriver":13186,"Ġdrive":13187,"Ġà®ķà®µà®©à®ļ":13188,"ĠJesus":13189,"183":13190,"Ġformer":13191,"eller":13192,"ĠQR":13193,"Ġresearch":13194,"strum":13195,"à¨¾":13196,"Ġbring":13197,"Ġwrite":13198,"210":13199,"water":13200,"ÄŁ":13201,"İį":13202,"à®ķà®°à®£à®Ļ":13203,"Ġà®Īà®®à®ļ":13204,"Ġtha":13205,"Ġfraud":13206,"ĠHor":13207,"à®Īà®ª":13208,"288":13209,"376":13210,"Ġshot":13211,"onda":13212,"ario":13213,"eerthy":13214,"ĠHeart":13215,"ĠJayalalitha":13216,"Ac":13217,"NF":13218,"ea":13219,"æĴ":13220,"à®°à®²à®®":13221,"Ġà®İà®¹":13222,"à®ļà®°à®ļ":13223,"Ġpot":13224,"ĠRiver":13225,"Ġnature":13226,"Ġliving":13227,"Ġ!.":13228,"à®¿?âĢĻ":13229,"398":13230,"ADE":13231,"Ġperiod":13232,"Ġç¥":13233,"ĠParis":13234,"Ġdevelopment":13235,"é¾Ļ":13236,"ghan":13237,"Ġà®®à®©à®īà®±":13238,"alur":13239,"à®ªà®©à®¨":13240,"à®īà®µ":13241,"Ġsurr":13242,"à®®à®£à®¨":13243,"Ġ777":13244,"ĠDD":13245,"à®¨à®°à®ķà®®":13246,"507":13247,"à¯Ī!'":13248,"âĢ¦âĢ¦âĢ¦.":13249,"nection":13250,"Ġ<%=":13251,"Bi":13252,"Sep":13253,"jan":13254,"kin":13255,"uce":13256,"ä¾":13257,"ĠÑģÑĤ":13258,"à®®à®©à®°":13259,"à®ļà®®à®Ļ":13260,"ilities":13261,"ĠTur":13262,"Ġà®īà®¯à®°à®ķ":13263,"ĠCertificate":13264,"Ġcann":13265,"Ġastrology":13266,"ĠFL":13267,"161":13268,"ishing":13269,"Ġ0112":13270,"ĠSea":13271,"Ġpolicy":13272,"ĠBlogger":13273,"ĠBrand":13274,"ĠÐ¾Ð±":13275,"VivoBiggBoss":13276,"aswamy":13277,"ĠKOVIL":13278,"260":13279,"NN":13280,"UST":13281,"ken":13282,"ç¤":13283,"à®°à®¤à®¨":13284,"à®İà®ķà®ļ":13285,"Ġ984":13286,"ĠOPS":13287,"405":13288,"ajpay":13289,"Ġeach":13290,"Ġimages":13291,"Ġfishermen":13292,"349":13293,"Jun":13294,"Sex":13295,"cul":13296,"à®¯à®¨à®ķà®°":13297,"à®ķà®ªà®°":13298,"Ġà®²à®¯à®®":13299,"à¯į\"(":13300,"ĠLine":13301,"aki":13302,"qual":13303,"uva":13304,"Ġmethod":13305,"Ġcontinue":13306,"à±Ĩ":13307,"ĠðŁĺī":13308,"ĠVasanth":13309,"Ajith":13310,"hà®°":13311,"ËĪ":13312,"èģ":13313,"ĤçīĮ":13314,"à®ļà®µà®Ł":13315,"Ġà®İà®ļà®®":13316,"Ġà®ĵà®İà®©":13317,"amani":13318,"Ġtaken":13319,"ĠDar":13320,"Ġinfo":13321,"Ġà®¤à®ªà®ļ":13322,"aven":13323,"ims":13324,"imum":13325,"à¯ĩ..âĢĿ":13326,"379":13327,"ERV":13328,"ĠAdult":13329,"ãĥĪ":13330,"Ġtrue":13331,"Ġç¥ŀ":13332,"Cor":13333,"Mur":13334,"uet":13335,"yer":13336,"Ġì":13337,"à®Łà®Łà®ª":13338,"à®¹à®¯":13339,"stories":13340,"Ġinsp":13341,"ĠFR":13342,"igious":13343,"à®ľà®²à®ªà®¤":13344,"Ġunt":13345,"ĠSecretary":13346,"è½½":13347,"power":13348,"Ã»":13349,"à®°à®Łà®©":13350,"à®¯à®³à®°":13351,"Ġà®ıà®İà®®":13352,"à®¤à®®à®¤à®®":13353,"à®·à®¸":13354,"Ġ399":13355,"ĠFemale":13356,"à®·à®®à®Ł":13357,"Ġà®ªà®²à®®à®Ł":13358,"Ġproducts":13359,"Ġground":13360,"Ġservices":13361,"ĠAdvanced":13362,"cial":13363,"hr":13364,"oil":13365,"¸ı":13366,"Ġà®ħà®¯à®±":13367,"Ġà®ķà®²à®ķà®²":13368,"Ġà®ķà®°à®ļ":13369,"Ġà®ªà®ķà®°à®®":13370,"à®īà®±à®Ļ":13371,"Ġà®ļà®Łà®ļ":13372,"ĠCut":13373,"ĠPAN":13374,"Ġsettings":13375,"Ġtry":13376,"Ġà®ķà®³à®¨":13377,"asri":13378,"Ġbamb":13379,"1937":13380,"Ġà®ķà®Łà®²à®²":13381,"Ġ207":13382,"ĠODI":13383,"allur":13384,"Ð¾Ð¶":13385,"Ġasks":13386,"åĩº":13387,"Ġdifficult":13388,"à®¯à®®à®©à®ķ":13389,"Ġà®ľà®ķà®°":13390,"ĠTab":13391,"ĠAS":13392,"ĠParth":13393,"ĠRS":13394,"Ġbatt":13395,"Ġhous":13396,"Ġinform":13397,"ĠGallery":13398,"Ġlift":13399,"ĠProt":13400,"ĠAmma":13401,"Ġpregn":13402,"Ġkarunanidhi":13403,"#âĢİ":13404,"RR":13405,"uit":13406,"vc":13407,"åł":13408,"ç¦":13409,"à®¿*":13410,"..,":13411,"à®ªà®®à®±":13412,"Ġscience":13413,"ĠBenefits":13414,"aiya":13415,"à®¨à®°à®ķà®¤":13416,"ĠKamaveri":13417,"ogen":13418,"ãģĨ":13419,"Ġofficials":13420,"Ġtnpsc":13421,"AJ":13422,"Dem":13423,"Mr":13424,"vIND":13425,"Ðł":13426,"Ġà¶":13427,"Ġà®İà®ķà®©":13428,"Ġà®ľà®¯à®®":13429,"Ġà®ªà®ķà®©":13430,"Ġà®ĵà®¯à®µ":13431,"oned":13432,"âĢ¦!":13433,"ĠNOT":13434,"ĠVeer":13435,"ĠOm":13436,"Ġgro":13437,"489":13438,"à®¿\".":13439,"Ð¾Ðº":13440,"Ġprison":13441,"è§£":13442,"480":13443,"vas":13444,"zi":13445,"à®©à®µà®¤":13446,"Ġ218":13447,"Ġà®Ĩà®©à®²":13448,"thal":13449,"Ġtell":13450,"Ġtarget":13451,"ĠRat":13452,"ĠJos":13453,"Ġkids":13454,"ĠChap":13455,"uds":13456,"ashes":13457,"sha":13458,"inks":13459,"ĠFrench":13460,"Data":13461,"search":13462,"Ġà®°à®ªà®¤":13463,"à®ħà®±à®¤":13464,"Ġà®¤à®²à®¯":13465,"Ġà®¸à®°à®¸":13466,"Ġà®Ĳà®İà®©":13467,"thes":13468,"ĠSide":13469,"ĠVill":13470,"ĠOtha":13471,"ĠLifestyle":13472,"Ġà®ķà®µà®°à®ķ":13473,"ĠChurch":13474,"lix":13475,"ðŁĺį":13476,"Ġconc":13477,"REAK":13478,"Ġpretty":13479,"ĠRepair":13480,"ĠSooriyang":13481,"Ġfresh":13482,"ĠAwards":13483,"Ġbelow":13484,"ĠSooriyangossip":13485,"gets":13486,"à®¤à®©à®³":13487,"Ġà®Ĳà®Ĩà®°":13488,"atab":13489,"Ġà®īà®¤à®µà®ª":13490,"Ġtub":13491,"Ġworth":13492,"ayat":13493,"Ġà®īà®ªà®ª":13494,"252":13495,"ajan":13496,"ãģı":13497,"acks":13498,"Ġtrad":13499,"Ġcontact":13500,"ĠAnnex":13501,"ĠArea":13502,"ilitary":13503,"videos":13504,"ÄĽ":13505,"à®ļà®ĥà®ª":13506,"à®ªà®Łà®±à®¤":13507,"à®¯à®®à®¨":13508,"ĠAishwarya":13509,"ĠMT":13510,"ĠMAR":13511,"andha":13512,"193":13513,"ĠHold":13514,"264":13515,"ĠConf":13516,"Class":13517,"ĠHeader":13518,"ĠUpdate":13519,"ĠPROCE":13520,"fort":13521,"à®ĩà®¤à®°":13522,"à®ļà®®à®ļ":13523,"ĠICC":13524,"Ġneg":13525,"umin":13526,"Ġkan":13527,"Ġ238":13528,"à®¾âĢĿ.":13529,"special":13530,"ĠMarriage":13531,"Ġmeets":13532,"Ġdrinking":13533,"ĠAfrica":13534,"ĠFirefox":13535,"ĠLevel":13536,"Ġcharacter":13537,"ĠCapital":13538,"ä¸ĭè½½":13539,"If":13540,"iet":13541,"ĳçĭĹ":13542,"à®ªà®£à®µ":13543,"à®¤à®¤à®®":13544,"Ġ,\"":13545,"à®īà®²à®°":13546,"ĠATHIR":13547,"aging":13548,"awala":13549,"Ġà¤®":13550,"Ġà®ĩà®³à®µà®²":13551,"transition":13552,"nagapattinam":13553,"éĥ¨":13554,"AKKUDI":13555,"Ġéĩĳ":13556,"ajpayee":13557,"cinema":13558,"dge":13559,"Ġà®ķà®²à®µà®°à®ķ":13560,"à®ķà®©à®ķà®°":13561,"orer":13562,"ĠSanth":13563,"ĠNayanthara":13564,"Ġsix":13565,"isource":13566,"Ġmode":13567,"ĠBul":13568,"à¯įâĢ¦!!":13569,"ĠGh":13570,"Ġnames":13571,"à¯ĩ?''":13572,"Ġà®¨à®°à®ķà®µ":13573,"Ġ269":13574,"ocon":13575,"277":13576,"à¯Ī?âĢĻ":13577,"awa":13578,"Ġflight":13579,"ĠIsland":13580,"Ġscam":13581,"IMA":13582,"ĠDivor":13583,"ĠATHIRVU":13584,"640":13585,"850":13586,"DC":13587,"Ġà¸":13588,"ÂŃÂŃ":13589,"Ġà®ĩà®¤à®¯à®ļ":13590,"à®¯à®²à®¯":13591,"Ġà®ĩà®²à®°":13592,"Ġà®Ĭà®Łà®Ļ":13593,"alem":13594,"Ġbath":13595,"Ġà®ŀà®°":13596,"1924":13597,"Ġ/><":13598,"Ġamong":13599,"Ġtransfer":13600,"Ġavoid":13601,"è¯´":13602,"Ġdiscuss":13603,"ĠDiploma":13604,"ï¸ı":13605,"ĠÛ":13606,"à¯ĩà®¾?":13607,"Ġà®ªà®²à®µà®´":13608,"à®¤à®ķà®¨":13609,"Ġà®®à®¤à®¯":13610,"ĠAvenue":13611,"Ġpour":13612,"Ġball":13613,"Ġnadu":13614,"Ġà®īà®²à®ķà®®à®ķ":13615,"ĠThree":13616,"Ġarticleà®¤à®®":13617,"à®¾\",":13618,"ĠPlayer":13619,"ĠBOOKS":13620,"ĠNDTV":13621,"HC":13622,"])":13623,"dharmapuri":13624,"gery":13625,"just":13626,"yt":13627,"É±":13628,"é£":13629,"à®ħà®ķà®²":13630,"à®ļà®®à®µ":13631,"Ġ540":13632,"ĠSpr":13633,"ĠCrypt":13634,"Ġphys":13635,"Ġ209":13636,"Ġà®ķà®µà®©à®ª":13637,"berry":13638,"265":13639,"olls":13640,"ITHI":13641,"Ġç²¾":13642,"ĠØ§ÙĦÙĦÙĩ":13643,"Name":13644,"lt":13645,"Ñį":13646,"âĶ":13647,"à®±à®°à®ļà®©":13648,"Ġà®ħà®¤à®¤":13649,"à¯ģ,'":13650,"Ġà®ıà®±à®ª":13651,"à¯į!*":13652,"ĠMalar":13653,"Ġcrack":13654,"Ġfootball":13655,"Ġhear":13656,"ĠYork":13657,"Ð¸Ð¹":13658,"ĠAny":13659,"Ġuniversity":13660,"à´¨":13661,"arges":13662,"è¡Į":13663,"Ġæ¸¯":13664,"->":13665,"Ġà®®à®ľà®¤":13666,"à®£à®´à®ķ":13667,"à¯ģ.âĢľ":13668,"Ġà®Ĭà®ķà®¤":13669,"à®µà®²à®Ł":13670,"à®µà®²à®ķà®°":13671,"à¯į)&":13672,"asthan":13673,"ĠKrish":13674,"ĠChrome":13675,"ä¸Ĭ":13676,"à®ħà®´à®ķà®°":13677,"azing":13678,"ĠYouth":13679,"åĽ¾çīĩ":13680,"Ġtrailer":13681,"åľ°":13682,"ĠEntry":13683,"ĠCheck":13684,"RT":13685,"bour":13686,"ĠãĢĲ":13687,"à®µà®ªà®¤":13688,"à®µà®¤à®ļ":13689,"Ġà®¤à®Łà®µà®²":13690,"Ġ204":13691,"Ġà®¤à®ªà®¸":13692,"Ġà®Ĩà®ªà®°à®£à®¤":13693,"inisters":13694,"Ġuser":13695,"ĠçĻ½":13696,"ĠMedicine":13697,"Office":13698,"ĠHuawei":13699,"South":13700,"à®¯à®µà®Ł":13701,"Ġà®Ĩà®¯à®ķ":13702,"Ġà®ĩà®°à®ŀ":13703,"âĢŀ":13704,"Ġ219":13705,"Ġà®¤à®²à®ķ":13706,"Ġ345":13707,"ĠNatural":13708,"1951":13709,"ĠGun":13710,"ĠOT":13711,"ĠJames":13712,"utual":13713,"opt":13714,"666":13715,"inning":13716,"ĠSKUPD":13717,"YS":13718,"boss":13719,"mah":13720,"oad":13721,"à¯Ī||":13722,"à®Łà®©à®©":13723,"à®ĩà®¯à®Ļ":13724,"010":13725,"Ġ335":13726,"ĠSn":13727,"oups":13728,"à®ıà®®à®©":13729,"Ġmove":13730,"Ġmakes":13731,"asons":13732,"eless":13733,"ĠFarm":13734,"etes":13735,"ÐµÐ²":13736,"ĠANSW":13737,"ifications":13738,"uggling":13739,"ĠEconomic":13740,"tm":13741,"çĻ":13742,"Ġà®µà®¤à®©":13743,"à¯į!:":13744,"Ġhost":13745,"Ġ1890":13746,"ĠHost":13747,"1800":13748,"ĠThey":13749,"266":13750,"Ġcomplet":13751,"388":13752,"Ġnotice":13753,"ÑĢÐ°":13754,"ĠPostà®¤":13755,"ĠPublication":13756,"wikisource":13757,"ÙĦÙĬ":13758,"Ġever":13759,"330":13760,"Ġut":13761,"à®ªà®ķà®ļà®ķ":13762,"Ġà®ªà®µà®¤":13763,"à®£à®µà®²":13764,"à®¯à®µà®°à®¤":13765,"Ġfake":13766,"Ġborn":13767,"ĠKalai":13768,"ooper":13769,"Ġ251":13770,"à¤¹":13771,"ruck":13772,"ONE":13773,"Ġevent":13774,"Ġworking":13775,"Ġcommon":13776,"Ġwarri":13777,"ĠREAD":13778,"Ġclouds":13779,"Bhar":13780,"Good":13781,"HR":13782,"June":13783,"WA":13784,"Ġorders":13785,"à®³à®²à®µ":13786,"à®´à®¯":13787,"Ġà®ħà®²à®¸":13788,"à®±à®ķà®°à®®":13789,"orage":13790,"Ġ630":13791,"ĠPant":13792,"asure":13793,"ĠOP":13794,"ĠWall":13795,"Ġ227":13796,"2500":13797,"Ġà®ħà®¸à®°":13798,"Ġ802":13799,"ĠRef":13800,"Ġ!!!!":13801,"ĠTrading":13802,"Ġà®ıà®ľà®£":13803,"ĠPersonal":13804,"ĠDrivers":13805,"Sl":13806,"Soor":13807,"Tra":13808,"cut":13809,"à¯į].":13810,"à¯ģÂ¡":13811,"à¯ĬâĢĮ":13812,"Ġà®°à®ļà®²":13813,"ĠAstrology":13814,"ĠME":13815,"ĠRice":13816,"Ġmer":13817,"Ġfuture":13818,"ĠDR":13819,"1929":13820,"ires":13821,"ĠWay":13822,"Ġ258":13823,"162":13824,"ainer":13825,"à¯Ī...\"":13826,"Ġdeal":13827,"/=)":13828,"ORE":13829,"URE":13830,"Ġseized":13831,"arnataka":13832,"ÙĪÙĨ":13833,"Ġà®ļà®®à®°à®ļà®ª":13834,"à®Ĩà®Ĩà®Ĩà®Ĩà®Ĩà®Ĩà®Ĩà®Ĩ":13835,"Ġwritten":13836,"<?":13837,"Ur":13838,"×¨":13839,"à®®à®°à®ļ":13840,"à®¯à®ļà®¤":13841,"à®ļà®°à®µà®£":13842,"Ġ342":13843,"ĠSimbu":13844,"ĠBuddy":13845,"Ġah":13846,"ĠFb":13847,"idget":13848,"Ġlover":13849,"ova":13850,"Ġreviews":13851,"à¯Ī!)":13852,"276":13853,"verse":13854,"Ġformat":13855,"è§Ĩ":13856,"August":13857,"Kumar":13858,"Rem":13859,"mai":13860,"Ġà®¤à®°à®Ł":13861,"à®Łà®µà®¨":13862,"ĠPop":13863,"Ġfame":13864,"ĠOl":13865,"171":13866,"antic":13867,"height":13868,"ĠOffers":13869,"Ġcontest":13870,"à´¿":13871,"Acer":13872,"Save":13873,"none":13874,"Ø·":13875,"ĠâĢł":13876,"ician":13877,"Ġà®·à®ĥà®ª":13878,"Ġposition":13879,"Ġprices":13880,"Ġinternational":13881,"Ġguy":13882,"update":13883,"Ġ298":13884,"ĠÐľ":13885,"onder":13886,"amakrishnan":13887,"ĠØµ":13888,"ĠQue":13889,"argest":13890,"riminal":13891,"Ġkilling":13892,"ĠWedding":13893,"ĠCLICK":13894,"free":13895,"à®ķà®ľà®¤":13896,"à®¾&":13897,"à®ļà®³à®µ":13898,"à®µà®°à®¤à®Ł":13899,"ĠSBI":13900,"Ġ191":13901,"ĠCash":13902,"Ġtask":13903,"lee":13904,"Ġ031":13905,"Ġà®°à®ļà®ķ":13906,"ĠDiesel":13907,"irt":13908,"Ġ1880":13909,"ĠHair":13910,"ĠHero":13911,"ĠâĢ¦!":13912,"ongal":13913,"Ġprotection":13914,"Ġabove":13915,"Ð¸Ð»":13916,"à¯ĩâĢ¦..":13917,"ambridge":13918,"ĠSeithi":13919,"ä¸īèĤĸ":13920,"ĠAddress":13921,"Ġharassment":13922,"Karthik":13923,"à®ªà®ķà®³":13924,"à¯Ī.'":13925,"ĠNeed":13926,"ĠPO":13927,"Ġsri":13928,"ĠIde":13929,"ĠFace":13930,"ĠLE":13931,"Ġà®ķà®®à®²à®¤":13932,"athil":13933,"Ġreally":13934,"open":13935,"ĠÐł":13936,"ĠâĻ":13937,"ILE":13938,"akka":13939,"ĠCommon":13940,"Ġparties":13941,"ĠRecruitment":13942,"ividual":13943,"à¯į~":13944,"à®¸Ã´":13945,"Ġà®ķà®Łà®ķà®Łà®µ":13946,"ĠAri":13947,"Ġocc":13948,"ĠGay":13949,"road":13950,"utral":13951,"Ġ244":13952,"Ġplaces":13953,"ICAL":13954,"Ġçº":13955,"à·Ĭ":13956,"Ġcountries":13957,"General":13958,"ĠCBCN":13959,"336":13960,"Cup":13961,"Ġà®ªà®µà®³à®µ":13962,"à®Ĩà®¤à®®":13963,"Ġà®¹à®°à®©":13964,"Ġà®¹à®ĥà®ª":13965,"Ġà®ķà®µà®³à®®":13966,"ĠCelebr":13967,"à¯į---":13968,"Ġà®·à®·":13969,"Ġwedding":13970,"ago":13971,"aham":13972,"Tamilnadu":13973,"Ġrole":13974,"anguages":13975,"illet":13976,"ĠAnnounc":13977,"ĠRegist":13978,"Ġsingle":13979,"Head":13980,"Press":13981,"SX":13982,"wers":13983,"è¾":13984,"à®Łà®ļà®¨":13985,"Ġà®ļà®ªà®²":13986,"à¯Ĭ...":13987,"Ġà®¤à®®à®°":13988,"Ġ,âĢĿ":13989,"à®±à®µà®¯à®®":13990,"ĠCredit":13991,"ĠCBSE":13992,"Ġwrote":13993,"Ġdh":13994,"Ġdriv":13995,"Ġoption":13996,"ĠVillage":13997,"Ġlady":13998,"Ġ2100":13999,"244":14000,"à¯ģà®¾à®¿":14001,"ullah":14002,"ĠPerumal":14003,"webkit":14004,"ĠMarketing":14005,"\":\"":14006,"Ġà®ķà®ľà®ķà®¸":14007,"ĠSensex":14008,"ĠPROCEED":14009,"burg":14010,"à®£à®ķà®®":14011,"ĠCool":14012,"ĠFre":14013,"Ġloud":14014,"Ġà®±à®¨":14015,"illing":14016,"357":14017,"ãģĵ":14018,"à¯įâĢĻâĢĻ.":14019,"/=âĢĵ":14020,"Ġà®ĥà®µ":14021,"à¯ĩ',":14022,"ACH":14023,"Ġenter":14024,"Ġstruggle":14025,"Ġweight":14026,"APP":14027,"ĠPrem":14028,"ĠDeposit":14029,"udden":14030,"à¯įÂ¬":14031,"Ġpoints":14032,"Ġincrease":14033,
[...]
